<pad>	0
<s>	0
</s>	0
<unk>	0
▁the	-3.15641
▁.	-3.22075
▁,	-3.25247
s	-3.38253
ed	-3.83764
▁to	-3.87451
▁a	-3.92847
▁of	-3.93338
▁in	-4.07404
▁and	-4.10919
ing	-4.29212
▁s	-4.58021
y	-4.73631
▁The	-4.85466
▁	-4.88143
▁said	-4.88151
▁on	-4.91131
▁for	-4.98856
▁that	-5.02129
▁is	-5.18081
ly	-5.19306
▁was	-5.26658
▁with	-5.32135
▁be	-5.33469
d	-5.40155
▁at	-5.58779
▁from	-5.62402
▁by	-5.65098
▁has	-5.67379
▁it	-5.68876
▁an	-5.70205
▁as	-5.73521
e	-5.76009
▁have	-5.76217
▁he	-5.80053
▁his	-5.80927
▁are	-5.88293
t	-5.88876
▁were	-5.96463
▁will	-5.97619
▁S	-6.05097
▁not	-6.06098
n	-6.064
▁who	-6.1142
▁had	-6.18922
▁U	-6.22321
▁after	-6.23213
▁been	-6.23443
▁A	-6.25694
▁I	-6.25973
▁their	-6.33296
▁year	-6.33358
▁but	-6.33903
▁its	-6.35869
▁people	-6.3832
▁about	-6.40143
▁Korea	-6.42877
▁more	-6.43467
▁this	-6.45152
▁which	-6.46326
▁t	-6.47689
▁two	-6.48079
▁up	-6.50073
▁would	-6.51725
▁government	-6.53516
a	-6.53816
▁they	-6.54262
▁her	-6.5566
▁or	-6.57763
▁one	-6.60938
▁out	-6.62577
▁than	-6.62804
ies	-6.62955
▁also	-6.63474
▁over	-6.69633
▁North	-6.69757
er	-6.72399
▁CNN	-6.74523
▁first	-6.76589
▁last	-6.76848
al	-6.77781
▁He	-6.81759
▁In	-6.82756
es	-6.83077
▁into	-6.84142
ce	-6.84642
▁President	-6.85265
r	-6.85359
▁It	-6.85368
▁when	-6.87034
▁other	-6.87861
▁she	-6.8789
▁South	-6.88306
▁time	-6.91457
o	-6.92084
▁told	-6.92116
▁new	-6.94147
▁police	-6.95327
▁all	-6.96727
▁Korean	-6.96917
▁we	-6.97425
▁percent	-7.0057
▁years	-7.0098
▁some	-7.01692
on	-7.04578
▁But	-7.05303
▁United	-7.05766
▁them	-7.06149
an	-7.06455
▁could	-7.06786
en	-7.07417
▁can	-7.09643
▁no	-7.11501
▁Monday	-7.12273
▁country	-7.12572
▁Iraq	-7.13359
▁there	-7.14304
▁Tuesday	-7.14424
l	-7.15973
▁officials	-7.16249
ese	-7.16319
▁militar	-7.16444
▁says	-7.16762
▁three	-7.19042
▁you	-7.19707
▁kill	-7.20868
▁Obama	-7.21346
▁according	-7.23046
▁Wednesday	-7.23524
▁million	-7.23591
▁week	-7.23599
▁him	-7.2365
▁Japan	-7.24481
in	-7.24628
▁old	-7.25272
▁C	-7.25322
▁Sunday	-7.26061
▁take	-7.26533
▁against	-7.27053
▁world	-7.27237
▁like	-7.27478
▁before	-7.28844
▁day	-7.28976
▁China	-7.29625
▁We	-7.30305
▁nuclear	-7.30553
▁Bush	-7.30618
▁where	-7.31902
▁down	-7.33354
▁what	-7.34337
▁us	-7.34524
▁state	-7.34915
▁since	-7.35177
cause	-7.35599
▁say	-7.3562
▁Thursday	-7.36001
▁official	-7.36053
▁near	-7.3628
▁off	-7.36808
▁back	-7.3727
▁most	-7.37449
▁New	-7.37913
ish	-7.3849
▁States	-7.40033
▁reported	-7.40628
tween	-7.40767
ment	-7.41584
▁if	-7.41722
▁al	-7.42605
▁made	-7.43004
▁American	-7.43779
▁D	-7.43962
▁under	-7.44155
▁now	-7.45206
i	-7.45235
▁dur	-7.45477
▁N	-7.45667
▁just	-7.46256
▁month	-7.47354
▁former	-7.49811
▁four	-7.50266
▁through	-7.50337
▁so	-7.51301
▁end	-7.53012
▁being	-7.54593
▁called	-7.54709
▁m	-7.54798
▁plan	-7.54849
▁including	-7.55125
▁high	-7.55202
▁president	-7.57106
▁statement	-7.57676
▁re	-7.59216
▁whil	-7.60629
▁did	-7.60748
▁any	-7.60976
▁nation	-7.61173
▁found	-7.61212
▁group	-7.6126
▁help	-7.61508
▁get	-7.62577
▁home	-7.62634
▁many	-7.6372
▁work	-7.64011
▁party	-7.64319
▁do	-7.6493
▁city	-7.65266
▁National	-7.65622
▁report	-7.65703
▁part	-7.65897
▁US	-7.66451
▁won	-7.66497
▁show	-7.66626
▁may	-7.67348
▁nex	-7.68115
▁six	-7.68381
▁reports	-7.68592
▁attack	-7.68934
▁our	-7.68953
man	-7.68991
hose	-7.6914
▁make	-7.69581
▁talks	-7.69595
▁security	-7.70381
▁Minister	-7.70447
ion	-7.70885
▁un	-7.70956
▁war	-7.71361
▁days	-7.7198
▁news	-7.7219
▁death	-7.72602
▁second	-7.72604
able	-7.72696
▁leas	-7.72781
▁troops	-7.7379
other	-7.73876
▁man	-7.74463
▁five	-7.75328
▁still	-7.75724
▁di	-7.7648
▁Seoul	-7.7653
▁H	-7.77505
▁long	-7.77558
▁want	-7.7814
▁T	-7.78417
▁around	-7.78526
▁see	-7.80042
▁set	-7.80148
▁recent	-7.80979
▁come	-7.81083
▁hour	-7.8119
▁W	-7.81205
▁know	-7.81216
▁Clinton	-7.82042
est	-7.82236
▁close	-7.83286
▁way	-7.83693
▁leader	-7.84539
ok	-7.84659
▁go	-7.84677
▁lead	-7.84829
ther	-7.85376
▁top	-7.8562
▁site	-7.85677
ity	-7.85681
out	-7.86164
▁support	-7.86533
▁program	-7.86803
▁Iraqi	-7.86938
▁return	-7.87308
▁place	-7.87367
▁B	-7.87982
▁expected	-7.88066
▁company	-7.89242
▁saying	-7.89398
▁Brit	-7.89501
▁billion	-7.90188
▁spokesm	-7.90497
le	-7.91108
▁look	-7.91422
▁how	-7.91472
▁presidential	-7.91942
▁public	-7.92387
▁th	-7.9287
▁House	-7.92994
▁should	-7.93442
▁arrest	-7.94309
▁office	-7.94326
▁number	-7.94672
▁Saturday	-7.94793
▁Chin	-7.95572
▁head	-7.95782
▁Friday	-7.96016
▁campaign	-7.9611
▁M	-7.96472
▁minister	-7.97127
▁children	-7.97158
▁political	-7.97413
ic	-7.97541
▁well	-7.97652
▁meeting	-7.9826
▁Washington	-7.98378
▁members	-7.99073
very	-7.99284
▁P	-7.99339
▁claim	-8.00031
▁countries	-8.00156
▁She	-8.00262
▁believe	-8.00594
▁early	-8.00821
▁came	-8.00969
▁Kim	-8.01085
▁release	-8.01109
▁An	-8.0123
▁York	-8.01445
▁team	-8.01706
▁forces	-8.01875
ers	-8.01923
▁Party	-8.02263
▁use	-8.02355
▁months	-8.02475
▁This	-8.02977
▁going	-8.0298
▁And	-8.03033
▁arm	-8.03374
▁international	-8.03809
▁visit	-8.03869
▁think	-8.04575
▁election	-8.04583
▁authorit	-8.04661
▁court	-8.04667
▁Lee	-8.05285
▁K	-8.05405
▁give	-8.05468
▁family	-8.05823
way	-8.05915
▁even	-8.06089
held	-8.0633
▁try	-8.06492
▁There	-8.06782
▁capital	-8.06898
▁need	-8.06907
▁John	-8.07446
▁left	-8.07581
▁ago	-8.07871
▁night	-8.08025
▁power	-8.08224
▁wom	-8.08828
▁fire	-8.09045
▁yesterday	-8.09131
▁much	-8.09171
▁national	-8.09172
▁announc	-8.09191
▁face	-8.09893
▁issue	-8.10175
▁e	-8.10205
▁Pakistan	-8.1076
▁move	-8.10983
▁Democratic	-8.11275
▁deal	-8.1128
▁allow	-8.11344
▁run	-8.11657
▁good	-8.12039
▁economic	-8.12693
▁ask	-8.1281
▁later	-8.12852
▁Ministry	-8.12988
ation	-8.13461
▁both	-8.13652
▁Iran	-8.13723
▁area	-8.13872
▁my	-8.14593
▁chief	-8.14754
land	-8.15
▁same	-8.15218
h	-8.1528
▁among	-8.15798
uch	-8.15941
▁On	-8.16192
▁life	-8.16402
▁own	-8.16545
▁Prime	-8.16547
▁bank	-8.16714
▁turn	-8.16924
▁car	-8.17968
▁business	-8.18683
▁At	-8.18988
▁dead	-8.19116
▁market	-8.19159
▁major	-8.19228
▁appear	-8.19289
▁World	-8.19305
▁service	-8.19308
▁men	-8.19694
▁start	-8.19747
ve	-8.19786
▁soldier	-8.19932
▁Roh	-8.20085
▁foreign	-8.20293
▁past	-8.20407
▁State	-8.20621
▁human	-8.209
▁earlie	-8.2104
▁militant	-8.21181
▁candidate	-8.21498
▁Police	-8.21513
▁right	-8.22106
▁F	-8.22425
▁then	-8.22432
▁leaders	-8.22661
▁third	-8.23097
▁whe	-8.2317
▁call	-8.23268
▁concern	-8.23419
▁record	-8.23576
▁main	-8.23909
▁opposition	-8.24071
▁vote	-8.24105
▁half	-8.24293
▁media	-8.24332
▁local	-8.24721
▁E	-8.24735
▁case	-8.24776
▁hit	-8.24785
▁economy	-8.25049
▁agency	-8.25094
▁Taliban	-8.25214
▁few	-8.25381
▁remain	-8.25445
to	-8.26595
▁spokes	-8.26829
▁That	-8.26882
▁sign	-8.27046
▁oil	-8.27281
▁put	-8.27298
▁morning	-8.27563
▁com	-8.27575
▁Palestinian	-8.27883
▁L	-8.27943
▁German	-8.28053
▁Afghanistan	-8.28053
▁White	-8.28257
▁large	-8.28791
▁house	-8.29025
▁final	-8.29576
▁test	-8.29582
▁clear	-8.2976
▁late	-8.29894
▁health	-8.29936
▁McCain	-8.30279
▁rule	-8.3076
▁increase	-8.31148
▁attacks	-8.31181
▁money	-8.31332
▁law	-8.31707
▁If	-8.32001
▁does	-8.32081
▁unti	-8.32452
▁your	-8.32514
▁killing	-8.32662
▁school	-8.33438
▁already	-8.33472
▁financial	-8.33625
▁led	-8.33687
▁began	-8.33825
▁win	-8.33828
th	-8.33883
▁Al	-8.3416
▁don	-8.3451
▁decision	-8.34553
▁source	-8.34637
▁system	-8.34741
▁water	-8.35068
▁AP	-8.35322
▁strong	-8.35464
▁best	-8.35941
u	-8.36049
▁free	-8.37001
▁line	-8.37168
▁name	-8.37191
▁bomb	-8.37221
▁along	-8.37425
▁French	-8.37456
▁miles	-8.37515
▁Press	-8.37652
▁Israeli	-8.3768
▁continue	-8.3807
▁Sen	-8.38078
▁Israel	-8.38117
▁workers	-8.3834
▁become	-8.38396
cross	-8.3857
▁region	-8.3864
▁cut	-8.39281
▁small	-8.39334
▁play	-8.39466
▁keep	-8.39504
▁Beijing	-8.39524
▁change	-8.39526
▁film	-8.39528
m	-8.39792
▁b	-8.39811
▁O	-8.39835
▁University	-8.40098
▁Barack	-8.40288
▁attempt	-8.40884
▁eight	-8.41056
▁Secretar	-8.413
▁agreement	-8.41786
▁consider	-8.41798
▁injur	-8.42045
▁today	-8.42171
▁hope	-8.42269
▁European	-8.42476
yang	-8.42485
▁Web	-8.43048
▁current	-8.43397
▁video	-8.43556
▁bas	-8.43872
▁confirm	-8.43885
um	-8.44322
▁accus	-8.44343
▁space	-8.44439
▁operation	-8.44483
▁weapons	-8.44488
▁Depart	-8.44539
▁Baghdad	-8.44591
▁woman	-8.44888
each	-8.44954
▁Russia	-8.44963
▁offer	-8.44993
▁conference	-8.44997
▁these	-8.45752
▁violen	-8.45932
▁air	-8.46055
▁mak	-8.46127
▁gas	-8.46179
▁No	-8.46206
us	-8.46251
▁Times	-8.46263
▁condition	-8.46301
▁person	-8.46762
taking	-8.46764
▁control	-8.46769
▁great	-8.47015
▁station	-8.47236
▁force	-8.47323
▁seven	-8.47426
▁border	-8.47631
▁general	-8.47634
▁plann	-8.47697
▁London	-8.47837
▁me	-8.47862
▁far	-8.47876
▁rate	-8.48238
▁prices	-8.4913
▁One	-8.49737
▁G	-8.49739
▁action	-8.49842
▁hospital	-8.49846
▁weeks	-8.49908
▁town	-8.50581
▁fund	-8.50624
▁launch	-8.50756
▁California	-8.50769
▁big	-8.50775
▁others	-8.51103
▁administration	-8.51198
▁Republican	-8.51216
▁food	-8.5141
▁full	-8.51469
went	-8.51496
▁Britain	-8.51625
▁added	-8.5168
▁article	-8.52098
▁releas	-8.52196
▁Pyong	-8.52271
▁alleged	-8.52398
▁thousand	-8.52484
▁involv	-8.52592
▁global	-8.52699
▁include	-8.5306
▁southern	-8.53143
▁students	-8.53531
▁might	-8.53572
▁point	-8.53572
▁rights	-8.53635
▁p	-8.53773
▁grow	-8.53789
▁open	-8.53937
▁information	-8.5402
▁post	-8.54149
▁Foreign	-8.54229
▁comment	-8.54306
▁target	-8.54449
son	-8.545
▁Internet	-8.54676
▁sever	-8.54827
▁order	-8.55035
▁province	-8.55327
▁base	-8.5533
▁member	-8.55892
▁International	-8.56005
▁Man	-8.56155
te	-8.56205
▁immediate	-8.56454
▁following	-8.56643
▁outside	-8.56768
▁talk	-8.56902
▁ahead	-8.57211
▁here	-8.57216
▁got	-8.57256
▁May	-8.57581
▁France	-8.57728
▁side	-8.58231
▁March	-8.58279
▁key	-8.58312
▁ve	-8.58456
▁investigation	-8.58553
▁short	-8.5861
▁hold	-8.58623
▁aid	-8.5864
▁larges	-8.58649
▁never	-8.58962
▁possible	-8.59037
▁director	-8.59217
▁question	-8.59264
▁points	-8.59308
▁cause	-8.59399
▁center	-8.59496
▁working	-8.59729
▁charges	-8.59982
▁Some	-8.60056
▁January	-8.6012
▁cost	-8.60127
▁follow	-8.60517
▁must	-8.60606
▁find	-8.60888
▁Securit	-8.60957
▁trade	-8.61096
▁young	-8.61204
▁crisis	-8.61294
greed	-8.62093
▁live	-8.62232
▁companies	-8.62243
▁June	-8.62261
ism	-8.62285
▁every	-8.62288
▁body	-8.6265
▁After	-8.62716
▁stop	-8.62908
▁again	-8.63419
ness	-8.63704
▁latest	-8.63716
een	-8.63813
▁Russian	-8.64201
▁July	-8.64207
▁study	-8.64218
▁due	-8.64225
▁elections	-8.64253
▁For	-8.64262
▁toward	-8.64409
▁newspaper	-8.64413
▁race	-8.64547
▁hard	-8.64577
▁Associat	-8.64612
▁tell	-8.64798
▁anti	-8.64908
▁America	-8.64918
ry	-8.64974
▁Islam	-8.6516
▁interview	-8.65477
▁reporters	-8.65534
▁George	-8.65889
▁game	-8.65895
little	-8.65897
▁round	-8.65927
▁building	-8.66311
▁peace	-8.66353
▁Afghan	-8.66377
▁senior	-8.66481
▁carry	-8.66658
▁England	-8.66878
▁Bank	-8.6714
▁central	-8.672
▁search	-8.67388
▁term	-8.67496
▁pay	-8.67533
▁process	-8.68055
▁interest	-8.68536
▁September	-8.68641
▁suicide	-8.68682
▁less	-8.68863
▁emergency	-8.68927
▁ruling	-8.69151
▁northern	-8.69415
▁Gaza	-8.69432
▁pass	-8.6948
▁weekend	-8.69921
▁further	-8.69922
▁Ap	-8.70287
▁low	-8.70332
▁previous	-8.70436
▁hostage	-8.70447
▁groups	-8.70455
▁list	-8.70527
▁efforts	-8.70586
such	-8.70648
one	-8.70674
▁meet	-8.70891
self	-8.70919
ive	-8.70943
▁age	-8.71026
▁demand	-8.71137
▁As	-8.7117
cy	-8.7135
▁bring	-8.71377
raf	-8.71464
▁prime	-8.71604
▁share	-8.71731
▁level	-8.7175
▁My	-8.71797
▁develop	-8.72423
▁provide	-8.72454
▁couple	-8.72541
▁child	-8.72802
▁send	-8.72806
▁per	-8.72884
▁serious	-8.73057
z	-8.73184
▁too	-8.733
▁Re	-8.73353
▁travel	-8.7337
▁future	-8.7365
ril	-8.73765
▁minutes	-8.73904
▁suggest	-8.74081
age	-8.74109
▁lost	-8.74125
▁lot	-8.74476
▁policy	-8.74477
eda	-8.74629
▁train	-8.7463
▁better	-8.74677
▁terrorist	-8.74777
▁shot	-8.74785
▁goal	-8.74806
▁Musha	-8.74875
▁hundred	-8.74934
▁Congress	-8.75205
▁December	-8.75205
woman	-8.75256
▁Court	-8.75483
▁bill	-8.75677
▁sent	-8.75763
▁wide	-8.75781
▁victory	-8.7582
▁storm	-8.76037
▁strike	-8.76178
▁missile	-8.763
▁East	-8.76655
eries	-8.76923
▁result	-8.77043
ought	-8.77116
▁stay	-8.77127
▁lawmaker	-8.77136
▁When	-8.77149
▁TV	-8.77191
▁poll	-8.77231
though	-8.77245
▁break	-8.77374
▁R	-8.77536
▁fuel	-8.77679
▁threaten	-8.7774
hind	-8.77956
▁hand	-8.78052
▁Europe	-8.78428
▁wounded	-8.78453
▁damage	-8.7849
▁incident	-8.78518
g	-8.78564
▁mother	-8.78683
▁His	-8.78867
▁direct	-8.79061
▁father	-8.79094
▁seek	-8.79099
▁You	-8.7941
▁enough	-8.79645
▁cell	-8.79665
▁More	-8.80224
▁Asia	-8.80394
▁City	-8.80448
ial	-8.80474
▁November	-8.80499
▁important	-8.80519
ary	-8.80919
▁plane	-8.81048
▁hav	-8.81257
▁Pa	-8.81525
▁David	-8.8194
▁ever	-8.82099
▁protest	-8.82168
▁season	-8.82258
▁Arm	-8.82279
▁wife	-8.82531
▁television	-8.82553
▁stock	-8.82589
▁fall	-8.82704
▁really	-8.82756
▁prison	-8.82806
▁ground	-8.82806
▁executive	-8.82818
▁job	-8.82919
▁discuss	-8.83064
▁With	-8.83077
▁vehicle	-8.83108
▁inside	-8.83138
▁almost	-8.83216
▁started	-8.83233
▁San	-8.83309
▁whose	-8.83468
▁role	-8.83817
ier	-8.8393
▁industry	-8.83992
▁sex	-8.84041
coming	-8.84123
na	-8.84205
▁India	-8.84345
▁act	-8.84366
ous	-8.84564
▁crash	-8.84886
▁press	-8.84932
BC	-8.84999
▁Democrat	-8.85144
▁Center	-8.8519
▁August	-8.85485
mid	-8.85488
▁history	-8.85495
▁front	-8.85544
▁J	-8.85562
▁So	-8.8557
▁organization	-8.85797
less	-8.85914
mar	-8.86289
▁pro	-8.863
▁fighting	-8.86681
▁private	-8.867
▁soon	-8.86786
▁caus	-8.86805
▁judge	-8.86809
▁problem	-8.86962
▁different	-8.87006
▁foot	-8.87025
▁star	-8.87051
▁Tw	-8.87244
▁General	-8.87306
▁heart	-8.87572
▁All	-8.87595
▁victims	-8.88091
▁urg	-8.88195
▁evidence	-8.8823
▁rebel	-8.88237
▁receiv	-8.88455
▁complete	-8.8848
▁warn	-8.88518
▁conduct	-8.88546
vez	-8.88574
▁mission	-8.88688
▁special	-8.88772
▁step	-8.88892
▁player	-8.89032
▁fail	-8.89032
▁total	-8.8909
▁negotiation	-8.8917
▁room	-8.89254
▁areas	-8.89296
▁charge	-8.89327
▁scientist	-8.89473
▁Nation	-8.89488
▁War	-8.89573
▁join	-8.89615
▁Las	-8.89622
▁homes	-8.89656
▁problems	-8.89827
▁pressure	-8.89834
▁voter	-8.89995
▁de	-8.9004
▁February	-8.90101
▁flight	-8.9015
▁liv	-8.90413
▁gave	-8.90417
▁Australia	-8.90506
▁protect	-8.9057
▁Council	-8.90733
▁times	-8.9087
▁supporter	-8.9102
▁leave	-8.9109
▁coast	-8.91187
▁disease	-8.9137
▁despi	-8.91627
▁elect	-8.91667
ten	-8.91877
▁met	-8.91986
▁hyun	-8.92011
▁yet	-8.92052
▁tour	-8.92059
ri	-8.92452
▁trip	-8.9246
▁primar	-8.92507
▁speak	-8.92623
▁reach	-8.92877
▁w	-8.92892
▁risk	-8.92977
▁Angel	-8.9299
▁Park	-8.93108
▁Pakistani	-8.93131
▁situation	-8.93302
▁research	-8.93326
▁fell	-8.9334
ton	-8.9356
▁tried	-8.93708
▁crew	-8.9396
ance	-8.93977
▁happen	-8.94063
▁south	-8.94141
known	-8.94331
▁illegal	-8.94611
▁thought	-8.94726
▁watch	-8.94921
▁October	-8.94941
▁detail	-8.94941
▁loss	-8.94958
ally	-8.95124
▁Senate	-8.95278
▁link	-8.95292
▁West	-8.95301
▁ship	-8.95514
▁price	-8.95814
▁parliament	-8.95878
▁energy	-8.95948
▁approv	-8.96103
▁lower	-8.96109
wide	-8.96166
▁express	-8.96237
▁Florida	-8.9661
▁pull	-8.96614
▁severa	-8.96784
c	-8.9687
▁airport	-8.96901
▁serve	-8.96938
▁federal	-8.96944
▁speech	-8.96944
▁request	-8.96945
▁Hamas	-8.96945
▁rival	-8.96951
▁ministr	-8.97283
▁attend	-8.97286
▁summit	-8.97341
▁results	-8.97381
▁movie	-8.97452
f	-8.97606
▁hotel	-8.97626
▁denie	-8.97658
▁phone	-8.97808
▁road	-8.97837
▁Leban	-8.97963
▁lawyer	-8.97969
▁medical	-8.97977
▁According	-8.97978
▁sell	-8.98088
▁real	-8.98131
▁son	-8.98236
▁walk	-8.98283
▁nine	-8.98337
▁Gen	-8.98511
▁decided	-8.98537
▁Moo	-8.98572
▁focus	-8.98647
▁animal	-8.98654
▁position	-8.98675
▁wanted	-8.98781
▁Union	-8.98982
▁together	-8.99031
▁UN	-8.99047
▁dozen	-8.99076
▁aim	-8.99079
▁north	-8.99104
▁Muslim	-8.99333
▁ll	-8.995
O	-8.99545
▁resident	-8.99596
by	-8.99693
▁crime	-8.99694
▁co	-8.99845
▁bus	-8.99896
biggest	-8.99934
▁Agenc	-8.99981
▁something	-9.00056
▁begin	-9.00366
▁calls	-9.00379
▁prosecutor	-9.0038
▁crowd	-9.0038
▁rise	-9.00393
▁daughter	-9.00398
▁Rice	-9.0075
or	-9.00914
▁fight	-9.00939
▁To	-9.0097
▁quick	-9.01076
▁Thai	-9.0109
▁boy	-9.01166
▁missing	-9.012
▁address	-9.01307
side	-9.01674
▁Hillary	-9.01795
▁rais	-9.01869
▁effort	-9.01931
▁reached	-9.01948
owever	-9.0208
▁growth	-9.02175
▁needed	-9.02229
▁girl	-9.02292
▁Asian	-9.02387
▁stage	-9.02492
▁mov	-9.02573
▁terror	-9.02762
▁product	-9.02779
▁People	-9.02849
▁chance	-9.02858
▁apparent	-9.02895
▁arriv	-9.02915
▁saw	-9.02933
▁light	-9.03006
▁Olympic	-9.03032
efense	-9.03142
▁getting	-9.03232
▁Sarkozy	-9.03928
▁defense	-9.03936
▁stand	-9.04211
▁fee	-9.04376
▁online	-9.04503
▁Robert	-9.04654
▁Koreans	-9.04836
▁states	-9.04985
▁treat	-9.04995
▁carrie	-9.05016
▁Hong	-9.0505
▁battle	-9.05221
▁markets	-9.05362
▁heavy	-9.05385
▁jail	-9.05387
▁expect	-9.05466
▁protesters	-9.05563
▁seem	-9.05709
▁prevent	-9.05753
▁popular	-9.05754
▁Earl	-9.05838
▁match	-9.05893
▁blood	-9.061
▁scene	-9.06126
▁kind	-9.06174
co	-9.0618
▁cover	-9.06229
▁nomination	-9.06508
▁pick	-9.06522
▁legal	-9.06617
▁feel	-9.06835
▁threat	-9.07108
▁issues	-9.07253
came	-9.07367
▁tax	-9.07414
▁relations	-9.07415
ra	-9.0755
▁schedul	-9.07612
▁Ki	-9.07646
▁Texas	-9.07987
▁Brown	-9.08423
▁form	-9.08444
▁destroy	-9.08542
▁credit	-9.08652
▁Tokyo	-9.08744
▁buy	-9.08761
▁Authorit	-9.08796
▁board	-9.08908
▁Australian	-9.09017
▁Paul	-9.09092
▁blast	-9.09124
▁quarter	-9.09511
▁fan	-9.09517
▁running	-9.09521
▁mid	-9.09609
st	-9.09722
▁black	-9.09751
▁Bhut	-9.09889
▁delay	-9.09895
▁park	-9.09895
▁Hill	-9.10156
▁count	-9.10453
▁host	-9.10505
▁project	-9.10625
k	-9.10826
▁Cha	-9.10881
▁event	-9.11032
▁murder	-9.11306
▁protests	-9.1131
▁summer	-9.11437
▁coalition	-9.11438
▁cat	-9.11512
▁idea	-9.11743
▁Los	-9.11796
▁bad	-9.11864
▁officers	-9.12009
▁Turke	-9.12054
ern	-9.12082
▁land	-9.12101
▁though	-9.12263
▁estimate	-9.12388
▁Force	-9.12392
▁opened	-9.12432
▁Paris	-9.12498
▁describ	-9.12526
▁bid	-9.12559
▁title	-9.13015
▁population	-9.13016
▁f	-9.13126
▁Cup	-9.13455
▁quot	-9.13496
▁civilians	-9.13578
pent	-9.13655
▁island	-9.13832
▁message	-9.14004
▁ra	-9.14008
▁lives	-9.14148
▁sanction	-9.14208
▁trial	-9.14226
▁technology	-9.14233
▁c	-9.14343
▁higher	-9.14389
▁suffer	-9.14447
▁Co	-9.14503
za	-9.14585
▁continued	-9.14595
▁firm	-9.14606
▁resolution	-9.14607
▁communist	-9.1461
▁development	-9.14696
▁committee	-9.15042
▁image	-9.15065
ung	-9.15133
▁officer	-9.15188
▁plant	-9.15388
▁refus	-9.15414
▁chairman	-9.15433
▁average	-9.1559
▁polls	-9.15665
▁deep	-9.15736
▁ceremon	-9.15819
▁appeal	-9.1582
▁community	-9.1604
▁beat	-9.16109
▁measures	-9.16213
▁production	-9.1628
▁doing	-9.16324
▁sentence	-9.16358
▁identified	-9.165
▁analyst	-9.16642
▁debate	-9.16643
▁Abou	-9.16657
whil	-9.16721
▁story	-9.1678
▁Her	-9.16846
▁Iranian	-9.16901
▁survey	-9.16913
▁Committee	-9.17049
▁husband	-9.17049
▁Michael	-9.17051
▁safe	-9.17167
▁Commission	-9.17462
▁intelligen	-9.17464
▁letter	-9.17491
▁am	-9.17501
▁Africa	-9.1765
▁minute	-9.17805
▁book	-9.17847
▁Grand	-9.17935
▁sales	-9.17953
x	-9.18
▁let	-9.18526
▁network	-9.18577
▁fired	-9.18582
▁things	-9.1861
▁shooting	-9.18657
▁democrac	-9.18712
▁wait	-9.18712
▁date	-9.18805
▁music	-9.19003
▁push	-9.19021
▁similar	-9.19132
▁sea	-9.19204
▁News	-9.19289
▁contain	-9.1929
▁dispute	-9.19565
re	-9.19638
▁often	-9.19666
▁Per	-9.19701
▁ordered	-9.1974
▁delegates	-9.1992
▁fear	-9.19978
▁Put	-9.20065
ia	-9.20159
taken	-9.20288
▁moment	-9.20412
el	-9.20499
▁cit	-9.20669
▁facilit	-9.20785
▁famili	-9.20821
▁Count	-9.21243
▁fact	-9.2126
▁Street	-9.21263
▁African	-9.21496
▁neighbor	-9.21689
▁accident	-9.21733
▁Now	-9.21789
▁present	-9.21865
▁period	-9.2189
▁journalist	-9.22143
▁drug	-9.222
▁field	-9.22463
▁increasing	-9.22559
▁related	-9.2274
▁Wall	-9.22772
▁done	-9.22921
▁difficult	-9.22979
▁white	-9.22998
▁forc	-9.2323
▁joint	-9.23378
▁experts	-9.23412
▁reform	-9.23419
▁What	-9.23435
▁afternoon	-9.23439
▁finish	-9.23448
▁Red	-9.23469
▁rest	-9.23654
▁included	-9.23678
▁English	-9.23875
▁initial	-9.23876
▁paper	-9.23891
selves	-9.23904
▁tourist	-9.23931
▁accept	-9.23976
▁care	-9.24126
▁suspected	-9.24161
▁Air	-9.24241
▁certain	-9.24317
vice	-9.24411
▁gain	-9.2446
▁NAT	-9.24477
▁Kong	-9.24504
▁ready	-9.24532
▁bodie	-9.24542
ways	-9.24591
eague	-9.24593
truck	-9.24887
▁computer	-9.24933
ey	-9.24943
▁access	-9.25009
▁reject	-9.25164
▁parents	-9.25204
▁kilometer	-9.25208
▁potential	-9.25208
ar	-9.2527
ty	-9.25461
▁declar	-9.2553
▁draw	-9.25627
▁love	-9.25653
ful	-9.25912
▁contract	-9.25913
▁vot	-9.25932
▁Saudi	-9.26107
▁burn	-9.26126
▁huge	-9.26142
▁activities	-9.26182
▁commander	-9.26299
▁detain	-9.26555
▁sexual	-9.2661
▁course	-9.26624
▁leav	-9.26966
giving	-9.27006
▁contact	-9.27014
▁rally	-9.27026
▁however	-9.27049
ah	-9.27069
▁matter	-9.27251
ler	-9.27253
▁streets	-9.27332
▁Turk	-9.27355
▁Dr	-9.27396
▁poor	-9.27472
▁announcement	-9.27522
▁Association	-9.27552
▁eastern	-9.27636
▁Dow	-9.27673
▁wear	-9.27695
▁design	-9.27706
▁cases	-9.27804
▁tie	-9.27899
▁block	-9.2793
▁exchange	-9.28008
▁opening	-9.28038
▁jobs	-9.28203
▁friend	-9.28211
▁wors	-9.28299
▁challenge	-9.28314
▁suspend	-9.2839
▁played	-9.28402
▁Harr	-9.28596
▁majorit	-9.28608
▁ban	-9.28664
▁account	-9.28704
▁broke	-9.28927
stead	-9.28997
▁manager	-9.29022
▁response	-9.29318
▁raid	-9.29332
▁Mean	-9.29343
▁patient	-9.29361
p	-9.2939
▁safety	-9.29544
▁drive	-9.2971
▁Assembly	-9.29785
▁cross	-9.29805
▁Be	-9.29823
▁deliver	-9.29845
▁means	-9.29847
▁provid	-9.29893
▁view	-9.29991
▁Indian	-9.30003
▁hearing	-9.30049
▁inter	-9.30067
▁why	-9.30267
▁availab	-9.30305
▁enter	-9.30325
▁treatment	-9.30332
▁partie	-9.30727
ard	-9.30958
▁track	-9.31003
ither	-9.31113
▁progress	-9.31179
▁Illinois	-9.312
▁attorney	-9.312
▁lift	-9.3124
▁cars	-9.31304
▁dog	-9.3131
▁create	-9.31446
▁spoke	-9.31467
▁published	-9.31553
rought	-9.31713
▁forward	-9.31833
wood	-9.31845
▁single	-9.31915
▁critical	-9.31968
▁Taiwan	-9.32155
▁shows	-9.3217
men	-9.32216
▁sure	-9.32277
▁cities	-9.32307
▁Ban	-9.32422
▁material	-9.32444
▁explosion	-9.32636
▁session	-9.32636
▁check	-9.32644
▁prisoner	-9.3265
▁Spa	-9.33022
ley	-9.33325
▁union	-9.33375
▁spread	-9.33467
▁relationship	-9.33606
GNP	-9.33705
▁Su	-9.33732
▁understand	-9.33937
▁spending	-9.3414
▁allegation	-9.34587
▁staff	-9.34629
▁probabl	-9.34673
▁Go	-9.34686
▁gun	-9.34712
▁village	-9.34838
▁investigat	-9.35068
▁Mexico	-9.35076
▁professor	-9.35076
time	-9.35216
▁Chief	-9.35572
▁Health	-9.35573
▁district	-9.35576
▁radio	-9.35584
▁diplomatic	-9.35662
▁holding	-9.36049
▁fast	-9.36071
ING	-9.36133
ong	-9.36198
▁limit	-9.36573
▁researcher	-9.37032
▁Corp	-9.37049
▁female	-9.3707
▁Italian	-9.37078
▁Virginia	-9.37092
▁criticiz	-9.37181
▁Day	-9.37424
▁abo	-9.3751
▁passengers	-9.37544
▁nominee	-9.37575
▁senator	-9.37575
▁Shiite	-9.37577
▁unit	-9.37591
▁longer	-9.37662
▁Bill	-9.37806
▁involve	-9.37839
▁Ko	-9.38018
▁Earth	-9.38085
▁winning	-9.38092
oo	-9.38093
▁avoid	-9.38186
▁rescue	-9.38342
▁non	-9.38373
ever	-9.38545
ory	-9.38547
▁success	-9.38563
▁Smith	-9.38581
▁Chicago	-9.38593
▁brother	-9.38608
ite	-9.38627
▁decades	-9.38825
▁sold	-9.3886
▁raise	-9.39004
▁annual	-9.39098
▁helicopter	-9.39106
▁lack	-9.39121
▁secretary	-9.39179
▁canno	-9.39306
▁driv	-9.39521
▁Italy	-9.39644
▁citizens	-9.39669
▁produc	-9.39689
▁actual	-9.39769
ASA	-9.39863
▁Sea	-9.3994
▁Middle	-9.4014
▁Chung	-9.40143
▁Most	-9.40202
▁camp	-9.40359
▁injuries	-9.40493
▁particular	-9.40661
▁nothing	-9.40683
ir	-9.40897
▁St	-9.40914
▁investor	-9.41231
▁committ	-9.41296
▁discovered	-9.41319
▁size	-9.4132
▁Office	-9.41552
▁award	-9.41615
▁church	-9.4172
▁personal	-9.41807
▁Mark	-9.42003
▁truck	-9.42106
▁insurgent	-9.42239
▁criminal	-9.4224
▁rising	-9.42262
▁Kar	-9.42292
▁thing	-9.42475
▁secret	-9.42549
ie	-9.42702
▁warning	-9.42717
▁data	-9.4281
▁insist	-9.42899
▁dollar	-9.43117
▁Dae	-9.4319
▁Jones	-9.43348
w	-9.43382
▁toll	-9.43434
▁actor	-9.43436
▁separate	-9.43453
▁fly	-9.4365
▁experience	-9.43669
▁steps	-9.43727
▁barrel	-9.43849
▁Western	-9.43864
▁rare	-9.43868
▁rose	-9.43909
▁Federal	-9.4397
▁operat	-9.43973
▁movement	-9.44075
▁natural	-9.44116
special	-9.44148
▁Prince	-9.44206
▁employees	-9.44283
▁maintain	-9.44384
▁conservative	-9.44384
▁code	-9.44439
▁club	-9.44527
▁gather	-9.44639
▁red	-9.44662
▁slow	-9.44726
▁adding	-9.44791
▁establish	-9.44866
▁rain	-9.44878
▁resign	-9.449
▁Group	-9.44934
▁range	-9.44938
▁Former	-9.44944
▁boat	-9.44956
▁seat	-9.45185
kept	-9.4524
▁investment	-9.45342
ney	-9.45363
▁value	-9.45496
▁camera	-9.45524
▁friends	-9.45595
▁build	-9.45702
▁Shin	-9.45893
▁approach	-9.45926
ni	-9.45961
▁earthquake	-9.46023
▁trading	-9.46023
▁satellite	-9.46026
aught	-9.46027
▁common	-9.46027
▁Peter	-9.46079
▁extend	-9.46096
▁honor	-9.46204
▁meter	-9.46346
▁dropp	-9.46347
▁Star	-9.46374
se	-9.4641
ble	-9.46561
▁condemn	-9.46576
▁Carolina	-9.46585
▁peaceful	-9.46597
▁worth	-9.46615
▁independent	-9.46647
▁wound	-9.46701
▁pai	-9.46807
▁mean	-9.46863
▁King	-9.46995
▁figure	-9.47012
▁anything	-9.47139
▁reactor	-9.4714
▁occurr	-9.47171
▁dollars	-9.47331
▁receive	-9.47496
D	-9.47561
▁represent	-9.47661
▁education	-9.47745
▁social	-9.47778
▁additional	-9.47792
▁labor	-9.47885
▁shut	-9.47966
▁rock	-9.47976
▁finding	-9.48155
▁jump	-9.48252
▁defeat	-9.48259
▁massive	-9.48273
ak	-9.48411
▁parts	-9.48428
responsible	-9.48713
▁Official	-9.48817
▁prosecution	-9.4882
▁deput	-9.48822
▁aircraft	-9.48824
▁attention	-9.48846
▁significant	-9.4886
upreme	-9.48864
▁Dur	-9.48896
▁century	-9.4904
▁universit	-9.49058
▁giant	-9.49385
▁EU	-9.49396
▁mail	-9.49408
▁charg	-9.49438
▁original	-9.49544
up	-9.49679
oft	-9.49766
▁export	-9.49805
▁dail	-9.49807
▁ambassador	-9.49956
▁convicted	-9.50076
▁quit	-9.50197
▁suspect	-9.50215
▁Uri	-9.50335
▁visitor	-9.50525
▁flood	-9.50569
▁De	-9.50693
▁remarks	-9.50718
▁ran	-9.50818
▁broadcast	-9.5084
▁Pennsylvania	-9.50846
▁remains	-9.50875
▁drink	-9.51109
▁envoy	-9.51109
▁Other	-9.51228
▁born	-9.51234
▁II	-9.51332
▁Ohio	-9.51691
▁speed	-9.51697
▁nam	-9.5177
▁student	-9.51798
▁whom	-9.51862
▁refugee	-9.52056
▁voice	-9.521
▁propos	-9.52167
▁Tibet	-9.52187
▁prompt	-9.52276
▁discussion	-9.52363
▁hands	-9.5237
▁UK	-9.52381
▁admitted	-9.52433
▁Indonesia	-9.52635
▁drop	-9.52843
▁regard	-9.52865
▁writ	-9.52944
▁driver	-9.53084
▁estimat	-9.532
hile	-9.53426
▁Institute	-9.53455
▁transport	-9.53456
▁brain	-9.53461
▁department	-9.53467
▁evening	-9.53502
▁Abbas	-9.53509
▁usual	-9.53519
▁doctors	-9.53537
▁heard	-9.53632
▁marriage	-9.54051
▁activist	-9.54052
▁criticism	-9.54063
▁device	-9.54071
▁Under	-9.54084
rew	-9.54118
▁require	-9.54176
▁guilt	-9.54179
rote	-9.54239
cific	-9.54272
▁resume	-9.54363
▁questions	-9.54464
▁territor	-9.54514
▁normal	-9.54545
▁cancer	-9.54652
▁training	-9.54695
▁levels	-9.55233
▁western	-9.5526
▁model	-9.55327
▁parliamentar	-9.55339
▁customer	-9.55492
▁fac	-9.55819
▁regime	-9.55855
▁custody	-9.55858
▁impact	-9.55858
▁holiday	-9.55858
▁Both	-9.55865
▁sides	-9.55889
▁leadership	-9.55892
▁index	-9.55898
▁Le	-9.55949
▁investigator	-9.55987
▁Micros	-9.55996
▁intend	-9.55997
▁review	-9.56029
▁effect	-9.56085
▁Service	-9.56094
▁Ky	-9.56266
▁suspects	-9.56415
▁monitor	-9.56468
▁performance	-9.56479
▁bak	-9.56604
▁compar	-9.56666
▁r	-9.56771
▁hurt	-9.56794
▁Y	-9.56831
▁Georgia	-9.56847
▁fine	-9.56915
▁civil	-9.56989
▁conflict	-9.57081
▁beginning	-9.57087
▁schools	-9.57091
▁opportunit	-9.57092
▁weather	-9.57099
▁governor	-9.57314
▁fighter	-9.57398
▁aide	-9.57448
▁promis	-9.57514
▁scandal	-9.57709
BI	-9.57806
▁reduce	-9.57945
▁g	-9.58006
▁games	-9.58174
rt	-9.58214
▁read	-9.58218
▁store	-9.58271
▁everything	-9.58326
▁mass	-9.58329
▁reason	-9.58375
▁Richard	-9.58495
▁severe	-9.58652
▁civilian	-9.58679
▁boost	-9.58822
▁airline	-9.58844
▁allies	-9.58922
▁Cabinet	-9.58945
▁Moscow	-9.58945
▁corruption	-9.58948
ma	-9.59098
▁changes	-9.59177
▁career	-9.59203
▁Tot	-9.59378
▁standard	-9.59399
▁Feder	-9.59489
▁language	-9.59573
▁construction	-9.59589
▁negotiator	-9.59599
▁surprise	-9.59832
▁Do	-9.60057
▁repeated	-9.60096
▁Cho	-9.60248
NA	-9.60291
▁Ben	-9.60516
▁fill	-9.60589
▁buildings	-9.60703
▁sharp	-9.60775
▁formal	-9.60806
▁combat	-9.60838
▁James	-9.60851
▁Myung	-9.6087
▁industrial	-9.6087
▁east	-9.61157
▁ice	-9.6138
▁failure	-9.61487
▁Royal	-9.61502
▁class	-9.61542
nterior	-9.61546
▁factor	-9.61589
▁commercial	-9.61591
▁proposal	-9.616
▁Marine	-9.61611
▁buil	-9.61612
▁El	-9.6164
▁import	-9.6164
ium	-9.61834
▁recover	-9.61902
▁ex	-9.61984
▁bombing	-9.62045
▁Game	-9.62133
▁surgery	-9.62156
▁documents	-9.62172
▁adopt	-9.62194
▁By	-9.622
▁seats	-9.62291
▁Olympics	-9.62446
▁independen	-9.62505
▁Spanish	-9.62779
▁difference	-9.62779
▁pre	-9.62811
▁justice	-9.62813
▁author	-9.62897
▁double	-9.62917
▁hop	-9.6298
▁polic	-9.63259
▁brief	-9.63366
▁produce	-9.63403
▁assault	-9.63433
abe	-9.63477
C	-9.63614
▁mountain	-9.63938
▁route	-9.63991
▁sale	-9.64069
▁possibilit	-9.64115
▁Ali	-9.64233
▁itself	-9.64302
▁Colombia	-9.64525
▁agree	-9.64539
▁bit	-9.64594
▁domestic	-9.64753
▁panel	-9.64754
▁River	-9.64764
▁gold	-9.64764
▁package	-9.64821
▁figures	-9.64835
BS	-9.64873
▁commission	-9.65279
▁Lad	-9.65285
▁trigger	-9.65419
▁quake	-9.65419
▁recall	-9.65419
▁answer	-9.65433
▁penalt	-9.65438
ian	-9.65561
▁traditional	-9.65663
▁owner	-9.65868
▁millions	-9.65919
▁Hu	-9.65943
▁traffic	-9.66018
▁specific	-9.66099
▁telephone	-9.6622
ist	-9.66259
▁violent	-9.66327
▁word	-9.66328
▁Abe	-9.66374
given	-9.66489
▁sound	-9.66499
▁Am	-9.66533
▁addition	-9.66644
▁screen	-9.66751
▁withdraw	-9.66763
▁maker	-9.66795
▁struggl	-9.66989
off	-9.67144
▁events	-9.67332
▁controll	-9.67387
▁reveal	-9.67447
▁Watch	-9.67448
▁Sunni	-9.67455
▁option	-9.67494
▁necessary	-9.67564
▁How	-9.67709
▁Wa	-9.67802
▁makes	-9.6782
▁d	-9.67857
▁electric	-9.67957
▁Arab	-9.67997
▁created	-9.68101
▁supply	-9.68131
▁complex	-9.68133
▁profit	-9.6814
▁exist	-9.68241
▁fish	-9.68336
▁shown	-9.68465
well	-9.68811
▁cash	-9.68822
▁Prosecutor	-9.68827
▁Jong	-9.68849
TON	-9.68882
▁Holly	-9.68914
▁amount	-9.69039
▁street	-9.69055
▁indicat	-9.69095
▁stopped	-9.69284
▁affect	-9.69461
▁showing	-9.69482
▁Ilbo	-9.69516
▁neighborhood	-9.69519
▁numbers	-9.69519
▁headquarter	-9.69521
▁baby	-9.69527
▁deadline	-9.69536
▁appearance	-9.69579
▁wave	-9.69636
▁piece	-9.69699
▁blam	-9.70207
▁fresh	-9.70215
▁positive	-9.70215
▁middle	-9.70215
▁dangerous	-9.70226
▁snow	-9.70265
▁self	-9.70267
▁shuttle	-9.70277
▁Toda	-9.7034
▁mind	-9.70352
▁environmental	-9.70429
▁bin	-9.7054
▁measure	-9.7054
▁seiz	-9.70615
▁regional	-9.70626
▁restaurant	-9.70919
▁fifth	-9.7092
▁coach	-9.70931
▁agent	-9.70954
▁location	-9.70981
▁apartment	-9.71021
▁consumer	-9.71091
▁ongoing	-9.71099
▁Shari	-9.71161
▁Gates	-9.71188
▁Financ	-9.71243
▁announce	-9.71288
▁ID	-9.71362
▁forecast	-9.71384
▁chang	-9.71439
▁Open	-9.71632
▁vow	-9.7164
▁pilot	-9.71642
▁Yah	-9.71655
▁bridge	-9.71717
▁Nav	-9.71735
▁moon	-9.71791
▁decline	-9.71845
▁Research	-9.71968
tp	-9.72171
▁respect	-9.72316
▁individual	-9.72342
▁overseas	-9.72342
▁Mug	-9.72349
▁Our	-9.72362
▁tree	-9.72362
▁powerful	-9.72392
▁affected	-9.72421
▁ht	-9.72428
▁Francis	-9.72456
▁Olme	-9.72596
▁rank	-9.72613
▁grand	-9.72802
▁Centr	-9.72833
night	-9.72844
▁tests	-9.7293
▁flights	-9.72955
▁save	-9.73065
DON	-9.73069
▁anniversar	-9.73084
▁words	-9.73098
▁blow	-9.73122
▁male	-9.73178
▁Desp	-9.73262
▁promise	-9.73302
▁rocket	-9.73349
▁command	-9.73376
▁climat	-9.73481
▁LON	-9.73709
▁Brazil	-9.73778
▁loan	-9.73787
▁cnn	-9.73787
▁improve	-9.74043
▁environment	-9.74244
▁alliance	-9.74325
▁Justi	-9.74357
▁perform	-9.74461
▁degree	-9.74516
▁successful	-9.7453
▁zone	-9.74612
uters	-9.74626
nel	-9.74866
▁votes	-9.74904
▁terms	-9.74912
▁resolve	-9.7503
▁astronaut	-9.75252
▁college	-9.75252
▁behavior	-9.75255
▁magazine	-9.75255
▁Since	-9.75284
▁winner	-9.75552
▁Even	-9.75763
▁fel	-9.75836
▁Blair	-9.75992
▁controversial	-9.76004
▁km	-9.76015
▁touch	-9.76016
▁secure	-9.76019
town	-9.76049
▁port	-9.76072
▁page	-9.76081
▁victim	-9.76325
▁joined	-9.76504
▁heat	-9.76532
▁supplie	-9.76555
▁High	-9.76679
▁confidence	-9.76739
▁square	-9.76739
▁Christmas	-9.76739
▁Christophe	-9.76739
▁display	-9.7674
▁straight	-9.76766
▁below	-9.7679
▁Trade	-9.76796
▁everyone	-9.76803
berg	-9.76852
▁learn	-9.76888
▁influence	-9.76897
▁legislati	-9.77029
▁issu	-9.77255
▁replace	-9.77341
▁drugs	-9.77368
▁crude	-9.77491
▁birth	-9.77495
▁Thre	-9.77495
▁Po	-9.77495
▁surrounding	-9.7756
▁virus	-9.77592
▁adviser	-9.77607
▁respond	-9.7765
▁Th	-9.77768
mer	-9.77938
▁Gold	-9.77982
▁kids	-9.78171
▁entire	-9.78249
▁disaster	-9.78261
▁blue	-9.78263
▁referr	-9.78285
▁famous	-9.78289
ham	-9.78357
▁Tibetan	-9.78363
▁door	-9.7845
▁Christian	-9.7855
▁collapse	-9.78575
▁decade	-9.78667
▁cancel	-9.78789
▁fears	-9.79
▁Embass	-9.79011
▁Energy	-9.79011
▁extreme	-9.79021
▁regular	-9.79022
▁blame	-9.79029
▁Mo	-9.79043
▁solution	-9.79059
▁sleep	-9.79064
▁mark	-9.79079
▁row	-9.79117
▁type	-9.79295
▁adult	-9.79316
▁Burma	-9.79377
▁twi	-9.79523
▁score	-9.79619
▁kidnapped	-9.79672
▁govern	-9.79704
▁else	-9.79786
▁Apple	-9.79793
▁propert	-9.79794
▁fair	-9.79806
▁Four	-9.79807
▁Charles	-9.79808
▁resignation	-9.79822
▁style	-9.79834
▁Yang	-9.79836
▁Vice	-9.79847
rald	-9.80021
▁engineer	-9.80091
▁prove	-9.80098
di	-9.80175
▁Whi	-9.80274
▁transfer	-9.8037
▁Malik	-9.80424
▁remov	-9.80545
▁wrong	-9.80546
▁Tour	-9.80556
▁floor	-9.80556
▁abandon	-9.80557
▁Sudan	-9.80557
▁Abu	-9.80904
▁alone	-9.81048
▁declin	-9.81099
▁asp	-9.81207
ship	-9.81331
▁vessel	-9.81337
▁mobile	-9.81337
▁competition	-9.81338
▁southwest	-9.81482
▁flu	-9.8152
gone	-9.81524
▁politic	-9.81647
ner	-9.81701
▁pound	-9.8188
▁Canad	-9.82036
▁scor	-9.8209
▁Hussein	-9.82125
▁opinion	-9.82125
▁throw	-9.82132
▁sometime	-9.82269
▁choice	-9.82474
▁abuse	-9.82579
▁ET	-9.82667
▁Island	-9.82696
▁fil	-9.82721
inhu	-9.82747
imbabwe	-9.82828
▁bann	-9.8288
▁affair	-9.82918
▁Communist	-9.82919
▁recession	-9.82926
▁married	-9.82947
▁heavi	-9.82952
▁management	-9.8296
▁activit	-9.83
▁prepared	-9.83026
tan	-9.83055
▁planet	-9.83203
▁active	-9.83204
▁Gord	-9.83229
▁southeast	-9.8324
▁names	-9.83363
▁trouble	-9.83512
▁feature	-9.83653
▁Sa	-9.83685
▁exile	-9.83722
ASH	-9.83754
lew	-9.84043
▁determine	-9.8412
▁winds	-9.8431
▁William	-9.84368
▁tough	-9.84384
▁Singapore	-9.84432
▁agenc	-9.84459
▁imposed	-9.84504
▁Pentagon	-9.84525
▁embass	-9.84525
▁mosque	-9.84525
▁currenc	-9.84525
▁communication	-9.84529
▁green	-9.84531
▁kick	-9.84541
▁cent	-9.84653
▁Williams	-9.84682
▁Bay	-9.84814
▁Se	-9.84831
▁pledge	-9.84837
▁laws	-9.84843
▁protection	-9.84953
▁Steve	-9.85134
ro	-9.85179
EC	-9.85227
▁west	-9.8527
at	-9.85293
▁Cross	-9.85344
istrict	-9.8535
▁Human	-9.85398
▁wall	-9.85405
▁setting	-9.85412
▁seed	-9.85457
▁Space	-9.85518
▁La	-9.85639
▁Bas	-9.85771
▁kidnapping	-9.85797
▁presen	-9.85946
▁doctor	-9.86043
▁qualit	-9.86156
▁Condoleez	-9.86157
▁reflect	-9.86157
▁Kosov	-9.86159
▁euro	-9.8616
▁software	-9.86215
▁card	-9.86374
ur	-9.86377
▁cast	-9.86381
▁clean	-9.86564
ized	-9.86568
▁bombings	-9.86584
▁losing	-9.86984
▁Ronald	-9.86985
▁riot	-9.86985
▁enem	-9.86986
▁halt	-9.87
▁doubt	-9.8706
▁oppos	-9.87065
▁true	-9.87107
tomic	-9.87167
▁advance	-9.87266
▁serving	-9.87274
be	-9.87282
▁Syria	-9.87434
IA	-9.87443
▁singer	-9.87579
▁Egypt	-9.87809
▁Organization	-9.87817
▁Church	-9.87817
▁crackdown	-9.87819
▁Tony	-9.87833
▁hair	-9.87833
▁alert	-9.87841
▁commitment	-9.8785
live	-9.87853
▁effective	-9.87896
▁species	-9.87923
▁shift	-9.87952
▁withdrawal	-9.87953
▁concert	-9.88657
▁draft	-9.88658
▁Portug	-9.88659
▁resort	-9.88661
▁correspondent	-9.88668
▁Tom	-9.88722
▁critic	-9.88747
▁demanding	-9.88878
▁Jew	-9.88896
▁eye	-9.8913
▁bomber	-9.89161
▁Right	-9.89242
▁tank	-9.89307
▁pack	-9.89388
▁Sever	-9.89435
▁Hospital	-9.89505
▁Soviet	-9.89505
▁photograph	-9.8975
▁earn	-9.89862
den	-9.89973
▁spark	-9.90082
▁broad	-9.90092
▁appoint	-9.90278
▁Black	-9.90357
▁militia	-9.9036
▁dialogue	-9.90361
▁sector	-9.90381
▁connection	-9.90387
▁violation	-9.90399
▁partner	-9.90422
▁income	-9.90453
▁eventual	-9.90547
▁smoke	-9.90636
▁determined	-9.90761
▁favor	-9.90911
▁signal	-9.90926
▁complain	-9.90948
▁march	-9.91036
la	-9.91112
▁whole	-9.91156
▁Madrid	-9.91222
▁happy	-9.91222
▁implement	-9.91222
▁scale	-9.9123
▁hunt	-9.91261
▁practice	-9.91265
ily	-9.91294
▁traveling	-9.91353
▁wealth	-9.91355
where	-9.91364
▁producer	-9.91406
▁Martin	-9.91475
▁stem	-9.9149
▁flow	-9.91731
▁counter	-9.91784
▁constitution	-9.91876
▁surge	-9.92037
▁k	-9.92044
▁CEO	-9.92091
▁delegation	-9.92092
▁society	-9.92142
▁die	-9.9218
▁God	-9.92396
▁suffering	-9.92455
▁apolog	-9.92717
▁rich	-9.92849
▁witness	-9.9285
▁deploy	-9.92908
ond	-9.92916
▁defend	-9.9297
▁version	-9.9299
▁chose	-9.93067
▁meetings	-9.93145
▁hear	-9.93153
▁Mr	-9.93235
▁Chi	-9.93299
▁indicate	-9.93323
▁shock	-9.93358
▁Kurd	-9.93367
drew	-9.93418
▁Dan	-9.93557
▁spot	-9.93738
eninsula	-9.93834
▁danger	-9.93839
▁Saddam	-9.93853
▁tournament	-9.93853
▁unveil	-9.93853
▁Treasur	-9.93853
▁museum	-9.93853
▁religious	-9.93854
▁various	-9.93854
▁Among	-9.93865
▁freedom	-9.9387
▁probe	-9.93894
▁jet	-9.93908
▁content	-9.93947
▁Lone	-9.93952
▁actress	-9.9397
zai	-9.94095
▁girls	-9.94406
▁computers	-9.94421
▁foreigner	-9.94427
▁V	-9.94563
▁Speak	-9.94593
▁fraud	-9.94746
▁Michigan	-9.94746
▁electronic	-9.94747
▁Government	-9.9475
▁sun	-9.94755
▁reaction	-9.94778
▁declaration	-9.94802
▁Diana	-9.94815
▁Show	-9.94849
▁shop	-9.94919
▁ending	-9.94995
▁torch	-9.95117
ification	-9.95136
▁Hyun	-9.95159
▁sense	-9.95285
▁cap	-9.95324
▁northeast	-9.95332
▁Ang	-9.95355
▁believ	-9.95366
▁Arabia	-9.95427
▁consumers	-9.95491
ester	-9.95531
overall	-9.95533
▁farmer	-9.9557
▁Exchange	-9.95647
▁encourage	-9.95647
▁enjoy	-9.95647
▁Kennedy	-9.95649
▁Senator	-9.95649
▁Airport	-9.9565
▁football	-9.95654
▁demonstrator	-9.95677
▁register	-9.95686
▁easi	-9.95851
▁Inter	-9.95925
▁wing	-9.9603
▁historic	-9.96082
▁il	-9.9609
▁slight	-9.96245
▁fled	-9.96281
▁items	-9.96336
▁politicians	-9.96391
▁ranking	-9.96477
▁extra	-9.96487
▁Simpson	-9.96556
▁NEW	-9.96557
▁explod	-9.96558
junta	-9.9664
▁collapsed	-9.96646
▁waters	-9.96694
un	-9.96762
▁contest	-9.96791
▁forest	-9.97003
▁organiz	-9.97138
▁Ji	-9.97204
▁accepted	-9.97242
▁council	-9.97341
▁Republic	-9.97386
▁Vietnam	-9.97474
▁Beckham	-9.97475
▁Stock	-9.97475
▁budget	-9.97478
▁Sadr	-9.97486
ribal	-9.97493
▁guard	-9.97493
▁schedule	-9.97505
▁decide	-9.97538
▁Arizo	-9.9757
b	-9.9762
▁stake	-9.97633
▁weight	-9.97716
▁taxes	-9.97766
urani	-9.97811
▁sub	-9.97889
dministration	-9.97895
▁Inc	-9.97945
▁Super	-9.97971
▁hole	-9.98003
▁pledg	-9.98043
▁Cuba	-9.98203
F	-9.98221
▁dress	-9.98251
▁Jose	-9.98315
▁discover	-9.98317
aks	-9.98384
▁Affair	-9.984
▁Catholic	-9.984
▁Nicola	-9.984
▁virtual	-9.98406
▁Province	-9.98421
▁add	-9.98474
▁trust	-9.9848
▁hot	-9.98524
▁flame	-9.98524
▁bag	-9.98585
▁rape	-9.9863
▁wind	-9.98632
▁picture	-9.98725
▁river	-9.98776
▁table	-9.9883
▁mine	-9.98839
▁spend	-9.98899
▁violat	-9.99007
▁possibl	-9.99019
▁Kenya	-9.99106
▁fix	-9.99227
▁object	-9.99261
▁Ahmadi	-9.99299
▁Massac	-9.99335
▁Labor	-9.99346
▁color	-9.99349
▁orbit	-9.99357
huse	-9.99363
▁sister	-9.99392
▁Chen	-9.99395
house	-9.99449
▁statu	-9.99472
▁ways	-9.99492
▁Gov	-9.99495
▁ho	-9.99619
ta	-9.99646
▁demonstrations	-9.9966
tts	-9.99677
▁leg	-9.99966
▁dark	-10.0019
▁machine	-10.0028
▁remote	-10.0028
▁From	-10.0028
▁enrich	-10.0028
▁Spear	-10.0028
▁demanded	-10.0032
▁pounds	-10.0058
▁Fat	-10.0088
▁pictures	-10.009
▁sentenc	-10.0094
▁studie	-10.0094
▁continu	-10.0098
cient	-10.0122
▁purpose	-10.0123
▁rapid	-10.0123
▁temperature	-10.0124
▁debt	-10.0125
▁rush	-10.0126
▁hous	-10.0127
▁troop	-10.0135
back	-10.0135
▁climb	-10.0138
▁Han	-10.0139
▁ensure	-10.0139
▁cooperati	-10.0144
▁minor	-10.0147
▁artist	-10.0158
ack	-10.0178
▁explain	-10.0178
▁users	-10.0185
▁locat	-10.0187
ors	-10.0191
▁lose	-10.02
▁ethnic	-10.0219
▁obtain	-10.0219
▁rallie	-10.0219
▁Joong	-10.022
▁Iowa	-10.022
▁peninsula	-10.0221
▁Election	-10.0222
▁stars	-10.0229
ical	-10.0233
▁standing	-10.0237
▁dut	-10.024
▁complaint	-10.025
J	-10.026
▁weapon	-10.0268
▁band	-10.027
▁invite	-10.0271
▁trail	-10.0281
▁welcome	-10.029
▁alcohol	-10.0313
▁trillion	-10.0316
▁exact	-10.0316
▁School	-10.0316
▁equipment	-10.0316
▁relief	-10.0316
▁Che	-10.0326
▁explosives	-10.0326
ogle	-10.0328
▁stoo	-10.0339
▁culture	-10.0342
▁evacuated	-10.0345
▁audience	-10.0357
▁pain	-10.0358
▁tape	-10.0366
▁relative	-10.0368
▁broken	-10.0369
▁clashe	-10.0372
rs	-10.0378
▁Li	-10.0385
▁plot	-10.0386
▁Don	-10.0386
▁auto	-10.0391
ick	-10.0393
▁multi	-10.0396
▁systems	-10.0397
▁remove	-10.0403
▁Mahmoud	-10.0414
▁subject	-10.0414
▁crucial	-10.0414
▁regulation	-10.0415
▁art	-10.0415
▁warrant	-10.0416
▁survivor	-10.0417
▁box	-10.0417
▁strengthen	-10.0421
▁leak	-10.0421
▁damag	-10.0427
▁jur	-10.0427
yone	-10.0428
▁Jan	-10.043
▁mayor	-10.0433
▁Samsun	-10.0439
haps	-10.044
▁finance	-10.0442
ine	-10.046
▁Oscar	-10.0465
▁expand	-10.0474
▁license	-10.0499
▁roll	-10.0512
▁Tehran	-10.0513
▁magnitude	-10.0513
▁narrow	-10.0513
▁Nevada	-10.0515
field	-10.0515
▁bailout	-10.0516
▁inspector	-10.0517
▁surface	-10.0518
▁Of	-10.0518
▁democratic	-10.0519
▁cold	-10.052
▁generation	-10.052
▁speculation	-10.0523
▁warming	-10.0535
▁photos	-10.0544
im	-10.0556
▁dismissed	-10.0562
▁arrive	-10.0565
▁Ma	-10.0572
▁requir	-10.0581
▁boycott	-10.0599
responsibility	-10.0606
▁tons	-10.0606
▁invasion	-10.0613
▁Constitution	-10.0613
▁Daniel	-10.0614
▁Dutch	-10.0614
▁Mike	-10.0616
▁edge	-10.0617
▁physical	-10.062
▁exercise	-10.0626
▁bear	-10.0641
RK	-10.0652
▁founder	-10.0652
▁gunm	-10.0655
▁promote	-10.0664
▁farm	-10.0694
▁enforce	-10.0697
▁Nepal	-10.0701
▁argu	-10.0703
▁acknowledg	-10.0708
▁attract	-10.0712
▁ring	-10.0713
▁putt	-10.0714
itarian	-10.0714
▁offensive	-10.0714
▁temporar	-10.0714
▁perfect	-10.0714
▁Governor	-10.0714
▁lawsuit	-10.0715
▁Nobel	-10.0715
▁works	-10.0718
▁science	-10.0721
▁highway	-10.0729
▁ball	-10.0757
▁handed	-10.0766
▁mile	-10.0784
▁basic	-10.0812
▁suburb	-10.0816
▁wake	-10.0817
▁Louis	-10.0817
▁Premier	-10.0817
▁estate	-10.0817
▁relay	-10.0817
▁assassination	-10.0818
▁winter	-10.0819
▁calm	-10.082
▁pair	-10.084
broad	-10.0841
▁Or	-10.0844
▁miss	-10.0854
▁spy	-10.0864
▁meant	-10.0868
▁Santa	-10.0873
ado	-10.0877
▁tensions	-10.0879
surance	-10.0885
▁shar	-10.0889
▁king	-10.09
▁Wolf	-10.0907
▁Wi	-10.0914
▁manag	-10.0915
▁tight	-10.0918
▁modern	-10.0919
▁guarantee	-10.0919
▁colleague	-10.092
▁Economic	-10.0921
▁spring	-10.0926
▁guy	-10.0929
▁transition	-10.093
▁Ford	-10.0933
▁Colombian	-10.0955
▁smok	-10.0962
corporate	-10.0974
▁equal	-10.1022
▁strategy	-10.1024
▁detention	-10.1024
▁reduction	-10.1024
▁wild	-10.1025
▁Jackson	-10.1025
▁phones	-10.1027
▁restriction	-10.1027
EA	-10.1029
▁runner	-10.1031
▁song	-10.1045
▁anger	-10.1072
▁reasons	-10.1073
ju	-10.1093
▁traveler	-10.1094
▁champion	-10.1102
▁Alaska	-10.1105
ueen	-10.1111
▁Un	-10.1112
▁identify	-10.1129
▁dream	-10.1129
▁Vegas	-10.1129
▁visa	-10.1129
▁fellow	-10.113
▁responsibilit	-10.1137
▁Mayor	-10.1137
▁Manch	-10.1142
▁Hund	-10.1142
▁witnesses	-10.1143
▁batter	-10.1152
ani	-10.1153
▁path	-10.1168
▁terroris	-10.117
ent	-10.1171
▁angr	-10.1193
▁example	-10.1198
▁presiden	-10.1203
ant	-10.121
▁Venezuela	-10.1212
▁advantage	-10.1235
▁economist	-10.1235
▁counterpart	-10.1235
▁channel	-10.1236
ch	-10.1237
hua	-10.1237
▁rough	-10.124
TA	-10.1242
▁reporter	-10.1246
▁Maca	-10.1252
▁describe	-10.1259
mi	-10.1261
pool	-10.1264
▁arrival	-10.1267
▁visiting	-10.127
▁Northern	-10.1271
▁sh	-10.1322
▁projects	-10.1323
▁coup	-10.1333
▁freed	-10.1334
▁Nor	-10.1335
go	-10.1337
▁monk	-10.1343
▁Academ	-10.1343
▁suspicion	-10.1343
▁Hilton	-10.1343
▁Mohamm	-10.1351
▁Award	-10.1351
ified	-10.1352
is	-10.1356
▁mix	-10.137
spread	-10.1373
dai	-10.1395
▁catch	-10.1415
▁Son	-10.143
gun	-10.1431
▁offering	-10.1439
▁zoo	-10.1447
▁aware	-10.145
▁Ukrain	-10.145
▁closer	-10.145
▁anonymity	-10.1451
▁permanent	-10.1451
▁Nadal	-10.1452
▁remember	-10.1452
▁carbon	-10.1452
▁task	-10.1453
A	-10.1453
▁casualties	-10.1454
▁Home	-10.146
▁gay	-10.146
▁aboard	-10.1465
▁choose	-10.1467
▁Johnson	-10.1469
ul	-10.1487
▁sports	-10.1489
▁Indiana	-10.1491
K	-10.1506
ell	-10.1507
▁improv	-10.1513
body	-10.1514
ne	-10.1517
▁provinc	-10.1519
▁ease	-10.1522
▁captur	-10.1553
▁chair	-10.1557
▁Science	-10.1561
▁celebrit	-10.1562
▁guest	-10.1562
▁label	-10.1562
▁assistance	-10.1562
▁Wen	-10.1565
iego	-10.1565
ari	-10.1571
reds	-10.1574
▁internal	-10.1584
▁retir	-10.1584
ground	-10.1586
▁document	-10.1611
▁benefits	-10.1639
▁stress	-10.164
▁investigate	-10.1641
▁buri	-10.1663
▁Ocean	-10.1673
▁Coast	-10.1673
▁medicine	-10.1673
▁Canadian	-10.1674
▁suit	-10.1674
▁split	-10.1677
▁file	-10.1678
▁dis	-10.1685
▁via	-10.1688
iya	-10.169
▁Big	-10.1694
ches	-10.1697
▁creat	-10.1724
▁Guard	-10.1729
▁landing	-10.1736
▁struggle	-10.1748
S	-10.1749
▁warm	-10.176
▁Real	-10.1775
▁engag	-10.1779
▁erupt	-10.178
▁congress	-10.1785
▁cleric	-10.1785
▁compound	-10.1785
▁debut	-10.1785
▁devastat	-10.1785
▁sudden	-10.1785
▁technical	-10.1785
▁Dubai	-10.1785
▁Deput	-10.1785
▁cutting	-10.1787
▁teenager	-10.1793
▁capture	-10.1793
▁threats	-10.18
▁tens	-10.181
▁profile	-10.1812
▁Anna	-10.1814
▁percentage	-10.1823
▁movies	-10.1831
id	-10.1835
▁relatives	-10.1839
▁worse	-10.184
▁nominat	-10.1869
▁unclea	-10.1875
▁Malaysia	-10.1876
ha	-10.1879
olar	-10.1882
▁YO	-10.1883
▁detect	-10.1888
▁infect	-10.1895
▁lay	-10.1897
▁Chelsea	-10.1898
▁Thomas	-10.1898
▁shelter	-10.1898
▁emission	-10.1899
▁agenda	-10.1899
▁participat	-10.1899
▁babies	-10.1899
▁fashion	-10.1899
▁destruction	-10.19
▁Airline	-10.1902
▁professional	-10.1904
▁tear	-10.1904
▁strain	-10.1909
▁harm	-10.1919
▁Frank	-10.1933
wang	-10.1933
▁constitutional	-10.1941
ability	-10.1956
▁super	-10.1984
▁escape	-10.1988
▁basi	-10.2
▁recruit	-10.2013
▁Potter	-10.2013
▁conspirac	-10.2014
▁Kabul	-10.2014
▁exit	-10.2014
▁froze	-10.2015
▁simply	-10.2015
▁renew	-10.2015
▁auction	-10.2017
▁passenger	-10.202
▁expert	-10.2021
▁shortage	-10.2022
▁Liver	-10.2023
▁kne	-10.2032
ger	-10.2046
▁trapped	-10.2047
ural	-10.2056
▁Not	-10.2059
▁clash	-10.2064
▁sky	-10.2068
▁Ed	-10.2075
▁net	-10.2083
▁Lt	-10.2084
▁prepar	-10.2085
ersey	-10.2088
▁convention	-10.2094
ei	-10.2116
▁frequent	-10.213
▁Pitt	-10.213
▁negative	-10.213
▁assistant	-10.213
▁unlike	-10.2131
▁elder	-10.2132
▁favorite	-10.2134
▁organizer	-10.2136
▁ticket	-10.2138
ongbyon	-10.2139
ept	-10.2148
▁Fay	-10.2157
sands	-10.2157
▁Pop	-10.2161
▁conclud	-10.2165
hairman	-10.2167
▁easy	-10.217
lso	-10.2189
▁ride	-10.2191
▁engine	-10.22
▁roads	-10.2225
▁marked	-10.2227
▁Every	-10.223
da	-10.2237
▁brand	-10.2244
▁Sun	-10.2245
ver	-10.2246
▁Jerusalem	-10.2247
▁succeed	-10.2247
▁Maryland	-10.2249
▁Kang	-10.2252
▁prize	-10.2255
▁Khan	-10.2257
▁Reserv	-10.2261
han	-10.2264
▁urge	-10.2266
awa	-10.2267
▁books	-10.2269
▁purchase	-10.227
▁heading	-10.2271
▁payment	-10.2276
ville	-10.2277
▁landed	-10.2301
▁beach	-10.231
ez	-10.2323
▁Mars	-10.2325
▁learned	-10.2343
▁Boe	-10.2354
▁haven	-10.2355
ional	-10.2365
▁unusual	-10.2366
▁element	-10.2366
▁stall	-10.2367
▁closing	-10.2367
▁crack	-10.2367
▁proper	-10.2367
▁Thou	-10.237
▁eyes	-10.2372
▁Near	-10.2377
▁diplomats	-10.2379
▁simple	-10.2386
▁identit	-10.2386
▁Defen	-10.2395
▁recovery	-10.241
▁unemploy	-10.2415
ter	-10.2419
▁Just	-10.242
day	-10.2427
▁bone	-10.2429
oward	-10.2436
▁manufactur	-10.2442
▁Ro	-10.2458
▁Scot	-10.2461
▁collect	-10.2476
▁assets	-10.2479
llah	-10.2482
▁disappear	-10.2486
▁Attorney	-10.2487
▁McCann	-10.2487
▁gap	-10.2487
▁Abdullah	-10.2488
▁mention	-10.249
▁Daily	-10.2493
▁Champions	-10.2498
▁album	-10.2498
▁section	-10.2498
▁Green	-10.2503
▁plead	-10.2511
▁Color	-10.2515
▁PC	-10.2525
▁Fire	-10.2539
▁reduced	-10.2584
▁disappoint	-10.2603
fare	-10.2605
▁Darfur	-10.2609
▁Peace	-10.2609
▁bilateral	-10.2609
▁cheer	-10.2609
▁bullet	-10.2609
▁error	-10.2609
▁Law	-10.261
mph	-10.2615
▁Chrys	-10.2615
▁expectation	-10.2619
▁sort	-10.2624
▁writer	-10.2631
▁Di	-10.2661
ice	-10.2671
oline	-10.2674
▁heads	-10.2675
▁Lama	-10.2684
▁sit	-10.2689
no	-10.271
▁tonight	-10.2716
BA	-10.2718
▁Hezb	-10.2733
▁Prize	-10.2734
▁tomorrow	-10.2734
▁division	-10.2734
▁Great	-10.2734
▁chemical	-10.2743
▁Joe	-10.2743
▁accuse	-10.2743
▁era	-10.2744
▁detonat	-10.2748
▁soar	-10.2748
beth	-10.275
▁birds	-10.2751
▁atmospher	-10.2754
▁royal	-10.2754
▁Venezuelan	-10.2759
▁outbreak	-10.2761
▁sw	-10.2775
▁fate	-10.2776
azir	-10.2787
work	-10.2789
▁Roman	-10.279
eus	-10.28
▁goods	-10.2802
▁tall	-10.2808
▁Easter	-10.282
ization	-10.2837
▁surround	-10.2846
over	-10.2848
▁Six	-10.285
▁PA	-10.2855
▁sponsor	-10.2856
▁controversy	-10.2857
▁mortgage	-10.2857
▁firing	-10.2857
▁First	-10.2858
▁proud	-10.2858
▁Edwards	-10.2858
▁Gulf	-10.2858
▁wedding	-10.2859
▁festival	-10.286
▁bottom	-10.286
▁execution	-10.286
ay	-10.2862
▁Young	-10.2863
▁Gonzale	-10.2865
▁Petra	-10.2868
▁worrie	-10.2868
▁Sydn	-10.2876
▁corner	-10.2877
▁shoe	-10.2885
DC	-10.2886
▁pushing	-10.2891
▁benefit	-10.2895
ren	-10.2896
▁Dong	-10.2902
▁Indonesian	-10.2906
▁bottle	-10.2924
▁Sean	-10.2937
agan	-10.2941
▁gains	-10.2943
▁sport	-10.2943
▁divorce	-10.2949
j	-10.2957
line	-10.2966
efore	-10.2971
▁strength	-10.2975
▁Over	-10.298
▁knee	-10.2981
▁Public	-10.2984
▁Yonhap	-10.2984
▁convoy	-10.2984
▁ballot	-10.2984
▁radical	-10.2984
▁prett	-10.2985
▁weaken	-10.2992
▁belong	-10.2994
▁lie	-10.2996
ling	-10.3
▁hospitaliz	-10.3002
▁Food	-10.3007
▁inflation	-10.3007
▁thank	-10.3008
▁institution	-10.3011
▁writing	-10.3026
ana	-10.3045
▁meaning	-10.3046
▁gathering	-10.3052
▁Ghaz	-10.3054
ealand	-10.3056
ach	-10.3058
▁notice	-10.3071
em	-10.3092
▁fit	-10.3092
▁entering	-10.3102
▁IA	-10.3103
▁alternative	-10.3112
▁method	-10.3112
▁girlfriend	-10.3112
▁Square	-10.3112
▁boss	-10.3115
▁deployment	-10.3121
▁lock	-10.3121
▁Osam	-10.3141
▁theater	-10.3144
OS	-10.3144
▁associate	-10.315
▁plus	-10.3165
▁beating	-10.3172
▁seal	-10.318
▁effects	-10.319
▁cool	-10.3196
▁Intelligen	-10.3196
▁handl	-10.3198
▁stone	-10.3205
elta	-10.3214
▁predicted	-10.3236
▁YouTube	-10.3242
▁gallon	-10.3242
▁journey	-10.3242
▁vacation	-10.3242
▁sustain	-10.3242
▁Berlin	-10.3243
▁select	-10.3243
▁Palin	-10.3245
▁innocent	-10.3249
▁Post	-10.3253
▁Yoo	-10.3253
▁stability	-10.3256
▁Alexand	-10.3256
▁operate	-10.3263
▁waste	-10.3279
▁grave	-10.3281
▁boom	-10.3285
▁toys	-10.3293
▁weak	-10.3332
right	-10.3351
▁charit	-10.3371
▁pump	-10.3373
▁convince	-10.3374
▁veteran	-10.3374
sh	-10.3374
▁Jesu	-10.3376
urricane	-10.3376
▁defendant	-10.3379
▁hopeful	-10.338
ence	-10.3381
▁battl	-10.3383
▁dramatic	-10.34
▁afford	-10.3406
uk	-10.3406
▁Scott	-10.3406
▁fatal	-10.3412
ka	-10.3414
▁wonder	-10.3419
OP	-10.342
ious	-10.3421
down	-10.3421
▁pursu	-10.3422
▁structure	-10.3425
water	-10.3433
▁Argentin	-10.3434
ford	-10.3442
▁Ask	-10.3474
▁weigh	-10.3482
▁flee	-10.3485
▁Gor	-10.3488
▁delivery	-10.349
itting	-10.3496
▁cultur	-10.3496
▁length	-10.3498
▁balance	-10.35
▁drove	-10.3507
▁experiment	-10.3507
▁landslide	-10.3507
▁BEI	-10.3507
▁Development	-10.3507
▁Investigator	-10.3507
▁vast	-10.3507
▁Major	-10.3509
▁assist	-10.3509
▁chain	-10.3509
bed	-10.3509
▁shopping	-10.351
▁Islamist	-10.3513
▁Oil	-10.3514
hud	-10.3517
▁tech	-10.352
chi	-10.3527
▁acre	-10.3531
arah	-10.3537
▁declare	-10.3537
AG	-10.3552
▁carrier	-10.3561
▁failing	-10.3563
Y	-10.3568
▁Free	-10.3572
ican	-10.3576
▁digital	-10.3578
▁tradition	-10.3584
▁listen	-10.3586
sburg	-10.3595
▁ABC	-10.3596
▁falling	-10.3602
FA	-10.3612
▁patrol	-10.3612
▁Col	-10.3613
▁Port	-10.3614
▁clon	-10.3622
▁invest	-10.3624
▁Vladimir	-10.363
▁campus	-10.3638
adeleine	-10.3639
▁Good	-10.364
▁participate	-10.3642
▁AIDS	-10.3642
▁Women	-10.3642
▁preliminar	-10.3642
▁pace	-10.3643
▁dump	-10.3646
▁Atlantic	-10.3648
▁Kerr	-10.3649
▁Though	-10.3655
▁reading	-10.3671
▁pose	-10.3672
▁friendly	-10.3673
▁complet	-10.3675
dom	-10.3691
▁provinces	-10.37
▁margin	-10.3706
lor	-10.3708
▁Tim	-10.3713
ng	-10.3714
▁restore	-10.3715
ada	-10.3716
▁warnings	-10.3718
▁Bal	-10.3728
▁guards	-10.3738
▁abduct	-10.376
▁formed	-10.3772
▁Barcelon	-10.3779
▁Michel	-10.3779
▁Societ	-10.3779
▁palace	-10.3779
▁Boston	-10.3779
▁clinic	-10.378
▁Eliza	-10.378
▁connect	-10.3781
▁Fox	-10.3781
▁Year	-10.3784
baki	-10.3784
▁mount	-10.3787
▁Still	-10.3793
▁ten	-10.3794
▁hung	-10.3801
▁authoriz	-10.3803
ina	-10.3815
▁celebrat	-10.3816
▁opponents	-10.3824
▁bound	-10.3834
▁youth	-10.3837
▁younger	-10.385
▁Can	-10.3853
▁stores	-10.3854
et	-10.3855
▁dealing	-10.3861
▁teacher	-10.3863
bility	-10.3865
hai	-10.3871
occer	-10.3894
▁Serbia	-10.3896
▁survived	-10.3901
▁Gar	-10.3911
▁desert	-10.3913
▁restrict	-10.3915
▁sensitiv	-10.3916
▁Abdul	-10.3917
▁Bangkok	-10.3918
▁client	-10.3918
▁plastic	-10.3918
▁knowledge	-10.3918
▁Jordan	-10.3918
▁conversation	-10.3918
▁Film	-10.3919
▁van	-10.3919
▁jung	-10.3919
▁Peru	-10.3926
▁wish	-10.3934
▁assembly	-10.3937
▁rang	-10.395
▁Ga	-10.3951
▁pet	-10.3951
▁slave	-10.3957
▁Min	-10.396
▁Na	-10.3964
▁direction	-10.3964
▁ill	-10.3972
▁Song	-10.3974
▁write	-10.3975
▁resources	-10.3986
▁promot	-10.3993
upper	-10.3995
▁rockets	-10.4004
▁responded	-10.4028
▁stretch	-10.4028
▁negotiat	-10.4029
▁Rome	-10.4038
▁Late	-10.4047
▁rid	-10.4054
▁nor	-10.4055
▁Representative	-10.4059
▁pregnant	-10.4059
▁Miami	-10.4059
▁memory	-10.4059
▁Buddhist	-10.4059
ejad	-10.406
▁Brazilian	-10.406
▁tsunami	-10.4061
▁Hen	-10.4088
▁Fed	-10.4093
▁stepp	-10.4101
▁Dala	-10.4129
▁string	-10.4129
▁recommend	-10.4135
▁Van	-10.4143
▁highlight	-10.4145
▁symbol	-10.4152
zo	-10.4156
▁Jim	-10.4157
evin	-10.4158
▁Od	-10.4169
tiny	-10.4191
▁Mila	-10.4194
▁Hampshire	-10.4202
▁Hawaii	-10.4202
▁cloud	-10.4202
▁routine	-10.4202
▁Islamabad	-10.4202
▁Hotel	-10.4202
▁shrine	-10.4204
▁neck	-10.4205
HDA	-10.4215
enko	-10.4218
▁Vat	-10.4219
▁firefighter	-10.4219
▁beef	-10.4229
▁character	-10.4233
▁escap	-10.4235
▁divid	-10.4261
▁sample	-10.4265
▁Philippines	-10.4269
▁planes	-10.4269
▁crop	-10.4275
hattan	-10.4285
▁apologize	-10.4293
▁shape	-10.4294
il	-10.4294
▁tire	-10.4297
head	-10.4297
▁demonstration	-10.4298
▁comfort	-10.4305
▁Hall	-10.4309
▁oppose	-10.4317
▁brutal	-10.4325
▁skin	-10.4329
stance	-10.4337
▁Revolution	-10.4346
▁prospect	-10.4346
▁squad	-10.4346
▁surrender	-10.4346
▁Scientist	-10.4346
▁abus	-10.4347
▁ultimate	-10.4347
▁birthday	-10.4347
▁Life	-10.4348
▁airstrike	-10.4348
▁illness	-10.4348
▁punishment	-10.4352
▁solve	-10.4353
▁collection	-10.4354
▁bar	-10.4355
▁accord	-10.4358
▁stories	-10.436
▁Morgan	-10.4362
▁Rock	-10.4364
har	-10.4366
▁accusation	-10.4367
▁Jak	-10.4368
▁feeling	-10.4378
▁Kenyan	-10.4382
▁note	-10.4386
▁teachers	-10.4414
▁runway	-10.4424
▁humans	-10.443
▁flag	-10.4435
▁inform	-10.4435
▁print	-10.4441
▁Atlant	-10.4444
▁photo	-10.4448
▁contests	-10.4454
▁drama	-10.4464
owitz	-10.4479
ol	-10.448
▁advertis	-10.4487
▁coordinat	-10.4493
▁cease	-10.4493
▁pop	-10.4494
▁capacity	-10.4494
▁shirt	-10.4494
▁watchdog	-10.4494
KK	-10.4494
▁Analyst	-10.4495
▁Fund	-10.4497
gi	-10.4497
▁successor	-10.4499
▁distance	-10.4501
▁appointment	-10.4504
arta	-10.4505
▁featur	-10.4506
▁Shang	-10.4508
▁bright	-10.4508
▁veto	-10.4512
▁Meh	-10.4519
▁hospitals	-10.4521
▁ver	-10.4525
▁nav	-10.4527
HO	-10.4532
▁observer	-10.4537
OK	-10.454
▁metal	-10.4542
▁barr	-10.4545
▁dub	-10.4553
▁striker	-10.4558
witz	-10.4571
▁Somali	-10.4583
▁none	-10.4599
▁photographer	-10.46
▁publicly	-10.4601
▁Gamba	-10.4612
▁Airb	-10.4613
▁survive	-10.4615
▁affiliate	-10.4617
▁Blago	-10.4643
▁Transport	-10.4643
▁venue	-10.4643
▁studio	-10.4643
▁Foundation	-10.4643
▁numer	-10.4643
▁entertainment	-10.4644
▁Judge	-10.4644
▁sovereign	-10.4645
▁strict	-10.4647
▁Car	-10.4652
▁peacekeep	-10.4654
▁Chile	-10.4667
▁Assistan	-10.4668
▁transferr	-10.4679
▁Well	-10.4687
▁resolv	-10.4695
▁stadium	-10.4706
oney	-10.4713
DP	-10.4715
▁Mad	-10.4731
▁truth	-10.4733
▁celebrate	-10.4749
▁Ba	-10.4764
▁Jon	-10.4766
▁eat	-10.4774
▁Mur	-10.4774
▁gang	-10.4774
▁Moham	-10.4782
▁realit	-10.4785
uh	-10.4789
▁televis	-10.479
▁knock	-10.479
▁journal	-10.4791
▁Time	-10.4794
▁wreck	-10.4794
▁endanger	-10.4795
▁peak	-10.4795
▁Egyptian	-10.4796
▁Columbia	-10.4796
▁Congo	-10.4798
▁text	-10.4798
▁FTA	-10.4798
▁Valley	-10.4799
▁worker	-10.4806
▁Bob	-10.4808
▁briefing	-10.481
▁en	-10.4811
▁Dick	-10.4818
▁Rom	-10.483
▁immigrat	-10.4832
▁views	-10.4836
▁vi	-10.4841
▁excit	-10.4844
▁Gree	-10.4853
▁cloth	-10.4857
tah	-10.4877
▁caucuse	-10.4882
MA	-10.4882
▁GMT	-10.4902
▁depend	-10.4902
stein	-10.4905
rice	-10.4906
▁achieve	-10.4909
▁tool	-10.491
▁commit	-10.4914
▁glass	-10.4919
ogan	-10.4923
▁divers	-10.493
▁stressed	-10.4938
▁Elect	-10.4942
▁Parliament	-10.4947
▁coffee	-10.4948
▁Mexican	-10.4948
▁multiple	-10.4948
▁cabinet	-10.4948
▁queen	-10.4948
▁inquir	-10.4948
▁Board	-10.4949
▁supposed	-10.4949
▁superdelegate	-10.4949
▁inspection	-10.495
▁marine	-10.4953
▁expensive	-10.4954
▁switch	-10.4954
▁sailor	-10.4955
▁settle	-10.4958
armament	-10.4961
▁Loh	-10.4961
▁stole	-10.4966
▁circumstances	-10.4967
▁mouth	-10.4986
▁undergo	-10.5005
rai	-10.5012
pped	-10.5022
▁introduc	-10.5048
▁matche	-10.5055
▁Henr	-10.506
▁plu	-10.5069
ullah	-10.5074
▁FAR	-10.5081
▁maxim	-10.5092
TV	-10.5093
▁northwest	-10.5093
▁ski	-10.5094
▁emerged	-10.5095
ippi	-10.5099
▁consult	-10.51
iana	-10.51
▁handle	-10.5104
▁DVD	-10.5104
▁agricultur	-10.5104
▁dispatch	-10.5104
▁funeral	-10.5104
▁false	-10.5104
▁dinner	-10.5105
▁yard	-10.5107
▁typical	-10.5107
▁shoot	-10.5109
▁lung	-10.5109
▁regulator	-10.511
▁rescued	-10.5123
▁replac	-10.5124
▁Steven	-10.5125
▁prepare	-10.5131
▁cable	-10.5135
▁lady	-10.5137
▁welcom	-10.5166
▁powers	-10.5178
▁approve	-10.5184
ular	-10.5189
▁Men	-10.5191
▁messages	-10.5192
ala	-10.5202
▁pirates	-10.5208
▁wor	-10.5211
tt	-10.5225
▁recognize	-10.5226
light	-10.5233
wo	-10.5258
▁breath	-10.5259
▁Disney	-10.526
▁intention	-10.5262
▁Control	-10.5262
▁Swiss	-10.5263
▁Staff	-10.5263
▁application	-10.5263
▁captain	-10.5263
▁Mississ	-10.5264
rey	-10.5265
▁diamond	-10.5265
▁Castro	-10.5266
▁shark	-10.5266
▁dominat	-10.5272
▁indication	-10.5273
▁blaze	-10.5275
▁mental	-10.5279
▁compete	-10.5282
▁stimul	-10.5287
▁liter	-10.5289
▁appropriate	-10.5294
▁mate	-10.5299
▁bombers	-10.53
▁moderate	-10.5301
▁Stan	-10.5303
▁Je	-10.5321
▁accounts	-10.5323
pending	-10.5327
▁forum	-10.5334
▁bird	-10.5341
▁Ray	-10.5342
▁Report	-10.5342
▁guns	-10.5353
▁Art	-10.5354
▁pursue	-10.5365
▁apologiz	-10.5368
erland	-10.5374
▁Bar	-10.5374
▁counts	-10.5399
▁diplomat	-10.54
▁Blue	-10.5401
▁explosive	-10.5408
▁citizen	-10.5409
▁bail	-10.5422
HIV	-10.5423
▁editor	-10.5424
▁Phoeni	-10.5424
▁apply	-10.5424
▁breakthrough	-10.5424
▁harsh	-10.5424
▁occupation	-10.5424
▁Benedict	-10.5424
▁yellow	-10.5424
▁debri	-10.5425
▁nature	-10.5425
▁impeach	-10.5425
▁edition	-10.5426
▁wins	-10.5427
▁deny	-10.5428
▁Join	-10.543
▁hail	-10.543
▁wage	-10.5434
▁intense	-10.5438
▁Worker	-10.5458
it	-10.5459
▁musical	-10.5467
put	-10.5472
tic	-10.5474
▁disable	-10.5495
▁marks	-10.5499
wise	-10.5509
▁Den	-10.5509
▁lights	-10.5513
▁Sri	-10.5518
olo	-10.5519
▁Mi	-10.5521
▁earning	-10.5525
more	-10.5528
nformation	-10.5534
B	-10.5537
▁Gul	-10.554
▁communit	-10.555
trick	-10.5554
▁Sch	-10.5565
▁Far	-10.5568
▁eating	-10.5571
▁punish	-10.5583
▁disrupt	-10.5584
▁confident	-10.5587
▁benchmark	-10.5588
▁concrete	-10.5588
▁boyfriend	-10.5588
▁Director	-10.5589
▁hurricane	-10.5589
▁testimon	-10.5589
▁genetic	-10.5589
▁faith	-10.5589
▁shareholder	-10.5589
▁barrier	-10.5591
▁fierce	-10.5592
▁Pelo	-10.5598
lo	-10.5603
▁operator	-10.5609
huan	-10.5611
▁entry	-10.5615
▁Chad	-10.5645
▁Somalia	-10.5654
▁Ho	-10.5666
▁camps	-10.5682
▁saving	-10.5684
▁react	-10.5688
▁Austria	-10.5732
ev	-10.5733
eath	-10.5742
▁window	-10.5749
▁Journal	-10.575
▁Top	-10.575
▁Mount	-10.5753
▁Ambassador	-10.5755
▁Antarctic	-10.5755
▁verdict	-10.5755
▁Rescue	-10.5755
▁conclusion	-10.5755
▁Power	-10.5755
▁ordinar	-10.5755
▁sweep	-10.5755
▁Joseph	-10.5755
▁bitter	-10.5758
▁Bad	-10.5758
▁preparation	-10.576
▁Carlo	-10.576
led	-10.5765
▁Chris	-10.5776
▁spott	-10.5777
▁Maj	-10.578
▁comedy	-10.578
▁unknown	-10.5781
▁Beach	-10.5788
▁correct	-10.5796
aine	-10.5801
▁Let	-10.581
rac	-10.5827
ho	-10.5828
tion	-10.5848
▁Ja	-10.5853
pover	-10.5863
▁chao	-10.5868
bai	-10.5868
▁Pe	-10.5873
▁Mid	-10.5876
ella	-10.5878
sumption	-10.5881
▁slipp	-10.5888
▁denounc	-10.5908
▁pitch	-10.5914
ca	-10.5917
▁Camp	-10.5917
▁Czech	-10.5925
▁McCorm	-10.5925
▁participant	-10.5925
▁Tennesse	-10.5925
▁odd	-10.5925
▁Medic	-10.5925
▁native	-10.5925
▁Kingdom	-10.5926
▁Jeff	-10.5926
ub	-10.5927
▁careful	-10.5929
▁cafe	-10.5933
▁familiar	-10.5933
▁argue	-10.5934
▁scientific	-10.5938
▁surveill	-10.5938
▁stag	-10.5941
▁negotiate	-10.5949
▁whal	-10.595
ad	-10.5951
▁sick	-10.5951
▁copy	-10.5955
▁Speaker	-10.5957
PP	-10.5964
▁owners	-10.5986
li	-10.6009
▁Mel	-10.6011
hood	-10.6017
▁copie	-10.6038
ko	-10.6039
▁plung	-10.6041
▁thanks	-10.6041
▁torture	-10.6065
▁mistake	-10.6077
▁strip	-10.609
▁priva	-10.6093
▁inspir	-10.6095
▁Second	-10.6097
▁compensation	-10.6097
▁referendum	-10.6097
▁striking	-10.6097
▁transaction	-10.6097
▁quiet	-10.6097
▁rumor	-10.6097
▁await	-10.6097
▁tackle	-10.61
▁Clark	-10.61
▁representative	-10.6102
▁Brad	-10.6106
▁Bel	-10.6115
▁Lake	-10.6115
▁substantial	-10.6118
▁Water	-10.6119
▁Erd	-10.612
ities	-10.6121
▁Wine	-10.6135
▁Antoni	-10.6139
▁Cuban	-10.6141
▁overwhelming	-10.6142
▁tend	-10.6144
▁Oh	-10.615
▁Move	-10.6152
▁shore	-10.6167
do	-10.6175
▁fun	-10.6176
▁broadcaster	-10.6178
▁con	-10.6191
craft	-10.6192
away	-10.6193
court	-10.6196
▁realize	-10.6199
▁bigge	-10.6218
▁convert	-10.6222
ph	-10.6237
▁pos	-10.6239
▁Mar	-10.624
▁Ryan	-10.6255
▁miner	-10.6257
▁floods	-10.626
▁motor	-10.626
▁Radio	-10.6268
▁immigrant	-10.6272
▁uniform	-10.6272
▁Doctor	-10.6272
▁departure	-10.6272
▁vital	-10.6272
▁Museum	-10.6273
▁Championship	-10.6273
▁Eight	-10.6273
▁initiative	-10.6273
▁isolat	-10.6273
▁conviction	-10.6273
▁sentiment	-10.6273
▁separatist	-10.6273
▁petition	-10.6273
▁repair	-10.6274
▁Jack	-10.6274
▁Jane	-10.6278
▁Emergenc	-10.6281
▁regions	-10.6288
▁rat	-10.629
▁parent	-10.6291
▁frame	-10.6294
▁UE	-10.6295
▁reference	-10.6296
▁Stephen	-10.6296
▁Ten	-10.6303
▁Bond	-10.6306
▁Long	-10.6317
▁Kent	-10.6319
▁toxic	-10.6321
▁pope	-10.6325
▁paint	-10.6338
board	-10.6347
▁cruise	-10.6348
▁stands	-10.636
▁restor	-10.6361
clusive	-10.6368
▁Mary	-10.6384
▁newly	-10.6385
ible	-10.6394
▁priorit	-10.6404
▁Chun	-10.6412
▁ignor	-10.6419
▁outrage	-10.6447
▁secular	-10.6448
▁loyal	-10.6448
▁novel	-10.645
iang	-10.6451
▁imprison	-10.6451
▁platform	-10.6451
▁Delhi	-10.6451
FP	-10.6451
▁Rafa	-10.6451
▁clock	-10.6451
▁alarm	-10.6452
▁Global	-10.6452
▁aggressive	-10.6453
▁Like	-10.6453
▁Case	-10.6454
▁everybody	-10.6454
▁Tech	-10.6455
▁rail	-10.6456
▁confrontation	-10.6457
▁windows	-10.6458
▁Mac	-10.6458
▁hitt	-10.6459
▁Chong	-10.6461
▁Kate	-10.6462
▁slamm	-10.6463
▁settlement	-10.6466
▁anticipat	-10.6468
▁absolutely	-10.6472
ota	-10.6472
▁Mum	-10.6473
▁continent	-10.6473
▁speaker	-10.6482
▁stable	-10.6488
▁Sir	-10.6488
▁aren	-10.6503
▁Officer	-10.6505
▁shipp	-10.6506
▁prayer	-10.6511
▁Larr	-10.6529
▁map	-10.653
angi	-10.6532
am	-10.6538
▁Mil	-10.6558
▁Nanc	-10.6559
▁Services	-10.6562
▁soil	-10.6563
que	-10.6564
▁Airway	-10.6578
GA	-10.6585
▁mourn	-10.6586
▁Miss	-10.659
▁Alex	-10.6592
▁Il	-10.6594
▁Moon	-10.6596
quo	-10.6597
si	-10.6601
oil	-10.6604
▁Mart	-10.6607
awi	-10.6609
▁Libya	-10.661
▁buyer	-10.6614
▁teen	-10.663
▁spirit	-10.6633
▁muscle	-10.6633
▁urban	-10.6633
▁retain	-10.6633
▁Donald	-10.6633
▁smash	-10.6633
▁crush	-10.6633
▁Roger	-10.6634
▁contrast	-10.6634
▁chest	-10.6634
▁o	-10.6637
▁volcano	-10.6637
▁cargo	-10.6638
▁Timor	-10.6638
▁float	-10.6639
▁civi	-10.6639
▁Tsv	-10.6641
▁chant	-10.6646
▁Moore	-10.6647
▁league	-10.6649
▁Stone	-10.6649
▁Andrew	-10.665
▁moral	-10.6653
▁wood	-10.6656
▁unity	-10.666
▁submitt	-10.6662
▁Yi	-10.6672
▁greet	-10.6673
▁Ri	-10.6678
erry	-10.6694
uri	-10.6696
▁Act	-10.6697
▁expos	-10.6702
hildren	-10.6728
ball	-10.6735
▁historical	-10.674
▁Ire	-10.6748
▁Da	-10.6757
band	-10.6768
▁painting	-10.6777
▁trader	-10.6786
▁employ	-10.6796
▁impose	-10.6801
▁Bangladesh	-10.6808
▁breach	-10.6813
me	-10.6814
▁partners	-10.6815
▁lobby	-10.6817
▁unrest	-10.6818
▁Capitol	-10.6818
▁Education	-10.6818
▁qualify	-10.6818
▁obvious	-10.6818
▁embryo	-10.6818
▁motion	-10.6818
ANGE	-10.6818
▁outcome	-10.682
▁Bowl	-10.682
▁Mohammad	-10.6821
▁Pro	-10.6821
▁respective	-10.6822
▁dust	-10.6823
▁Rod	-10.6824
elphi	-10.6826
▁Rich	-10.683
▁sect	-10.6831
▁inch	-10.6833
▁acknowledge	-10.6837
istan	-10.6838
▁hid	-10.6839
▁delegate	-10.6853
▁employee	-10.6853
▁politician	-10.6854
▁resist	-10.6864
▁graduate	-10.6868
▁thinking	-10.6871
▁twin	-10.6884
▁introduce	-10.6886
▁Te	-10.6897
▁Syrian	-10.6904
▁undermine	-10.6921
▁Ra	-10.6935
▁extremists	-10.6941
▁execut	-10.6948
▁organ	-10.6966
▁attacker	-10.6973
▁Lanka	-10.6983
▁teens	-10.6987
▁su	-10.6994
▁prince	-10.6995
▁guide	-10.6998
▁spill	-10.7
▁Civil	-10.7004
evich	-10.7007
▁quarterfinal	-10.7007
▁caution	-10.7007
▁summon	-10.7007
▁Commerc	-10.7007
LES	-10.7007
▁creature	-10.7007
▁rifle	-10.7007
▁Local	-10.7007
▁consequence	-10.7007
▁Palace	-10.7008
▁greenhouse	-10.7008
▁curb	-10.7008
▁Hamid	-10.7008
▁Davis	-10.7008
▁Huck	-10.7008
▁slump	-10.7009
▁Missou	-10.7009
▁tobacco	-10.7009
▁extraordinar	-10.7009
▁essential	-10.7012
▁roof	-10.7012
▁Memori	-10.7014
▁Old	-10.7016
▁freeze	-10.7018
▁portion	-10.7018
▁phase	-10.7025
▁Sam	-10.7027
▁Out	-10.7037
ew	-10.7039
▁contender	-10.7041
ade	-10.7042
▁Change	-10.7067
▁hero	-10.7073
nke	-10.7075
▁worsen	-10.708
▁athletes	-10.7088
▁escalat	-10.7094
▁villager	-10.7099
▁distribut	-10.7101
▁documentar	-10.7106
▁Nas	-10.7108
▁combin	-10.7112
▁sole	-10.7114
▁OP	-10.7121
shore	-10.7123
▁pleas	-10.7125
▁clothe	-10.7126
▁liberal	-10.7128
▁rac	-10.7136
▁attach	-10.7143
▁cave	-10.7155
▁mis	-10.7161
▁submit	-10.7171
▁compet	-10.7175
▁Ala	-10.7179
▁robot	-10.7196
▁administrative	-10.7199
▁ambush	-10.7199
▁technique	-10.7199
▁sweet	-10.7199
▁Giuli	-10.7199
▁pattern	-10.7199
▁Darwin	-10.7199
▁checkpoint	-10.7199
▁championship	-10.72
▁diet	-10.72
▁toilet	-10.72
▁relocation	-10.72
▁Globe	-10.7201
▁contribute	-10.7202
▁medal	-10.7203
▁shield	-10.7206
▁rebuild	-10.721
▁stroke	-10.721
▁dat	-10.7214
▁feed	-10.7215
▁concept	-10.7216
▁Har	-10.7218
mbled	-10.722
▁assessment	-10.722
▁airports	-10.7226
E	-10.7229
iest	-10.723
▁Motor	-10.7232
▁offender	-10.7233
▁robber	-10.7234
▁fires	-10.7243
▁root	-10.7244
▁attitude	-10.7249
▁whale	-10.7257
▁Seven	-10.7269
▁Ha	-10.7269
nt	-10.7277
▁da	-10.7295
▁Northeast	-10.7296
▁Researcher	-10.7301
▁legs	-10.7318
▁traffick	-10.7323
▁ousted	-10.7327
▁bribe	-10.7328
standing	-10.7328
▁Bell	-10.7328
▁lend	-10.7333
ated	-10.7335
ox	-10.7336
▁refuse	-10.7343
W	-10.7351
▁Nine	-10.7354
▁Ru	-10.7358
▁dictator	-10.7395
▁Netherlands	-10.7395
▁globe	-10.7395
▁guerrilla	-10.7395
▁Orlean	-10.7395
▁Merkel	-10.7395
▁Gyeong	-10.7395
▁earth	-10.7397
▁timetable	-10.7397
▁gross	-10.7398
▁efficient	-10.7399
▁bankruptcy	-10.74
▁hall	-10.7402
▁Warner	-10.7403
daq	-10.7403
▁runoff	-10.7404
▁variet	-10.7407
▁residence	-10.7408
▁fever	-10.741
▁Mer	-10.7411
▁homeless	-10.7427
▁overcom	-10.7433
▁trend	-10.7433
▁Whit	-10.7442
▁scheme	-10.7447
▁sad	-10.7453
▁Yong	-10.7455
EB	-10.7456
▁Shara	-10.7461
▁foundation	-10.7463
▁Ste	-10.7485
▁Jae	-10.7485
hilad	-10.7493
▁endors	-10.7501
▁mandat	-10.7505
▁seconds	-10.7512
▁revive	-10.7514
identified	-10.7517
▁Ron	-10.7525
ential	-10.7533
▁Wal	-10.7534
▁min	-10.7535
ll	-10.7536
▁troubl	-10.7546
▁liquid	-10.7557
▁scar	-10.7559
fi	-10.7559
▁whales	-10.756
▁reserve	-10.7578
▁function	-10.7583
▁amounts	-10.7584
ged	-10.7586
▁Kuwait	-10.7587
▁exhibit	-10.7589
▁except	-10.7591
▁Serb	-10.7594
▁steel	-10.7595
▁consecutive	-10.7595
▁Cruise	-10.7595
▁IOC	-10.7595
▁Program	-10.7595
▁swimming	-10.7595
▁legend	-10.7595
▁republic	-10.7595
▁exposure	-10.7595
▁abortion	-10.7595
▁temple	-10.7596
▁Job	-10.7596
▁tunnel	-10.7596
▁Greek	-10.7597
▁disappearance	-10.7597
▁competitive	-10.7598
▁Rodrigue	-10.7599
▁substance	-10.7599
▁Snow	-10.7599
▁Rowl	-10.7599
▁Colleg	-10.7601
▁celebration	-10.7601
heriff	-10.7606
▁Feb	-10.7609
▁Simon	-10.7611
▁torn	-10.7618
elevision	-10.762
▁Jer	-10.7624
▁deadlie	-10.7631
▁Metropoli	-10.7633
▁specialist	-10.7634
▁Murr	-10.7638
▁turnout	-10.7647
old	-10.7649
▁revenue	-10.7652
▁Polan	-10.7654
▁household	-10.7658
lub	-10.7658
▁prais	-10.7662
▁apart	-10.7672
▁classifi	-10.7675
▁Rio	-10.7697
▁doors	-10.7702
▁rescuer	-10.7704
▁upset	-10.7708
▁banner	-10.7708
half	-10.7717
fer	-10.7717
▁retail	-10.7719
▁shots	-10.7725
lated	-10.7731
▁Eric	-10.7732
▁Bear	-10.7736
ti	-10.7737
▁Ever	-10.7737
▁conclude	-10.7739
▁laugh	-10.7753
abee	-10.7756
▁Pat	-10.7762
east	-10.7762
▁faction	-10.7784
▁Up	-10.7784
▁sons	-10.7784
▁Latin	-10.7792
▁Detroit	-10.7799
▁clinch	-10.7799
▁encounter	-10.7799
▁voluntar	-10.7799
▁ocean	-10.7799
▁laptop	-10.7799
▁minimum	-10.7799
▁mortar	-10.7799
▁Panama	-10.7799
▁obligation	-10.78
▁cyclone	-10.78
▁Socialist	-10.78
▁Critic	-10.78
▁impossible	-10.78
▁Light	-10.78
▁evacuation	-10.7801
▁Athen	-10.7801
▁wireless	-10.7801
▁baseball	-10.7802
▁Ball	-10.7802
▁Rei	-10.7803
▁engage	-10.7803
▁Engineer	-10.7803
▁jungle	-10.7805
▁abduction	-10.7806
▁Arabic	-10.7809
▁Rose	-10.7817
the	-10.782
▁Rudd	-10.7821
▁Forest	-10.7835
▁Paulo	-10.7852
▁plate	-10.7856
pov	-10.786
▁beer	-10.7869
▁Lo	-10.7869
sfeld	-10.787
▁bars	-10.7874
▁yes	-10.7875
▁Leader	-10.7894
▁Albert	-10.7912
▁br	-10.7918
▁viewers	-10.7919
▁generate	-10.7919
fire	-10.7923
▁dry	-10.7926
▁winners	-10.7929
▁regret	-10.7937
▁pray	-10.7937
▁wire	-10.7954
▁indicted	-10.7954
▁resistan	-10.7957
▁Politic	-10.7961
▁stick	-10.7968
▁granted	-10.7981
▁flat	-10.7987
▁worri	-10.7995
▁Sic	-10.8001
▁semifinal	-10.8005
▁concession	-10.8007
▁precaution	-10.8007
▁Festival	-10.8008
▁blanket	-10.8008
▁ballistic	-10.8008
▁offense	-10.8008
▁stuff	-10.8008
▁landmark	-10.8008
▁Technolog	-10.8008
▁Tiger	-10.8008
▁hint	-10.8008
▁fulfill	-10.8008
▁testify	-10.8008
▁exploit	-10.8008
▁Video	-10.8008
▁aftershock	-10.8008
▁suspicious	-10.8009
▁postpone	-10.801
▁tropic	-10.801
▁reward	-10.8012
▁inquest	-10.8013
▁meat	-10.8013
▁Week	-10.8014
▁Ark	-10.8015
▁Rum	-10.8017
▁proof	-10.8017
▁ambition	-10.8023
ntao	-10.8035
▁gate	-10.8037
▁emotional	-10.8037
▁designer	-10.8042
▁equit	-10.8042
▁Dean	-10.8045
▁volunteers	-10.8047
▁Wales	-10.8053
▁burst	-10.8061
▁Will	-10.8068
▁detainees	-10.8072
▁wine	-10.8074
▁worry	-10.8077
▁shoulder	-10.8077
▁Princes	-10.8077
▁homeland	-10.8077
oxid	-10.8081
ably	-10.8091
and	-10.8101
▁Bei	-10.8102
▁tension	-10.811
▁tru	-10.8112
▁Pri	-10.8115
erson	-10.8117
▁Kurdis	-10.8129
▁promotion	-10.8133
▁Cooper	-10.8136
bow	-10.814
▁rubb	-10.8154
▁habitat	-10.8162
▁Ch	-10.8165
▁Motors	-10.8169
▁trained	-10.8174
▁Maria	-10.8181
▁Kyo	-10.8186
▁investigations	-10.8189
izu	-10.8195
▁Ramo	-10.8195
▁Live	-10.8203
▁compromise	-10.8203
▁cheap	-10.8208
▁Me	-10.8215
▁confess	-10.8216
▁deficit	-10.822
▁dawn	-10.822
▁constant	-10.822
▁Division	-10.822
▁Winter	-10.822
▁wildfire	-10.8221
▁gear	-10.8221
▁belief	-10.8221
▁Cleve	-10.8221
▁Barbara	-10.8221
▁crown	-10.8221
▁colonial	-10.8222
▁displac	-10.8222
▁Survey	-10.8222
▁Master	-10.8223
▁launder	-10.8224
▁Yel	-10.8224
▁mom	-10.8224
all	-10.8225
▁prominent	-10.8226
▁turm	-10.8226
▁solid	-10.8227
▁pour	-10.8234
▁Hawk	-10.8236
▁Fift	-10.8238
▁core	-10.824
▁Fi	-10.8241
erald	-10.8242
anagement	-10.8245
▁Sheriff	-10.8246
rctic	-10.8246
▁leftist	-10.8248
▁icon	-10.8249
q	-10.825
▁secur	-10.8255
▁flash	-10.8263
▁Malaysian	-10.8264
▁trick	-10.8273
▁Hug	-10.8279
▁Bolt	-10.8286
nis	-10.8288
bu	-10.8291
▁nei	-10.8298
▁passport	-10.8307
▁decid	-10.8308
▁Tay	-10.8308
▁principle	-10.831
▁thin	-10.8337
▁pointed	-10.8341
▁divide	-10.8351
ap	-10.8354
lum	-10.8357
precedent	-10.8357
▁deliberate	-10.8376
▁wrapp	-10.8377
▁Wh	-10.8378
▁fat	-10.8378
▁Dod	-10.838
▁classic	-10.8384
▁GM	-10.8392
▁reduc	-10.8395
▁cartoon	-10.8412
▁Command	-10.8418
▁counsel	-10.843
▁confront	-10.843
▁prohibit	-10.8431
▁bureau	-10.8433
▁Euro	-10.8434
▁luxur	-10.8437
▁Ibrahim	-10.8438
▁Oklahoma	-10.8438
▁relax	-10.8438
▁transplant	-10.8438
▁cigarette	-10.8438
▁admission	-10.8438
▁drill	-10.8438
▁expansion	-10.8438
▁beaut	-10.8438
▁tornado	-10.8438
▁respondent	-10.8439
▁Media	-10.844
▁Kansa	-10.844
▁spiritual	-10.8441
▁urgent	-10.8441
▁Adam	-10.8441
▁empty	-10.8445
▁premier	-10.8445
▁load	-10.8456
▁presumpti	-10.8458
▁cow	-10.846
▁towns	-10.8462
▁Yu	-10.8462
▁desire	-10.8467
▁stead	-10.847
▁n	-10.8475
▁fleet	-10.8484
▁commissioner	-10.8484
▁achiev	-10.8484
tsin	-10.8487
▁Lewis	-10.8489
▁predict	-10.8491
laid	-10.8496
▁institute	-10.8497
▁Line	-10.8501
lets	-10.8506
▁coal	-10.8509
her	-10.8512
nak	-10.8518
ster	-10.8523
▁Hit	-10.8527
▁depressi	-10.8536
▁Berna	-10.8542
min	-10.8557
arian	-10.8559
▁centur	-10.8574
▁Woo	-10.8581
▁oversee	-10.8584
med	-10.8604
▁Ne	-10.8611
▁Ni	-10.8622
▁decisions	-10.8623
▁colon	-10.8629
orry	-10.8635
▁stepping	-10.8639
iscons	-10.8653
▁Yemen	-10.8653
▁wrap	-10.8654
▁interpret	-10.8657
▁Hud	-10.866
▁Ecuador	-10.866
▁consensu	-10.866
▁hybrid	-10.866
▁technologies	-10.866
▁Craig	-10.866
▁Current	-10.866
▁tragedy	-10.866
▁migrant	-10.866
▁Consumer	-10.866
▁Morning	-10.866
▁Seattle	-10.866
▁Meet	-10.866
▁Amazon	-10.866
▁egg	-10.8661
▁dissident	-10.8661
▁Industrial	-10.8661
▁uncover	-10.8662
kovic	-10.8662
▁dragg	-10.8665
▁yuan	-10.8666
▁glacier	-10.8667
▁Sweden	-10.8669
▁spray	-10.867
▁insurgenc	-10.867
▁Compan	-10.867
▁background	-10.8673
▁chole	-10.8673
▁insult	-10.8673
▁examin	-10.8675
▁strategic	-10.8681
wa	-10.8685
▁occasion	-10.8689
▁Tru	-10.8692
▁instance	-10.8701
▁happening	-10.8708
▁Fortun	-10.8711
▁champions	-10.8716
▁cooperate	-10.8716
viation	-10.8717
▁ruler	-10.872
▁massacre	-10.872
▁custom	-10.8722
▁theft	-10.8731
▁Turn	-10.8741
▁endur	-10.8745
▁sand	-10.8746
▁retailer	-10.8748
▁drawing	-10.875
▁strand	-10.8753
conciliation	-10.8755
▁Ir	-10.8759
▁follower	-10.8764
▁Anders	-10.8766
▁AC	-10.8766
▁Phil	-10.8766
ide	-10.877
▁revis	-10.878
▁attribut	-10.8781
ius	-10.8785
▁dy	-10.8785
pol	-10.8794
ba	-10.8798
▁breed	-10.8809
▁lake	-10.8827
▁Philip	-10.8837
▁designat	-10.8837
▁marking	-10.8842
▁reiterat	-10.885
uma	-10.8852
▁diploma	-10.8855
▁Gerr	-10.8859
▁Pol	-10.8862
▁denucleariz	-10.8864
▁Harv	-10.887
▁grab	-10.8875
▁Yo	-10.8876
▁representatives	-10.888
hn	-10.8883
▁caps	-10.8883
▁Rep	-10.8884
afety	-10.8885
▁Follow	-10.8887
▁economies	-10.8887
▁memorial	-10.8887
▁religion	-10.8887
▁tabloid	-10.8887
▁unexpected	-10.8887
▁Window	-10.8887
bama	-10.8887
▁extensive	-10.8887
▁Executive	-10.8887
▁infant	-10.8887
▁surg	-10.8887
▁unfair	-10.8887
▁pipeline	-10.8888
▁definite	-10.8888
▁inauguration	-10.8888
▁terminal	-10.8888
▁exclusive	-10.8889
▁consistent	-10.8889
▁medication	-10.889
▁Land	-10.8891
▁cup	-10.8892
▁recommendation	-10.8892
▁fake	-10.8892
▁Stern	-10.8893
▁Chance	-10.8894
▁Ahmad	-10.8896
▁Kitt	-10.8896
▁swift	-10.8901
▁replacement	-10.8907
▁wash	-10.891
FDA	-10.8915
▁tower	-10.8922
▁suggestion	-10.8925
▁permissi	-10.8925
▁coc	-10.8928
▁Br	-10.8929
uz	-10.8932
▁Thanks	-10.894
▁Du	-10.8942
▁Main	-10.8943
▁cards	-10.8944
▁Brun	-10.8955
▁capabilit	-10.8959
▁characters	-10.8974
▁Mass	-10.8976
▁disclose	-10.8981
▁Rodd	-10.8986
▁Diya	-10.899
▁impo	-10.8995
▁starr	-10.8998
cal	-10.9005
▁Jin	-10.901
▁Philippine	-10.901
onna	-10.9011
▁Broadcast	-10.902
▁Sung	-10.9028
▁Terr	-10.9038
ucky	-10.9041
▁Jo	-10.9043
▁Bu	-10.9044
▁praise	-10.9046
▁minorit	-10.9064
▁sight	-10.9065
tar	-10.9078
▁manage	-10.9086
eh	-10.9091
▁Nigeria	-10.9097
▁dealers	-10.9102
▁tickets	-10.9104
▁Fort	-10.9107
gt	-10.9112
▁conservation	-10.9115
▁grenade	-10.912
▁predecessor	-10.912
▁elephant	-10.912
▁zero	-10.912
▁steep	-10.912
▁fault	-10.912
▁extension	-10.912
▁suspension	-10.912
▁overturn	-10.912
▁destination	-10.912
▁panda	-10.9121
ntil	-10.9122
▁loud	-10.9122
▁contribution	-10.9124
▁nice	-10.9128
▁creation	-10.9129
verish	-10.913
▁legitimate	-10.913
▁railway	-10.9135
▁tighten	-10.9139
ek	-10.914
▁Virgin	-10.9143
▁lab	-10.9143
▁prior	-10.9144
▁reverse	-10.9151
▁soo	-10.9152
▁personally	-10.9152
▁amendment	-10.9164
▁employment	-10.917
▁Twent	-10.9171
▁contractor	-10.9174
▁publication	-10.9179
▁hir	-10.9179
▁Pen	-10.918
▁Kun	-10.9184
frai	-10.9187
▁Ta	-10.9193
▁Rad	-10.9196
rich	-10.9207
harto	-10.9217
▁Cold	-10.9219
▁lender	-10.9221
▁matters	-10.9239
▁dropping	-10.9239
▁Matt	-10.9249
▁persuade	-10.9254
ware	-10.9254
▁Dec	-10.9257
▁Tho	-10.9258
▁recognized	-10.9268
▁wheel	-10.9268
▁clip	-10.9282
▁Clo	-10.9292
ett	-10.9297
ists	-10.93
dev	-10.9326
▁wav	-10.9333
▁Med	-10.9335
▁occur	-10.9339
▁contribut	-10.9341
▁consum	-10.9345
▁bargain	-10.9358
▁genocid	-10.9358
▁embarrass	-10.9358
▁videotape	-10.9358
▁prosper	-10.9358
▁Vermont	-10.9358
▁discount	-10.9358
▁tiger	-10.9358
▁Katrin	-10.9358
▁tissue	-10.9358
▁Houston	-10.9358
▁hub	-10.9358
▁priest	-10.9358
▁vitamin	-10.9359
▁download	-10.9359
▁guideline	-10.936
▁Girl	-10.936
▁possession	-10.936
▁burden	-10.9361
▁Yet	-10.9361
▁Kanda	-10.9361
▁expire	-10.9363
▁Liberal	-10.9366
▁jobless	-10.937
▁rent	-10.937
▁musician	-10.9372
▁snake	-10.9377
▁dop	-10.9379
ament	-10.9379
▁visibl	-10.938
▁sheet	-10.9381
▁grant	-10.9391
▁confirmation	-10.9393
▁thick	-10.9399
▁advisor	-10.9404
▁Price	-10.9404
▁Sang	-10.9406
▁Yes	-10.9412
▁Glas	-10.9415
eastern	-10.9417
▁influ	-10.9437
▁experienc	-10.9437
▁flags	-10.9437
▁factors	-10.9439
ik	-10.945
math	-10.9454
▁sav	-10.9455
▁Laho	-10.9457
▁interior	-10.9459
llor	-10.9462
▁Lis	-10.9462
▁Ge	-10.9468
lin	-10.9468
▁abuses	-10.9469
▁Sao	-10.947
▁crossing	-10.9476
▁Medica	-10.9477
▁hat	-10.9477
▁Nazi	-10.9484
aki	-10.9486
▁CD	-10.9489
▁defending	-10.9496
▁Down	-10.95
▁automaker	-10.9501
▁kidnapp	-10.9506
most	-10.951
ward	-10.9511
▁demonstrate	-10.953
▁golf	-10.9536
▁challeng	-10.9541
▁eas	-10.9543
▁arrang	-10.9544
▁plac	-10.9547
▁Torre	-10.955
T	-10.9551
▁KC	-10.9562
▁advis	-10.9565
eva	-10.9577
cheon	-10.9579
▁teenage	-10.9587
▁transform	-10.9592
▁vulnerab	-10.9594
▁inmate	-10.9601
▁absence	-10.9602
▁disorder	-10.9602
▁infrastructure	-10.9602
▁regain	-10.9602
▁unacceptabl	-10.9602
▁volume	-10.9602
▁monarch	-10.9602
▁pardon	-10.9602
munition	-10.9602
▁Witness	-10.9602
▁Little	-10.9602
▁Pyeong	-10.9602
▁gray	-10.9602
▁Brook	-10.9602
▁entrance	-10.9602
▁Sheikh	-10.9602
▁shutdown	-10.9603
▁interrogation	-10.9603
▁Puert	-10.9604
▁rebound	-10.9605
▁everywhere	-10.9608
▁silence	-10.9611
▁Wood	-10.9612
▁Walter	-10.9614
▁peer	-10.9617
▁princess	-10.9617
▁commuter	-10.9618
hook	-10.9618
▁Vien	-10.9619
▁Milita	-10.9619
▁Libyan	-10.9633
▁Fosse	-10.9638
▁Fred	-10.9646
▁Guan	-10.9647
▁hike	-10.9647
▁stream	-10.9665
itis	-10.9672
▁rains	-10.9676
rsenal	-10.9676
▁broker	-10.9694
▁procedures	-10.9694
▁classe	-10.9698
▁autonom	-10.9706
▁pool	-10.9715
▁shap	-10.9716
imed	-10.9725
cut	-10.9739
▁Holy	-10.9742
pe	-10.9745
▁principles	-10.9746
tadium	-10.9746
ila	-10.976
▁Palm	-10.9762
▁procedure	-10.9762
▁complicat	-10.9767
▁Sha	-10.9771
▁Chair	-10.9778
arachi	-10.9779
▁Alan	-10.9781
▁covering	-10.9785
▁flower	-10.9802
ill	-10.9806
▁Nicole	-10.9817
burg	-10.9817
▁Gu	-10.9818
▁prov	-10.9821
▁Roma	-10.9825
itag	-10.9837
▁Vis	-10.9838
▁Play	-10.9842
▁tomb	-10.9844
▁Econom	-10.9845
▁fundamental	-10.9848
▁Spaniard	-10.9852
▁association	-10.9852
▁evil	-10.9852
▁immun	-10.9852
▁grass	-10.9852
▁Graham	-10.9852
▁populat	-10.9852
▁Jolie	-10.9852
▁taxpayer	-10.9852
▁Drug	-10.9852
▁balloon	-10.9852
▁Lord	-10.9852
▁category	-10.9852
▁unique	-10.9855
▁combination	-10.9855
▁Emirat	-10.9856
ga	-10.9856
▁hye	-10.9856
▁lov	-10.9856
▁Ahmed	-10.9856
▁endorsement	-10.9856
▁outlook	-10.9857
▁occupie	-10.9859
▁remarkable	-10.9861
▁airplane	-10.9861
▁melt	-10.9862
▁Discovery	-10.9862
▁instant	-10.9863
▁Ku	-10.9867
▁passage	-10.9868
▁accompani	-10.9873
▁fatalit	-10.9873
refore	-10.9874
orporation	-10.9891
▁repeat	-10.9896
▁craft	-10.9905
▁Mal	-10.9908
▁plent	-10.9908
▁Station	-10.9909
▁hide	-10.991
hang	-10.9916
▁habit	-10.9919
▁sp	-10.9921
▁deteriorat	-10.9923
▁tanker	-10.9924
▁par	-10.9931
▁dismantl	-10.9946
▁Cape	-10.9949
▁plea	-10.995
▁proceed	-10.9961
▁goalkeep	-10.9973
▁Love	-10.9973
cia	-10.9978
▁recording	-10.9987
▁fame	-10.9987
latter	-10.9991
▁Jay	-10.9997
▁remark	-10.9999
▁Bloom	-11.0007
enior	-11.0008
▁primari	-11.0008
HS	-11.0012
rut	-11.0018
▁lunch	-11.0021
▁opponent	-11.0024
▁infection	-11.0026
til	-11.0027
▁emerg	-11.0034
▁Bur	-11.0039
olla	-11.0041
NE	-11.005
▁plays	-11.0088
▁Gaz	-11.009
▁manufacturers	-11.0091
▁Kid	-11.0093
room	-11.0097
▁industri	-11.0097
▁blog	-11.0098
SA	-11.0098
▁raped	-11.0102
▁pilgrim	-11.0107
▁indefinite	-11.0108
▁reopen	-11.0108
▁Communication	-11.0108
▁gesture	-11.0108
▁salmon	-11.0108
▁Toyota	-11.0108
▁distress	-11.0108
▁Idol	-11.0108
▁Wilson	-11.0109
▁duck	-11.0109
▁component	-11.0109
▁registration	-11.0109
▁gradual	-11.0109
▁Heart	-11.0109
▁Recent	-11.0109
▁mask	-11.0109
▁prolong	-11.0109
▁expell	-11.011
▁Guang	-11.011
▁tribute	-11.011
▁midfielder	-11.0111
▁Mobil	-11.0112
▁pronounce	-11.0112
▁Cheong	-11.0112
▁distribution	-11.0114
▁Market	-11.0116
▁steal	-11.0117
▁pornograph	-11.0117
▁Who	-11.0117
▁circulat	-11.0119
▁coverage	-11.0119
▁landscape	-11.0123
ny	-11.0126
▁Mas	-11.0127
FK	-11.0128
▁Boy	-11.0129
▁tale	-11.013
▁headline	-11.0133
▁burial	-11.0134
▁publisher	-11.0139
hiri	-11.014
▁determin	-11.0143
anamo	-11.0148
▁partial	-11.0154
▁Nov	-11.0158
ugher	-11.0159
▁h	-11.0171
▁resum	-11.0188
▁sail	-11.0198
▁Hav	-11.0216
▁Base	-11.0226
▁skills	-11.0234
ampa	-11.0238
▁chip	-11.0253
ose	-11.026
▁bacteria	-11.0262
gen	-11.0266
ood	-11.0271
▁advanc	-11.0281
▁vaccine	-11.0286
▁elector	-11.0293
won	-11.0295
▁shak	-11.03
red	-11.0301
▁hiding	-11.0302
▁USA	-11.033
ildlife	-11.0331
▁bull	-11.0341
▁la	-11.0343
▁accidental	-11.0345
▁Uganda	-11.0346
uba	-11.0353
▁Belgi	-11.0363
▁ruin	-11.0364
ook	-11.0367
▁analysi	-11.0368
▁Democrac	-11.0371
▁Oregon	-11.0371
▁curfew	-11.0371
▁drown	-11.0371
▁incredibl	-11.0371
▁prestig	-11.0371
▁volatil	-11.0371
▁unanimous	-11.0371
remlin	-11.0371
▁Campbell	-11.0371
▁Project	-11.0371
▁comply	-11.0371
▁MySpace	-11.0371
▁optimistic	-11.0371
▁Weather	-11.0371
▁Oct	-11.0372
▁Summer	-11.0372
▁surprising	-11.0372
▁brick	-11.0372
▁Common	-11.0373
▁descend	-11.0374
▁Brian	-11.0375
▁Kyung	-11.0376
▁pollut	-11.0378
io	-11.0379
▁mud	-11.0379
▁Miller	-11.038
▁joke	-11.0381
▁Minne	-11.0383
▁Kaes	-11.0384
▁filmmaker	-11.0384
▁selection	-11.0387
▁closure	-11.0388
lliance	-11.0392
▁Berk	-11.0396
TO	-11.0402
phy	-11.0404
▁Sin	-11.0404
▁ISLA	-11.0407
▁Geu	-11.0408
▁Christ	-11.0409
▁Sevill	-11.0416
▁Serbian	-11.0416
▁statue	-11.042
▁clue	-11.0424
▁deepen	-11.0427
▁proceedings	-11.0433
▁theme	-11.0433
▁Mont	-11.0435
▁generat	-11.047
▁comfortabl	-11.0476
▁defin	-11.0481
inho	-11.0497
▁i	-11.0498
▁dismantle	-11.0541
RIS	-11.0548
▁Victoria	-11.0564
fa	-11.0569
▁argument	-11.0586
▁purchas	-11.059
▁swor	-11.0602
ative	-11.0617
vili	-11.0622
ONG	-11.0626
▁branch	-11.0629
ich	-11.0634
itz	-11.0641
xperts	-11.0641
▁Citigroup	-11.0641
▁ambulance	-11.0641
▁iPhone	-11.0641
▁mutual	-11.0641
▁cautious	-11.0641
▁coincide	-11.0641
▁intervention	-11.0642
▁pill	-11.0642
▁captor	-11.0642
▁palm	-11.0642
▁acid	-11.0642
▁excessive	-11.0642
▁honest	-11.0643
▁biologist	-11.0643
▁Index	-11.0643
▁IBM	-11.0643
▁partnership	-11.0644
▁installation	-11.0644
▁Bahama	-11.0644
▁Ferg	-11.0644
▁yield	-11.0645
▁manipulation	-11.0645
▁Pr	-11.0645
▁Albanian	-11.0649
▁Death	-11.0651
▁charter	-11.0651
▁engagement	-11.0652
▁northwester	-11.0661
▁finger	-11.0661
▁publicist	-11.0663
stone	-11.0671
▁swing	-11.0686
▁Dallas	-11.0695
cious	-11.0698
▁mountains	-11.0699
ureau	-11.0701
▁Ka	-11.0704
cher	-11.071
▁refusal	-11.0713
onference	-11.0724
▁tent	-11.074
▁elaborate	-11.0743
▁scrap	-11.0743
sky	-11.0756
▁Luis	-11.0756
▁launching	-11.0759
DA	-11.0761
▁reserved	-11.0765
▁bow	-11.077
▁Shah	-11.0777
▁Gang	-11.0778
ov	-11.0796
ino	-11.0801
▁prostitute	-11.0812
▁deals	-11.0813
long	-11.0814
val	-11.082
▁Christians	-11.0822
▁nurse	-11.0824
▁Shi	-11.0826
hou	-11.083
hannel	-11.083
▁Burm	-11.083
▁Hindu	-11.0837
▁financ	-11.0837
▁islands	-11.084
▁radi	-11.0851
lov	-11.0861
▁Football	-11.0864
▁shell	-11.0869
shi	-11.0871
▁fence	-11.0873
▁widen	-11.0877
iro	-11.0884
▁permit	-11.0891
fish	-11.0893
▁Cambodia	-11.0896
ef	-11.0897
▁jets	-11.0903
prom	-11.0908
▁portray	-11.0908
▁pig	-11.0913
▁mistakes	-11.0914
▁medic	-11.0915
▁Univers	-11.0916
▁Industr	-11.0918
▁Ab	-11.0918
▁Dakota	-11.0919
▁bolster	-11.0919
▁counterfeit	-11.0919
▁encouraging	-11.0919
▁escort	-11.0919
▁evolution	-11.0919
▁principal	-11.0919
▁shrink	-11.0919
▁dolphin	-11.0919
▁retreat	-11.0919
▁chamber	-11.0919
▁Schwarz	-11.0919
▁anchor	-11.0919
▁abolish	-11.0919
▁Member	-11.0919
▁enormous	-11.0919
▁gunshot	-11.092
▁laborator	-11.092
▁teeth	-11.092
▁classroom	-11.092
▁unpopular	-11.092
▁romantic	-11.092
▁probation	-11.0921
▁Operation	-11.0921
▁Connecti	-11.0922
▁desperate	-11.0922
▁taste	-11.0922
▁telescope	-11.0923
▁audio	-11.0923
pinion	-11.0923
▁Music	-11.0924
▁poison	-11.0926
elations	-11.0927
▁rigg	-11.0928
▁objective	-11.0928
▁mood	-11.093
▁slip	-11.0931
▁embrace	-11.0933
OUL	-11.0933
▁grabb	-11.0934
▁attraction	-11.0934
▁mere	-11.0937
▁Protest	-11.0937
ola	-11.0939
▁guid	-11.0948
▁dirt	-11.0948
port	-11.0948
ee	-11.0958
▁str	-11.096
▁canal	-11.096
nell	-11.0961
▁chat	-11.0961
UL	-11.0973
▁appli	-11.098
▁Sept	-11.0981
▁Cann	-11.0988
▁Helm	-11.0991
▁turns	-11.0991
▁indict	-11.0994
▁Bon	-11.0995
▁armor	-11.0995
▁Mosqu	-11.0999
oon	-11.1005
▁Walk	-11.1007
uke	-11.1008
▁dedicat	-11.1009
▁deposit	-11.1009
▁Islands	-11.1011
elite	-11.1018
▁decrease	-11.1028
▁Pav	-11.1028
▁reviv	-11.1034
▁iron	-11.1037
▁Patric	-11.1038
▁hanging	-11.1041
▁mall	-11.1044
▁Yan	-11.1049
he	-11.1051
ail	-11.1054
▁posts	-11.1059
▁Flight	-11.1063
▁Argentine	-11.1066
▁Thirt	-11.108
▁imagine	-11.1081
indi	-11.1093
person	-11.1101
▁Ara	-11.1105
ire	-11.1107
athrow	-11.112
P	-11.112
ck	-11.1124
fall	-11.1125
prime	-11.1127
ping	-11.1132
rocker	-11.1137
▁killer	-11.1144
▁volunteer	-11.115
▁tactic	-11.1155
▁tip	-11.1158
YO	-11.1159
ral	-11.1161
ue	-11.1164
▁cult	-11.1172
▁Chang	-11.1172
▁admit	-11.1177
hur	-11.1177
space	-11.1178
▁Hills	-11.118
▁mon	-11.118
▁Call	-11.1183
▁SE	-11.1184
▁cook	-11.1189
▁Chart	-11.12
▁Heav	-11.1202
▁hostil	-11.1202
▁height	-11.1204
▁Agricultur	-11.1205
▁Greenpeace	-11.1205
▁expense	-11.1205
▁incumbent	-11.1205
▁happi	-11.1205
▁comprehensive	-11.1205
▁rhetoric	-11.1205
▁loot	-11.1205
▁aspect	-11.1205
▁motive	-11.1205
▁kidney	-11.1206
▁reputation	-11.1206
▁borrow	-11.1206
▁deadlock	-11.1206
▁guess	-11.1206
▁reconstruction	-11.1206
▁rampage	-11.1206
▁academic	-11.1207
▁racial	-11.1207
▁examination	-11.1209
▁Mountain	-11.1209
egger	-11.1209
mpson	-11.1212
▁presum	-11.1214
▁Back	-11.1217
▁Harris	-11.1223
ara	-11.1224
gender	-11.1224
▁subway	-11.1225
ked	-11.123
wine	-11.1233
▁update	-11.1235
▁automatic	-11.1244
▁publish	-11.1252
▁Read	-11.1257
▁violate	-11.1257
▁nose	-11.1267
ribe	-11.1286
▁posting	-11.129
▁panic	-11.1291
mura	-11.1293
pposition	-11.1293
orta	-11.1312
ix	-11.1315
▁defender	-11.1318
au	-11.1326
mus	-11.1326
▁Series	-11.133
▁eliminat	-11.1333
sul	-11.1341
▁fare	-11.1343
▁venture	-11.1367
zens	-11.1378
llo	-11.1378
▁Nawa	-11.1384
N	-11.1388
▁rivers	-11.1389
▁installed	-11.1405
▁rad	-11.1406
▁wel	-11.1412
ological	-11.1414
▁Richards	-11.1417
▁noon	-11.1418
▁vision	-11.143
▁master	-11.1436
▁Kell	-11.1442
▁smil	-11.1443
▁ideal	-11.1445
▁Ship	-11.1446
eological	-11.1446
▁circle	-11.1449
▁Linds	-11.146
▁polluti	-11.1466
▁bi	-11.1468
▁Kath	-11.1471
▁personalit	-11.1478
▁wo	-11.1478
ja	-11.1481
▁unna	-11.1482
▁Musa	-11.1489
▁opt	-11.1491
▁ratings	-11.1493
▁adjust	-11.1493
▁unfortunate	-11.1499
▁dinosaur	-11.1499
▁equivalent	-11.1499
▁eligib	-11.1499
▁epicenter	-11.1499
▁phenomen	-11.1499
▁wrongdoing	-11.1499
▁episode	-11.1499
▁crunch	-11.1499
▁incentive	-11.1499
▁legislature	-11.1499
▁Denmark	-11.1499
▁motorcycle	-11.1499
▁slogan	-11.1499
droe	-11.15
▁talent	-11.15
▁elevator	-11.15
▁recycl	-11.15
▁chicken	-11.1501
▁outdoor	-11.1501
▁Bernard	-11.1502
▁MP	-11.1503
▁extinction	-11.1503
▁divert	-11.1506
▁Mission	-11.1506
▁observation	-11.1506
▁mad	-11.1507
▁disruption	-11.1507
NICE	-11.1509
▁trace	-11.151
▁defector	-11.1511
prah	-11.1512
▁objection	-11.1513
▁Ethiopian	-11.1513
mond	-11.1516
yodo	-11.1517
▁subsid	-11.152
▁grat	-11.1522
▁Juan	-11.1523
▁skull	-11.1523
▁afterward	-11.1524
▁useful	-11.1525
▁limb	-11.1527
ncy	-11.1527
▁requirement	-11.1532
▁Atlanti	-11.1534
▁Con	-11.1535
▁boxes	-11.1536
▁assured	-11.1543
▁Par	-11.1545
▁preserve	-11.1552
▁marry	-11.1555
▁Lim	-11.1559
▁coin	-11.1562
▁scrambl	-11.1569
▁signing	-11.1575
how	-11.1577
▁shouted	-11.1582
▁Allen	-11.1591
▁shake	-11.1599
try	-11.1602
▁Parker	-11.1612
▁expanding	-11.1619
rotti	-11.1619
ili	-11.1633
▁bears	-11.1637
going	-11.1647
▁ads	-11.1651
mo	-11.1652
nest	-11.1661
ank	-11.168
ula	-11.1681
ries	-11.1685
▁Chau	-11.1695
▁Dun	-11.1699
tra	-11.1706
ac	-11.1711
fication	-11.1715
skirt	-11.172
stream	-11.1722
▁dispos	-11.1722
▁Did	-11.1724
piece	-11.1725
▁em	-11.1728
PS	-11.1744
▁Cor	-11.1758
▁PM	-11.1761
▁gift	-11.1762
▁twist	-11.1765
▁sympath	-11.1772
ishu	-11.1782
▁forget	-11.1786
▁Mir	-11.1793
▁exam	-11.1795
▁fertil	-11.1796
▁Rev	-11.1798
▁assess	-11.18
▁Benjamin	-11.1802
▁accompany	-11.1802
▁overhaul	-11.1802
▁sprawl	-11.1802
▁statistics	-11.1802
▁Animal	-11.1802
▁Preventi	-11.1802
▁eager	-11.1802
▁pepper	-11.1802
▁surf	-11.1802
▁crocodile	-11.1802
▁Conservative	-11.1802
▁breakfast	-11.1802
▁Broadway	-11.1802
▁bedroom	-11.1802
▁strategist	-11.1803
▁intent	-11.1803
▁Madoff	-11.1803
▁Moga	-11.1803
OSCO	-11.1804
▁AIG	-11.1804
▁legislator	-11.1805
▁assertion	-11.1806
▁candidacy	-11.1806
▁Wildlife	-11.1807
▁revision	-11.1809
sterol	-11.181
▁magic	-11.1811
▁approximate	-11.1812
ita	-11.1814
▁Jung	-11.1814
▁eruption	-11.1814
▁Winf	-11.1816
▁Fair	-11.1816
residential	-11.1817
▁Highway	-11.1819
▁Family	-11.182
▁hometown	-11.1823
ubble	-11.1823
▁manner	-11.1823
▁Dad	-11.1827
▁Hank	-11.1829
▁Wu	-11.183
▁opposit	-11.183
▁yourself	-11.1831
az	-11.1837
▁slam	-11.1839
ya	-11.1843
▁slaughter	-11.1843
▁fisherm	-11.1844
hry	-11.185
▁patroll	-11.1869
ition	-11.187
▁polar	-11.1879
▁Nikk	-11.1882
▁Rob	-11.1883
af	-11.1889
▁install	-11.1892
▁Amin	-11.1906
ise	-11.1909
kara	-11.1927
wear	-11.1928
▁Tai	-11.1935
▁Cole	-11.1944
▁Der	-11.1947
ova	-11.1948
iness	-11.196
ke	-11.1961
▁Rau	-11.1966
▁agreements	-11.1966
awat	-11.1977
▁univers	-11.1983
nic	-11.1984
▁Mos	-11.1985
▁Springs	-11.199
▁disabl	-11.1995
▁Choi	-11.2005
▁brave	-11.2007
▁origin	-11.2012
AA	-11.2017
▁BA	-11.2028
▁parade	-11.2028
▁propose	-11.2029
▁ear	-11.2031
▁enable	-11.2035
▁impos	-11.2035
▁Stalin	-11.2049
▁bind	-11.2053
▁examine	-11.2061
ux	-11.2073
▁pit	-11.2073
ants	-11.2075
▁Islami	-11.2079
tified	-11.2081
▁remind	-11.2089
▁Shim	-11.2094
▁prefer	-11.2097
▁bond	-11.2098
▁intervene	-11.2098
▁defect	-11.2099
▁alien	-11.2104
▁Justin	-11.2104
▁tea	-11.2104
▁Haiti	-11.2105
▁ambitio	-11.2106
▁Rove	-11.2107
▁stopp	-11.2109
▁disagree	-11.2109
▁depart	-11.2109
▁Jenni	-11.211
▁depict	-11.211
▁spectac	-11.2111
▁Short	-11.2113
avour	-11.2114
▁Caribbean	-11.2115
▁Pichushkin	-11.2115
▁Record	-11.2115
▁appreciate	-11.2115
▁depth	-11.2115
▁imminent	-11.2115
▁unsuccessful	-11.2115
▁Facebook	-11.2115
▁asteroid	-11.2115
▁tragic	-11.2115
▁website	-11.2115
▁carpet	-11.2115
▁incursion	-11.2115
▁anthem	-11.2115
▁denial	-11.2115
▁autops	-11.2115
▁Small	-11.2115
▁Rawal	-11.2115
▁haul	-11.2115
▁beautiful	-11.2115
▁Strip	-11.2115
oalition	-11.2115
▁Wayne	-11.2116
▁mumm	-11.2116
▁basket	-11.2116
▁fruit	-11.2116
▁stronghold	-11.2116
front	-11.2116
▁leap	-11.2116
▁confine	-11.2119
▁Bruce	-11.2119
▁Gibbon	-11.212
CI	-11.212
▁consultation	-11.2121
▁Sky	-11.2122
▁Environmental	-11.2129
▁Stewar	-11.2131
▁provider	-11.2132
▁Nur	-11.2133
▁Anti	-11.2134
▁operative	-11.2134
▁suppress	-11.2139
yong	-11.2153
cation	-11.2156
▁shooter	-11.216
▁smuggling	-11.2162
can	-11.2163
▁consideration	-11.2163
▁amaz	-11.2167
op	-11.2174
▁taxi	-11.2175
▁teaching	-11.2182
yeon	-11.2189
▁Part	-11.219
▁Ende	-11.2194
▁assume	-11.2197
ago	-11.2202
▁exporter	-11.2209
▁Shia	-11.2216
▁ye	-11.2217
bar	-11.2219
▁plunge	-11.2219
idnight	-11.2219
mouth	-11.2221
▁sink	-11.2221
venge	-11.2231
▁refuge	-11.2234
▁electora	-11.2236
▁Yasu	-11.2241
▁Woods	-11.2242
IFA	-11.2245
▁automakers	-11.2246
wan	-11.2247
▁Ken	-11.2249
▁oust	-11.2254
▁happens	-11.2261
iling	-11.2275
▁measur	-11.2285
▁donations	-11.2292
▁eliminate	-11.2294
▁sacrifice	-11.2309
LG	-11.231
▁Ve	-11.2318
▁Gay	-11.2321
ink	-11.233
▁Rat	-11.2332
▁tumbl	-11.2336
ision	-11.2341
hu	-11.2341
▁treasure	-11.2342
▁Villa	-11.2354
▁Bo	-11.2355
Bay	-11.236
▁lit	-11.2365
▁ramp	-11.2367
▁IM	-11.2378
ansa	-11.2388
▁evacuate	-11.2392
▁hang	-11.2393
▁po	-11.2403
▁ripp	-11.2406
air	-11.2409
▁Polic	-11.2411
▁Poll	-11.2412
▁Tala	-11.2419
▁restructur	-11.2428
▁drunk	-11.2428
ider	-11.2432
▁Kam	-11.2432
▁extinct	-11.2433
▁thorough	-11.2437
▁Falluja	-11.2437
▁Margaret	-11.2437
▁Norwegian	-11.2437
▁explanation	-11.2437
▁hamper	-11.2437
▁instrument	-11.2437
▁mammal	-11.2437
▁surpass	-11.2437
▁Cultur	-11.2437
▁boast	-11.2437
▁fingerprint	-11.2437
▁oxygen	-11.2437
▁Tripoli	-11.2437
▁mammoth	-11.2437
▁Strait	-11.2437
▁visual	-11.2437
▁tumor	-11.2437
▁bathroom	-11.2437
▁graphic	-11.2437
▁proliferat	-11.2438
▁restart	-11.2438
▁equipp	-11.2438
▁pension	-11.2438
▁Bryan	-11.2439
akash	-11.2439
▁random	-11.2439
▁citizenship	-11.2439
▁pride	-11.244
▁Resident	-11.244
▁painful	-11.244
▁Auto	-11.2442
▁subsequent	-11.2443
▁pirac	-11.2447
▁Belgian	-11.2448
▁McCart	-11.2448
▁Hang	-11.2449
ronto	-11.245
▁pregnancy	-11.245
▁branches	-11.2452
▁Knight	-11.2452
▁survival	-11.2452
▁criticize	-11.2452
▁alter	-11.2453
▁achievement	-11.2454
▁Nick	-11.2455
▁Mitt	-11.2455
▁bath	-11.2456
▁astronomer	-11.2458
▁Cristian	-11.2459
▁pure	-11.246
▁belt	-11.2463
▁Eve	-11.2466
▁pact	-11.2468
▁woo	-11.247
▁freez	-11.2472
ura	-11.2485
abao	-11.2493
pl	-11.2499
▁Pres	-11.2501
▁mob	-11.2513
▁grade	-11.2514
judicial	-11.2517
▁supplier	-11.2519
▁arguments	-11.2525
▁emphasiz	-11.2531
▁topic	-11.2538
▁forecaster	-11.255
▁Warr	-11.257
▁Del	-11.2572
ington	-11.2577
ture	-11.2591
der	-11.2592
▁Child	-11.2592
▁passes	-11.2592
▁battles	-11.2605
▁alli	-11.2606
▁interviewed	-11.2608
▁Gus	-11.2609
mann	-11.2616
▁user	-11.2622
▁Bus	-11.2626
endo	-11.2631
children	-11.2631
NU	-11.2633
▁starts	-11.2655
via	-11.2659
tuck	-11.2659
▁rely	-11.2663
▁households	-11.2668
▁tap	-11.2675
▁Schn	-11.2679
▁victor	-11.2683
som	-11.2698
▁provision	-11.27
▁Briton	-11.2701
▁Ph	-11.2713
▁jewel	-11.2746
rmed	-11.2748
▁refer	-11.2753
▁digit	-11.2754
top	-11.2755
▁sack	-11.2756
▁Take	-11.2758
▁nin	-11.2761
▁embezzle	-11.2764
▁Southeast	-11.2765
▁hunter	-11.2765
▁Gas	-11.2766
▁monkey	-11.2767
▁adapt	-11.2767
▁Edward	-11.2769
▁triumph	-11.277
▁cyber	-11.2771
▁Okinawa	-11.2771
▁epidemic	-11.2771
▁sophisticat	-11.2771
▁tribunal	-11.2771
▁verify	-11.2771
▁silent	-11.2771
▁Mercedes	-11.2771
▁Tropic	-11.2771
▁warehouse	-11.2771
▁Mitchell	-11.2771
▁quell	-11.2771
▁prescription	-11.2771
▁Mercur	-11.2771
▁swallow	-11.2771
▁Convention	-11.2771
▁judgment	-11.2771
▁echo	-11.2771
▁textbook	-11.2771
llery	-11.2772
▁Bridge	-11.2772
▁implication	-11.2772
▁CIT	-11.2772
▁spell	-11.2773
▁utilit	-11.2773
▁Samarra	-11.2773
▁punch	-11.2773
▁retirement	-11.2775
▁spin	-11.2775
▁scream	-11.2776
▁outpost	-11.2777
▁merger	-11.2777
▁Fujimo	-11.2781
▁Tayyi	-11.2781
▁reluctant	-11.2783
▁tears	-11.2784
zhei	-11.2786
▁typhoon	-11.2787
▁screening	-11.2787
▁practical	-11.2788
▁Orang	-11.2789
▁plott	-11.2789
▁lifetime	-11.279
▁sideline	-11.2791
▁stabilize	-11.2792
▁nud	-11.2795
▁favorable	-11.2797
▁anybody	-11.28
▁belonging	-11.2802
▁Unit	-11.2805
▁inde	-11.2806
▁mo	-11.2807
▁surgeon	-11.2807
▁dominate	-11.2807
war	-11.2808
▁coat	-11.2813
like	-11.2813
▁Beatles	-11.2813
rbil	-11.2814
▁Matte	-11.2827
▁Hari	-11.2832
▁Special	-11.2832
▁grandm	-11.2836
obi	-11.2843
▁Rain	-11.2845
▁ray	-11.2857
hal	-11.2861
▁el	-11.2866
▁danc	-11.2878
▁Beta	-11.2885
▁deck	-11.2889
▁investments	-11.289
▁lesson	-11.2893
polis	-11.2897
▁hip	-11.2902
▁revolution	-11.2908
▁l	-11.2912
▁Sh	-11.2915
ane	-11.2917
tor	-11.2919
teria	-11.2924
▁mandate	-11.2925
care	-11.2931
ido	-11.2938
▁therap	-11.2941
onstruction	-11.2948
▁Swed	-11.2962
▁Anne	-11.3004
▁communicate	-11.3007
▁fines	-11.3011
▁Wild	-11.3017
▁Liber	-11.3018
▁captives	-11.302
bani	-11.3024
▁Neb	-11.3027
world	-11.3038
▁captiv	-11.3044
arns	-11.3057
▁Mc	-11.3057
▁Marc	-11.3079
ize	-11.3081
ud	-11.3084
▁settl	-11.3085
▁BB	-11.309
▁disarm	-11.3096
yphoon	-11.31
▁Rahm	-11.3103
▁billionaire	-11.3104
▁kidnap	-11.3104
▁Fernand	-11.3105
▁Victor	-11.3107
▁recogni	-11.3112
elecommunication	-11.3115
▁Travolta	-11.3115
▁anonymous	-11.3115
▁blind	-11.3115
▁fossil	-11.3115
▁pyramid	-11.3115
▁surplus	-11.3115
▁ultra	-11.3115
▁harbor	-11.3115
▁invitation	-11.3115
▁consent	-11.3115
▁convey	-11.3115
▁Nelson	-11.3115
▁Future	-11.3115
▁ceiling	-11.3115
▁grandfather	-11.3115
▁Lynch	-11.3115
▁steam	-11.3116
▁animated	-11.3116
▁tentative	-11.3116
▁disturb	-11.3116
▁hazard	-11.3116
▁Clear	-11.3116
▁shopper	-11.3116
▁chapter	-11.3116
▁atrocit	-11.3116
▁NFL	-11.3116
tanbu	-11.3116
▁laser	-11.3117
▁Lope	-11.3117
▁corporation	-11.3117
▁layoff	-11.3117
▁Carac	-11.3118
▁Fahr	-11.3118
▁steer	-11.3118
roid	-11.312
▁hydro	-11.3121
▁Croatia	-11.3121
▁Wang	-11.3121
▁disagreement	-11.3122
▁Fernando	-11.3125
▁Kwang	-11.3125
▁brush	-11.3126
▁Wazir	-11.3127
▁smart	-11.3128
▁shed	-11.3129
▁Susan	-11.3129
▁setback	-11.3131
▁Linda	-11.3132
▁petrol	-11.3133
▁presentation	-11.314
▁epic	-11.3141
▁purported	-11.3142
▁symptoms	-11.3144
▁assert	-11.3147
▁projection	-11.3156
▁snapp	-11.3161
▁expression	-11.3161
▁removal	-11.3163
▁Austrian	-11.3164
▁Share	-11.3164
pper	-11.3164
cantil	-11.3166
dwin	-11.3175
▁hearts	-11.3176
▁shouting	-11.3179
▁tips	-11.3185
▁ignore	-11.3186
▁lega	-11.319
▁stamp	-11.319
▁antibiotics	-11.3197
ough	-11.3198
▁shattered	-11.3204
▁symbolic	-11.3206
▁None	-11.3217
ang	-11.3229
▁gar	-11.3233
▁serv	-11.3234
nna	-11.3237
▁hijack	-11.324
▁stunning	-11.3242
▁Your	-11.325
▁shutt	-11.325
▁cla	-11.325
heng	-11.3252
▁Au	-11.3252
ob	-11.3267
ega	-11.327
ater	-11.3296
▁endorse	-11.3298
▁aging	-11.33
▁format	-11.3302
▁manipulat	-11.3317
▁Dave	-11.3319
▁Baq	-11.3321
▁Wat	-11.3325
▁Roug	-11.3325
▁exceed	-11.3329
ives	-11.3329
▁FA	-11.3336
enhei	-11.334
▁slid	-11.3352
lando	-11.3352
▁fl	-11.3353
▁stor	-11.3353
▁Com	-11.3358
▁cri	-11.3363
ima	-11.3364
eira	-11.3366
ui	-11.3367
▁Pus	-11.337
rmal	-11.3374
bank	-11.3374
▁feeding	-11.3377
nam	-11.3396
▁rating	-11.3403
▁discriminat	-11.3407
▁garden	-11.3424
▁coll	-11.3429
AS	-11.3431
ardar	-11.3432
▁stripp	-11.3432
▁transit	-11.3434
▁Khali	-11.3437
▁Ke	-11.3448
▁widow	-11.3449
new	-11.3453
▁kyu	-11.3456
▁thrill	-11.3456
▁inspect	-11.3457
▁premiere	-11.346
▁Fisher	-11.3466
▁addict	-11.3468
▁propagand	-11.3472
▁arson	-11.3472
bourne	-11.3472
▁Correspondent	-11.3472
▁Enterprise	-11.3472
▁Professor	-11.3472
▁Support	-11.3472
▁administrator	-11.3472
▁brothel	-11.3472
▁obstacle	-11.3472
▁pistol	-11.3472
▁Douglas	-11.3472
▁Entertain	-11.3473
▁Field	-11.3473
▁Sierra	-11.3473
▁conceal	-11.3473
▁mild	-11.3473
▁subsidiar	-11.3473
▁McDonald	-11.3473
▁Niger	-11.3473
▁diabet	-11.3473
▁physician	-11.3473
▁expedition	-11.3474
▁rattl	-11.3474
▁substitute	-11.3475
▁ferry	-11.3475
▁Aziz	-11.3475
▁conglomerate	-11.3475
▁archaeologist	-11.3475
▁uprising	-11.3476
▁Express	-11.3476
▁ownership	-11.3476
▁Next	-11.3476
▁knife	-11.3476
▁Phillip	-11.3477
▁hormone	-11.3478
▁Brother	-11.348
▁Greenland	-11.3481
▁Hassan	-11.3482
▁fortune	-11.3482
▁aggression	-11.3483
▁outlaw	-11.3485
▁chart	-11.3487
▁Twel	-11.3489
▁centre	-11.3491
ocol	-11.3493
▁scare	-11.3495
▁stemm	-11.3495
▁Voter	-11.3502
▁Cambodian	-11.3502
▁reasonable	-11.3503
▁arti	-11.3508
▁preserv	-11.3508
▁Tax	-11.3509
▁Nigerian	-11.3509
▁donor	-11.3517
▁Histor	-11.3519
▁Jacque	-11.3519
▁AK	-11.3527
▁Age	-11.3528
▁reli	-11.3528
▁conscious	-11.3533
▁asset	-11.3537
▁intensifi	-11.3541
▁Mali	-11.3543
mon	-11.3543
▁thus	-11.3545
▁Tin	-11.3547
▁lucky	-11.3553
▁kn	-11.3561
▁enhance	-11.3562
▁clay	-11.3565
nder	-11.3578
▁Than	-11.3591
▁slide	-11.3597
▁fed	-11.3598
▁Geit	-11.3612
▁Marie	-11.3619
PA	-11.3619
▁dense	-11.3625
▁Tut	-11.363
▁caucus	-11.363
▁quote	-11.3639
▁informal	-11.3644
ze	-11.3654
tha	-11.3656
▁characteriz	-11.3666
▁infiltrat	-11.3668
▁cooperat	-11.3669
dale	-11.3675
▁OK	-11.3675
▁assassinat	-11.3681
▁fa	-11.3683
lateral	-11.369
▁Wel	-11.3693
▁paralyz	-11.3699
▁seize	-11.3702
▁chas	-11.3704
▁troph	-11.3709
▁Gran	-11.3714
▁holder	-11.3727
▁advocate	-11.373
▁Carl	-11.3732
entral	-11.3733
ow	-11.3752
▁Oma	-11.3753
▁Jiang	-11.3758
▁hill	-11.376
Barad	-11.3761
▁please	-11.3762
▁roots	-11.3764
▁Ca	-11.3766
▁hate	-11.377
ean	-11.3778
mp	-11.3781
▁soft	-11.3783
▁hire	-11.3785
▁productiv	-11.3786
▁gambl	-11.3797
▁qualifi	-11.3797
▁propell	-11.38
aska	-11.3801
▁spots	-11.3804
▁inspire	-11.3808
▁AT	-11.381
▁programm	-11.3812
▁patien	-11.3816
▁smile	-11.3817
▁instruct	-11.3819
▁Mor	-11.3821
ki	-11.3826
▁Johnsto	-11.3829
▁donors	-11.3833
▁Columb	-11.3838
isease	-11.3842
▁FTSE	-11.3843
▁automobile	-11.3843
▁catastroph	-11.3843
▁condolence	-11.3843
▁gravit	-11.3843
▁mastermind	-11.3843
▁paparazz	-11.3843
▁plummet	-11.3843
▁reaffirm	-11.3843
▁homosexual	-11.3843
▁sibling	-11.3843
▁domain	-11.3843
▁nervous	-11.3843
▁refrain	-11.3843
▁impass	-11.3843
▁decree	-11.3843
▁Deutsch	-11.3843
▁mystery	-11.3843
▁relevan	-11.3843
▁throat	-11.3843
▁ankle	-11.3843
▁Student	-11.3843
▁Yankee	-11.3843
▁libert	-11.3843
▁Network	-11.3843
▁predominant	-11.3843
▁scatter	-11.3843
▁Bosnia	-11.3844
▁Nixon	-11.3844
▁thwart	-11.3844
▁flaw	-11.3844
▁pursuit	-11.3844
▁Road	-11.3844
▁dug	-11.3844
▁Half	-11.3845
▁faithful	-11.3845
▁milestone	-11.3845
▁Talk	-11.3846
▁trademark	-11.3846
▁flick	-11.3846
▁mediator	-11.3846
▁editorial	-11.3846
▁Jeong	-11.3847
▁Lenno	-11.3847
gow	-11.3847
▁minus	-11.3847
▁trash	-11.3847
▁buzz	-11.3847
▁constitute	-11.3847
▁Dream	-11.3847
▁transmission	-11.3847
▁Hour	-11.3848
▁weakness	-11.3848
ib	-11.3849
▁segment	-11.3849
▁Rick	-11.3849
▁desk	-11.3851
▁scenario	-11.3852
▁heighten	-11.3854
▁pants	-11.3854
▁scrapp	-11.3854
ervie	-11.3855
▁Sex	-11.3855
erial	-11.3857
▁dam	-11.3859
▁Matsu	-11.386
▁artificial	-11.3862
▁restraint	-11.3862
▁slush	-11.3863
▁cheaper	-11.3864
▁transparent	-11.3864
▁Spitz	-11.3867
H	-11.3868
▁inventor	-11.387
▁Christi	-11.3871
▁Bever	-11.3873
▁System	-11.3879
▁annually	-11.3882
▁entitl	-11.3882
▁Wy	-11.3884
▁Head	-11.3887
▁Harve	-11.3888
▁Never	-11.3889
▁kid	-11.389
▁Details	-11.389
je	-11.3895
▁Guin	-11.3901
una	-11.3906
▁Andre	-11.3907
▁amnes	-11.3921
▁manufacturer	-11.3922
teen	-11.3927
▁territories	-11.3928
▁Wool	-11.3931
▁shelves	-11.3934
▁Vi	-11.3935
▁demonstrat	-11.3937
▁Neil	-11.396
▁Em	-11.3964
▁jam	-11.3972
rity	-11.3976
▁frustrat	-11.398
kdo	-11.3981
▁Dian	-11.3981
lash	-11.3981
▁Java	-11.3985
▁pla	-11.3987
▁mor	-11.3991
allah	-11.3995
▁lecture	-11.4
▁bell	-11.4002
▁Gad	-11.4003
▁biolog	-11.4023
▁Sports	-11.4027
▁Electronics	-11.4027
▁Cart	-11.4028
va	-11.4034
▁Mon	-11.4034
▁Seren	-11.4042
▁Pan	-11.4045
▁Liv	-11.4048
kim	-11.4052
che	-11.4056
▁speculat	-11.4056
▁button	-11.4057
▁prostitut	-11.4057
▁filing	-11.4063
▁securit	-11.407
▁acquire	-11.4076
▁realiz	-11.4086
some	-11.409
▁stunn	-11.4097
▁congratulat	-11.4099
▁Capt	-11.41
▁shipments	-11.411
▁del	-11.4115
assam	-11.412
▁grounds	-11.4122
▁Get	-11.4131
▁Edit	-11.4137
intend	-11.415
hasa	-11.4154
ique	-11.4158
stock	-11.4164
▁ethic	-11.4164
▁Crow	-11.4169
▁skeptic	-11.4177
IC	-11.4181
ES	-11.4186
▁exten	-11.4187
▁hosts	-11.4193
▁slash	-11.4194
sley	-11.4197
ston	-11.4197
nshine	-11.4199
VI	-11.42
▁Kaz	-11.4206
vy	-11.4213
▁Tae	-11.4213
pice	-11.4214
▁intercept	-11.4219
▁swap	-11.4219
caust	-11.4221
▁Perin	-11.4222
▁Ram	-11.4222
▁possess	-11.4223
▁psycholog	-11.4225
▁consist	-11.4227
▁Unfortunate	-11.4227
▁Kuznetsov	-11.4227
▁Rhode	-11.4227
▁Starbuck	-11.4227
▁brilliant	-11.4227
▁discharge	-11.4227
▁franchise	-11.4227
▁marathon	-11.4227
▁mirror	-11.4227
▁nightclub	-11.4227
▁pioneer	-11.4227
▁Kazakhstan	-11.4227
▁oath	-11.4227
▁transcript	-11.4227
▁cousin	-11.4228
▁Knut	-11.4228
▁consortium	-11.4228
▁throne	-11.4228
▁nerve	-11.4228
▁crater	-11.4228
▁Standard	-11.4228
▁bride	-11.4228
suf	-11.4228
▁Room	-11.4229
▁drastic	-11.4229
vacu	-11.4229
▁Order	-11.4229
▁intensive	-11.4229
▁servant	-11.423
▁Holland	-11.423
▁modest	-11.423
▁Lawmaker	-11.4231
▁coerc	-11.4231
anda	-11.4231
▁Rita	-11.4232
▁Electora	-11.4232
▁decisive	-11.4232
▁Economist	-11.4232
▁Jaz	-11.4232
▁Father	-11.4233
per	-11.4233
▁attractive	-11.4234
▁mini	-11.4234
▁drought	-11.4236
ternet	-11.4236
▁isolation	-11.4237
▁massage	-11.4238
▁dad	-11.4239
▁pois	-11.4242
▁carmaker	-11.4244
▁Class	-11.4246
▁sensitivit	-11.4247
▁representation	-11.4248
▁Bart	-11.425
▁Antho	-11.4253
▁Gre	-11.4256
alaxy	-11.4257
BN	-11.4258
▁Gun	-11.426
▁reunit	-11.4264
▁formation	-11.4264
▁Bae	-11.4266
▁Penn	-11.4276
▁Silv	-11.4277
▁Win	-11.4281
▁pastor	-11.4285
▁cycle	-11.4285
▁Dominica	-11.4289
set	-11.4292
▁Scor	-11.4292
▁Lat	-11.4302
ife	-11.4306
ARS	-11.4306
▁joy	-11.431
▁bench	-11.4312
▁Hope	-11.4316
▁surviv	-11.4326
▁intens	-11.4327
▁uncertaint	-11.4329
▁Mikh	-11.4338
▁electrical	-11.4339
▁Yush	-11.4346
ate	-11.4355
▁chill	-11.4361
ut	-11.4363
▁Glen	-11.437
aritime	-11.4371
▁Ham	-11.4372
▁Mili	-11.438
▁char	-11.438
USS	-11.4386
▁bearing	-11.439
▁challenger	-11.4391
raw	-11.4396
iscal	-11.4398
▁Lev	-11.4402
▁knowing	-11.4404
▁strange	-11.4416
▁Oscars	-11.4421
▁Tr	-11.4422
▁motivat	-11.4427
▁dance	-11.443
▁pipe	-11.4431
onia	-11.4442
aker	-11.4459
▁consolidat	-11.4466
▁kiss	-11.4474
▁container	-11.4476
ber	-11.4481
▁collid	-11.4486
AN	-11.4496
ax	-11.4497
▁Amid	-11.4501
ema	-11.4506
▁Dar	-11.4513
▁Monta	-11.4515
▁Rail	-11.4519
uperior	-11.452
▁Dam	-11.4523
▁hits	-11.4525
disclos	-11.4533
siege	-11.4533
▁mines	-11.4536
cliff	-11.4545
aking	-11.4548
appropriate	-11.4549
▁contend	-11.4554
po	-11.4555
▁menu	-11.4562
kov	-11.4563
▁rehabilitati	-11.4571
▁smooth	-11.4572
▁emotion	-11.4572
ot	-11.4577
ature	-11.4579
▁Gi	-11.4579
rugg	-11.4595
shire	-11.4598
▁loose	-11.4604
▁Va	-11.4605
▁Environment	-11.4609
▁pile	-11.4616
oli	-11.4617
▁enact	-11.4621
▁contaminat	-11.4623
▁Midwest	-11.4627
▁Prophet	-11.4627
▁contingent	-11.4627
▁laureate	-11.4627
▁script	-11.4627
▁sufficient	-11.4627
▁tattoo	-11.4627
▁tremendous	-11.4627
▁vegetable	-11.4627
▁kilogram	-11.4627
▁lodge	-11.4627
▁streak	-11.4627
▁Cardinal	-11.4628
▁irregularities	-11.4628
▁overthrow	-11.4628
▁Temple	-11.4628
▁memories	-11.4628
▁premature	-11.4628
▁Muq	-11.4628
▁inhabit	-11.4628
▁Business	-11.4628
▁notorious	-11.4628
hill	-11.4628
▁tenure	-11.4628
▁downturn	-11.4628
▁tomato	-11.4628
▁excuse	-11.4628
▁Libby	-11.4628
▁swim	-11.4628
▁Campaign	-11.4628
▁Aborigin	-11.4628
▁evaluation	-11.4629
▁foster	-11.4629
▁ravag	-11.4629
▁pocket	-11.4629
▁irresponsible	-11.463
▁unchang	-11.463
bala	-11.463
▁sponsors	-11.463
▁Computer	-11.4631
▁Giant	-11.4631
▁Charl	-11.4631
v	-11.4632
▁brown	-11.4633
▁terrible	-11.4633
▁simultaneous	-11.4634
▁Lin	-11.4635
▁Grammy	-11.4637
▁smell	-11.4639
▁amend	-11.4639
▁exhibition	-11.4639
▁creative	-11.464
▁Sacr	-11.4643
▁Fall	-11.4644
▁diagnosed	-11.4644
▁Glor	-11.4645
▁Lance	-11.4645
▁lure	-11.4646
▁frontier	-11.4651
▁warship	-11.4651
ussel	-11.4654
▁Nair	-11.4654
zed	-11.4655
die	-11.4655
▁roar	-11.4655
▁accurate	-11.4656
▁lion	-11.4666
▁Vol	-11.4672
imbabwean	-11.4674
▁shame	-11.4675
▁Along	-11.4676
▁Ya	-11.4698
▁En	-11.4701
▁pole	-11.4701
▁Nori	-11.4707
ott	-11.4709
▁locate	-11.4709
coni	-11.471
▁developer	-11.4711
▁Tal	-11.4718
ility	-11.4724
ker	-11.4734
▁Kle	-11.4739
▁Boris	-11.4751
▁rag	-11.4762
▁ethan	-11.4764
▁Swa	-11.4772
▁Rash	-11.4774
▁truc	-11.4774
nga	-11.4774
▁Er	-11.478
▁lad	-11.4784
▁Vers	-11.4789
▁Cooperati	-11.4795
oster	-11.4798
▁farms	-11.4799
▁Julie	-11.4809
ogge	-11.481
▁retaliati	-11.481
▁meals	-11.4812
▁Ex	-11.4813
▁importan	-11.4823
▁slum	-11.4826
▁Ross	-11.4827
EM	-11.4831
▁joon	-11.4831
▁Dann	-11.484
onica	-11.4849
▁steadi	-11.485
I	-11.4854
ris	-11.4854
▁choices	-11.4858
fat	-11.4863
▁spare	-11.4866
▁outlets	-11.4868
vich	-11.4868
▁sighting	-11.4875
▁optimis	-11.488
▁disperse	-11.4882
▁tribes	-11.4887
▁KAB	-11.4901
hwan	-11.4912
▁Hol	-11.4918
▁bother	-11.492
ge	-11.492
▁Roy	-11.4926
R	-11.4928
▁Travel	-11.4938
power	-11.4953
▁Balti	-11.4954
▁Arn	-11.4954
▁observe	-11.4957
cha	-11.4957
▁li	-11.4959
apped	-11.4961
▁hack	-11.4965
strong	-11.4966
▁advise	-11.497
▁Nei	-11.4972
▁Days	-11.4976
▁Browne	-11.4979
▁choos	-11.4985
▁dignit	-11.4992
▁observ	-11.4995
▁Plan	-11.4997
hi	-11.5001
▁Ar	-11.5009
ket	-11.5011
▁Ras	-11.5016
▁Patro	-11.5019
▁audit	-11.5027
▁construct	-11.5028
▁neutral	-11.5032
▁terra	-11.5032
▁Night	-11.5032
▁acquitt	-11.5032
▁Fa	-11.5035
▁grim	-11.5043
▁slot	-11.5043
SCO	-11.5044
▁BMW	-11.5044
▁Lincoln	-11.5044
▁Organizer	-11.5044
▁bizarre	-11.5044
▁certificate	-11.5044
▁commodit	-11.5044
▁gadget	-11.5044
▁genuine	-11.5044
▁junior	-11.5044
▁peanut	-11.5044
▁reckless	-11.5044
▁satisfie	-11.5044
▁Kashmir	-11.5044
▁Negro	-11.5044
▁Brig	-11.5044
▁Conservation	-11.5045
▁seizure	-11.5045
▁introduction	-11.5045
▁ivor	-11.5045
▁profound	-11.5045
▁Maoist	-11.5045
▁Tamil	-11.5045
▁Medicine	-11.5045
▁hatred	-11.5046
▁Ismail	-11.5046
▁bonuses	-11.5046
▁psychologist	-11.5046
▁Harper	-11.5046
▁Venus	-11.5046
▁respirator	-11.5047
▁Iceland	-11.5047
▁Jamie	-11.5047
▁signature	-11.5047
▁Hallow	-11.5047
▁confidential	-11.5048
▁Leonard	-11.5049
▁Laura	-11.505
▁collective	-11.505
▁Kwon	-11.505
▁drain	-11.505
▁assign	-11.5051
▁Garden	-11.5052
▁dock	-11.5053
▁strapp	-11.5053
▁sensor	-11.5053
▁mechanical	-11.5054
▁blogger	-11.5055
adilla	-11.5058
▁keen	-11.506
▁difficulty	-11.506
▁Laurea	-11.5062
▁Oak	-11.5062
▁pan	-11.5063
▁Hawa	-11.5063
▁Chos	-11.5064
active	-11.5066
▁tube	-11.5066
▁emerge	-11.5067
▁Philli	-11.5068
▁Actor	-11.5069
OM	-11.507
▁Bang	-11.5072
▁Aust	-11.5077
▁alleg	-11.5082
▁stud	-11.5085
▁suits	-11.5085
▁Barry	-11.509
▁bold	-11.5107
▁passion	-11.5118
▁tooth	-11.512
▁dire	-11.5121
▁blessing	-11.5126
▁comic	-11.5129
▁Barak	-11.5139
▁scan	-11.5139
▁fin	-11.5152
▁Doo	-11.5153
▁foe	-11.5154
▁Hond	-11.5155
▁sincere	-11.516
▁improvement	-11.5161
▁vers	-11.5165
▁crying	-11.5168
▁Full	-11.5186
▁networking	-11.5186
ule	-11.5195
▁surveys	-11.5201
pa	-11.5206
ou	-11.5213
▁sequence	-11.5215
▁Rece	-11.5219
▁sat	-11.524
ure	-11.5247
▁dismiss	-11.5255
▁feelings	-11.5256
▁Bil	-11.5263
igh	-11.5265
let	-11.527
gar	-11.5271
ock	-11.5284
▁bro	-11.5285
▁inaugura	-11.5287
▁Tri	-11.5293
▁folks	-11.5299
▁rig	-11.5301
▁mess	-11.531
ida	-11.531
bound	-11.5318
vian	-11.5332
aid	-11.5336
▁ROM	-11.5347
izing	-11.5347
▁Serge	-11.5349
▁poses	-11.5357
▁enhanc	-11.5361
amba	-11.5379
▁heal	-11.5381
▁permitt	-11.5382
lim	-11.5385
▁doubl	-11.5386
▁Ramad	-11.5386
ians	-11.5387
▁orchestra	-11.5392
▁Ven	-11.5399
▁ranch	-11.5399
poul	-11.5403
gu	-11.541
▁Ida	-11.5432
▁spa	-11.5433
bo	-11.5434
vo	-11.5435
▁vigil	-11.5436
▁micro	-11.5436
irk	-11.5441
▁deserve	-11.5446
ast	-11.5454
▁Estonia	-11.5455
jo	-11.5463
▁Bi	-11.5466
▁volcan	-11.5469
▁Nah	-11.5471
hip	-11.5472
▁Camero	-11.5472
▁bloc	-11.5476
▁coron	-11.5477
▁excess	-11.5477
uki	-11.5479
▁Arroyo	-11.5479
▁Maradona	-11.5479
▁SUV	-11.5479
▁applicant	-11.5479
▁iPod	-11.5479
▁ingredient	-11.5479
▁romance	-11.5479
▁Guild	-11.5479
▁Previous	-11.5479
▁monument	-11.5479
▁prefecture	-11.5479
▁stomach	-11.5479
▁intellectual	-11.5479
▁Cecil	-11.5479
▁taint	-11.5479
▁hammer	-11.5479
▁lugg	-11.5479
▁premium	-11.5479
▁lyric	-11.5479
▁Alfred	-11.5479
▁Junichi	-11.5479
▁definition	-11.5479
▁Electric	-11.5479
▁hurl	-11.5479
▁mysterious	-11.5479
▁breast	-11.5479
▁milk	-11.5479
▁array	-11.5479
▁chunk	-11.5479
▁linger	-11.548
▁Frontier	-11.548
▁absent	-11.548
▁humor	-11.548
▁cancellation	-11.5481
▁psychological	-11.5481
▁orange	-11.5482
▁dorm	-11.5482
▁pageant	-11.5482
▁Investment	-11.5482
▁contra	-11.5482
▁concentration	-11.5482
▁injection	-11.5483
▁delight	-11.5483
▁Kh	-11.5484
▁consultant	-11.5484
▁slugg	-11.5484
▁powder	-11.5484
▁telecom	-11.5484
▁loom	-11.5485
▁medi	-11.5485
▁deem	-11.5485
nati	-11.5485
▁Movie	-11.5486
▁cha	-11.5486
▁Cinc	-11.5489
▁dual	-11.549
▁drunken	-11.5491
▁HD	-11.5491
DF	-11.5493
▁spurr	-11.5493
▁Bird	-11.5493
▁Bulgarian	-11.5494
▁impression	-11.5494
▁Area	-11.5495
▁Tens	-11.5496
▁shadow	-11.5496
▁cage	-11.5498
▁anim	-11.5505
▁adequate	-11.5509
▁Nasr	-11.551
ini	-11.5511
chum	-11.5512
du	-11.5515
▁measurement	-11.5518
iacom	-11.5523
▁LP	-11.5525
pont	-11.5527
▁slain	-11.5528
▁Nint	-11.553
▁popp	-11.5532
▁exclud	-11.5535
cheong	-11.5537
sif	-11.5537
▁watcher	-11.5538
idel	-11.5541
gan	-11.5545
▁Ber	-11.5546
▁obes	-11.5548
▁Fear	-11.5551
▁humiliat	-11.5554
▁commemorate	-11.5556
arq	-11.5556
▁soul	-11.5557
aft	-11.556
▁lieutenant	-11.5566
▁protein	-11.5566
▁toddler	-11.5569
▁combine	-11.557
▁j	-11.5574
▁flexib	-11.5574
▁arrange	-11.5576
iz	-11.558
▁Gib	-11.558
▁fam	-11.5583
▁Sach	-11.5587
▁KT	-11.5588
▁Raj	-11.5591
▁Protecti	-11.5592
▁tipp	-11.5595
▁tone	-11.56
▁gangs	-11.5602
▁chips	-11.562
▁rever	-11.5623
ves	-11.5634
ji	-11.5634
▁genes	-11.5637
▁Fin	-11.5641
zel	-11.5649
round	-11.5652
▁Pole	-11.5652
▁employers	-11.5656
▁cleaner	-11.5658
▁Osa	-11.566
▁Centre	-11.5664
▁tense	-11.5665
▁Mayb	-11.5665
▁Lion	-11.5678
▁Town	-11.568
▁Dama	-11.5688
▁Gall	-11.5708
▁Pre	-11.571
▁item	-11.5711
▁Karl	-11.5712
▁compil	-11.5718
om	-11.5727
▁outline	-11.5728
ffen	-11.5729
▁Cla	-11.5732
ddy	-11.5736
▁shocking	-11.574
▁fitt	-11.5741
pei	-11.5741
▁roles	-11.5747
rin	-11.5758
▁Ana	-11.5761
▁Bide	-11.5761
▁cub	-11.5767
nlike	-11.5773
▁bodyguards	-11.5779
etic	-11.5779
▁Os	-11.578
scus	-11.5781
hand	-11.5782
attle	-11.5787
lit	-11.5789
▁Nash	-11.579
PI	-11.5797
AC	-11.5797
ual	-11.5801
conscious	-11.5806
▁repli	-11.5818
▁dies	-11.5818
▁judicia	-11.5821
▁Bull	-11.5826
place	-11.5832
▁chase	-11.5851
▁climber	-11.5861
about	-11.5862
▁reign	-11.5867
▁Bibl	-11.5871
▁Bor	-11.5874
▁toppl	-11.5874
anuel	-11.5878
▁contents	-11.5883
▁Ju	-11.5885
▁lean	-11.5885
▁separat	-11.5885
▁Fuku	-11.5895
▁ratio	-11.5908
▁Guatemala	-11.5908
▁Romania	-11.5912
▁LA	-11.5912
▁impressi	-11.5915
▁drag	-11.5916
▁accomplish	-11.5927
▁recess	-11.593
▁academ	-11.593
▁drum	-11.593
▁Cast	-11.5931
▁archaeolog	-11.5933
▁deport	-11.5933
▁fantas	-11.5933
▁courage	-11.5933
▁Climate	-11.5933
▁Shepherd	-11.5933
▁illicit	-11.5933
▁negligen	-11.5933
▁patriot	-11.5933
▁portrait	-11.5933
▁recount	-11.5933
▁umbrella	-11.5933
▁Sumatra	-11.5933
▁casino	-11.5933
▁depriv	-11.5933
▁diminish	-11.5933
▁jirga	-11.5933
▁harass	-11.5934
▁vault	-11.5934
▁provocative	-11.5934
▁competitor	-11.5934
▁misdemeanor	-11.5934
▁Initial	-11.5934
▁logistic	-11.5934
▁grain	-11.5934
▁squid	-11.5934
▁Through	-11.5934
▁Greenspan	-11.5934
▁chronic	-11.5934
furt	-11.5934
▁sugar	-11.5934
▁Solomon	-11.5934
▁ridicul	-11.5934
▁Orthodox	-11.5934
▁unhapp	-11.5934
▁sheep	-11.5934
▁derail	-11.5934
▁Holding	-11.5934
▁Wonder	-11.5935
▁Further	-11.5935
▁dependent	-11.5935
▁Buff	-11.5935
▁chan	-11.5935
▁contentious	-11.5935
▁silver	-11.5936
▁informant	-11.5936
▁hover	-11.5936
▁Letter	-11.5936
▁Regional	-11.5936
▁Cairo	-11.5938
▁Grace	-11.5938
▁Rico	-11.5938
▁Pearl	-11.5939
▁frustration	-11.5939
▁Trust	-11.5939
▁Ukrainian	-11.5939
▁Sharon	-11.594
ww	-11.594
▁Fre	-11.594
▁Where	-11.594
▁Violen	-11.5941
▁McCon	-11.5941
▁robotic	-11.5942
▁stunt	-11.5942
▁Flin	-11.5943
▁chess	-11.5945
▁detective	-11.5945
▁Yale	-11.5945
▁interrupt	-11.5946
▁bulk	-11.5947
▁contestant	-11.5947
▁playoff	-11.5949
our	-11.5949
▁Few	-11.5949
▁showdown	-11.595
▁Hick	-11.5954
▁castle	-11.5955
oell	-11.5956
▁disappointment	-11.5957
▁acquisition	-11.5957
▁rack	-11.5959
▁Neal	-11.5961
▁Ferrer	-11.5962
▁Santi	-11.5962
▁batch	-11.5963
▁Wii	-11.5963
▁beache	-11.5963
▁Collins	-11.5965
▁Whe	-11.5969
▁instruction	-11.597
▁Hun	-11.597
▁indoor	-11.5971
▁barely	-11.5972
▁economically	-11.5979
▁rejection	-11.598
▁Bran	-11.5983
▁Leone	-11.5988
▁glimpse	-11.5988
▁heir	-11.5989
▁Tian	-11.5992
eera	-11.5992
▁gifts	-11.5995
▁Won	-11.5997
▁conceded	-11.6
▁Ashle	-11.6001
cent	-11.6005
▁Judiciar	-11.6007
▁Citi	-11.6007
▁gorillas	-11.6009
unk	-11.6009
fo	-11.6011
▁procession	-11.6016
confirmed	-11.6023
▁semi	-11.6025
▁filling	-11.6027
▁ethical	-11.6032
etary	-11.6033
▁Hans	-11.6034
▁Stalinis	-11.6036
titude	-11.6043
▁SK	-11.6045
▁MI	-11.6045
▁Goh	-11.6056
▁Jet	-11.6061
▁Baby	-11.6062
RE	-11.6063
▁Hil	-11.6063
▁horse	-11.6069
▁fi	-11.6081
M	-11.6083
pton	-11.6084
▁Sid	-11.6084
▁compos	-11.6096
▁tours	-11.6098
▁bang	-11.6104
▁allege	-11.6108
▁bo	-11.6109
▁provok	-11.6113
▁outfit	-11.6114
▁distan	-11.6115
apping	-11.6115
▁Polls	-11.6122
▁sooner	-11.6124
▁arrangements	-11.6128
▁inner	-11.6129
▁poster	-11.6142
pping	-11.6153
▁Bin	-11.6153
HI	-11.6154
▁distribute	-11.6154
▁sketch	-11.6157
▁Thir	-11.6166
▁revolutionar	-11.6166
illa	-11.6169
tle	-11.6193
ndra	-11.6197
▁v	-11.6198
ello	-11.62
asha	-11.6201
▁extremis	-11.6209
stice	-11.6222
▁Lan	-11.6232
▁memorab	-11.6234
▁marr	-11.6235
▁define	-11.6235
▁Liu	-11.6238
▁retrieve	-11.6239
▁wan	-11.6255
▁Net	-11.6266
part	-11.6272
▁Fal	-11.6281
▁files	-11.6284
▁uncertain	-11.6285
▁Bobb	-11.6286
▁seller	-11.6287
▁Bol	-11.6287
▁holed	-11.6288
▁div	-11.629
ology	-11.6293
▁Kyu	-11.6297
▁Front	-11.6298
uan	-11.63
uc	-11.6303
▁Intel	-11.6311
amine	-11.6312
▁Pun	-11.6319
play	-11.6319
specifi	-11.6326
▁devot	-11.6326
Tun	-11.6327
folk	-11.633
Station	-11.6331
shift	-11.6332
decided	-11.6332
▁dig	-11.6335
bon	-11.6337
uda	-11.6337
kun	-11.634
oming	-11.6341
▁occasional	-11.6346
▁staffer	-11.6364
itchen	-11.6365
▁BE	-11.6366
tarian	-11.6371
ywhere	-11.6373
ped	-11.6378
▁transparen	-11.6382
▁Ethiopia	-11.6387
▁Thi	-11.6387
▁reliev	-11.6388
▁valid	-11.6388
▁cry	-11.6396
▁scrutin	-11.6397
▁grip	-11.6403
▁contradict	-11.6405
sch	-11.6405
▁extract	-11.6408
▁column	-11.6408
▁psychiatr	-11.6409
ategory	-11.6409
▁PF	-11.641
▁abrupt	-11.641
▁Concern	-11.641
▁Himalaya	-11.641
▁Minneapolis	-11.641
▁artifact	-11.641
▁brigade	-11.641
▁cosmonaut	-11.641
▁efficienc	-11.641
▁enterprise	-11.641
▁fragil	-11.641
▁harvest	-11.641
▁inflict	-11.641
▁martyr	-11.641
▁tycoon	-11.641
▁Owen	-11.641
▁anxious	-11.641
▁anxiet	-11.641
▁Diamond	-11.641
▁chocolate	-11.641
▁mislead	-11.641
▁disgrace	-11.641
▁valley	-11.641
▁Ledger	-11.641
▁Hispanic	-11.641
▁persistent	-11.641
▁perception	-11.641
▁frog	-11.641
▁Keith	-11.641
▁Shwe	-11.641
▁flock	-11.641
▁garb	-11.641
▁veterinarian	-11.641
▁click	-11.641
▁donkey	-11.641
▁Blake	-11.641
▁Levinson	-11.6411
▁workforce	-11.6411
otti	-11.6411
▁Survivor	-11.6411
▁JER	-11.6411
▁cluster	-11.6411
▁timing	-11.6411
▁frank	-11.6411
▁reception	-11.6411
▁Medit	-11.6411
▁verification	-11.6411
▁dictatorship	-11.6411
pollo	-11.6411
▁Basque	-11.6412
▁fantastic	-11.6412
▁CO	-11.6412
▁Telecom	-11.6412
▁salarie	-11.6412
▁nail	-11.6412
▁coordinate	-11.6412
▁deportation	-11.6413
▁interaction	-11.6413
▁rover	-11.6413
▁pink	-11.6414
▁depos	-11.6414
▁overweight	-11.6415
▁Hunter	-11.6415
▁cabin	-11.6417
▁logo	-11.6417
▁cab	-11.6417
ero	-11.6417
▁Keat	-11.6419
▁Storm	-11.6419
▁Minute	-11.642
▁adventure	-11.642
▁glow	-11.642
▁Milk	-11.642
▁creator	-11.6421
▁soften	-11.6422
▁precise	-11.6422
▁monkeys	-11.6422
▁bread	-11.6423
▁behead	-11.6425
▁yell	-11.6425
▁facial	-11.6427
▁ugl	-11.6428
rio	-11.6429
▁fur	-11.6429
oka	-11.643
▁costume	-11.6431
▁Brigade	-11.6431
▁Given	-11.6432
jean	-11.6432
▁Bern	-11.6433
▁Monte	-11.6433
rbach	-11.6434
▁Trad	-11.6436
▁preferr	-11.6438
▁fold	-11.6441
▁ash	-11.6442
▁Pic	-11.6448
tact	-11.6448
▁utter	-11.6451
▁Thu	-11.6451
▁AU	-11.6452
▁Kara	-11.6453
▁tender	-11.6454
▁Buck	-11.6455
▁Vanco	-11.6464
aiss	-11.6464
▁helpful	-11.6464
▁establishment	-11.6465
unch	-11.6465
▁Interfa	-11.6465
▁rear	-11.6468
▁qualifier	-11.6469
▁Lak	-11.6478
▁organic	-11.6478
▁wip	-11.6479
▁eve	-11.648
maker	-11.648
▁portal	-11.6484
▁readers	-11.6484
NG	-11.6484
▁espi	-11.6486
▁Ah	-11.6488
▁architect	-11.6488
▁Lu	-11.6493
hen	-11.6495
▁universal	-11.6497
▁spike	-11.6498
▁sec	-11.6499
▁convene	-11.6502
▁cop	-11.6504
▁Lucas	-11.6504
▁tortur	-11.6504
▁airliner	-11.6505
▁aquarium	-11.6505
▁orchestrat	-11.6506
CC	-11.6514
▁ears	-11.6515
▁Tar	-11.6518
▁Jimm	-11.6518
tery	-11.6533
▁supervis	-11.6536
▁smoker	-11.6541
▁Hart	-11.6546
▁beam	-11.6552
▁triple	-11.6577
▁nurs	-11.6578
▁addresses	-11.6579
▁layer	-11.6582
▁Burr	-11.6587
▁Say	-11.6587
▁Claren	-11.659
▁explor	-11.6592
▁Bat	-11.6593
▁Hot	-11.6593
erran	-11.6596
▁assurance	-11.6601
▁acquir	-11.6601
▁counterterroris	-11.6602
▁Cit	-11.6604
▁captive	-11.6605
born	-11.6606
▁Daw	-11.6606
▁Mat	-11.6612
ees	-11.6616
▁Aid	-11.6617
▁Ax	-11.6618
▁highlights	-11.6621
L	-11.6622
▁underst	-11.6623
USAL	-11.6631
▁Natur	-11.6631
▁cannon	-11.6632
▁Haniy	-11.6639
▁mari	-11.6641
ologist	-11.6641
▁collaps	-11.6643
▁Mot	-11.6646
▁shipment	-11.665
terior	-11.6652
aware	-11.6654
▁org	-11.6656
▁interesting	-11.6657
▁Dell	-11.6659
▁resemble	-11.6663
eum	-11.6664
▁planner	-11.668
▁riders	-11.6681
▁Alg	-11.6685
ouse	-11.6694
▁intimidat	-11.6703
▁scholars	-11.6704
hima	-11.6706
atar	-11.6721
break	-11.6722
▁Rud	-11.6726
▁dem	-11.673
iste	-11.6734
▁rider	-11.6737
▁Pola	-11.6738
▁distinct	-11.6741
ski	-11.6747
▁lots	-11.6755
▁Garri	-11.676
▁Hui	-11.6765
WC	-11.6766
▁bust	-11.6767
▁Val	-11.6767
▁finalize	-11.6772
▁Carte	-11.678
▁Spe	-11.678
▁donat	-11.6785
V	-11.6785
▁verifi	-11.6791
cular	-11.6793
▁accelerate	-11.6801
shed	-11.6806
G	-11.6809
▁seeming	-11.681
▁analyz	-11.6815
▁necessar	-11.6822
▁luck	-11.6822
▁Griffi	-11.6823
ochi	-11.6829
▁pave	-11.6831
week	-11.6832
ilia	-11.6833
wealth	-11.6835
▁stated	-11.6838
▁wings	-11.6848
rank	-11.685
▁applau	-11.6857
▁Fight	-11.6858
planes	-11.6862
will	-11.6868
▁forth	-11.6871
ssif	-11.6873
lone	-11.6877
sian	-11.6882
ain	-11.6884
▁bump	-11.6886
▁Algeria	-11.6887
ua	-11.6887
▁Fan	-11.6888
▁authentic	-11.6892
▁pond	-11.6895
▁categori	-11.6899
▁Gibb	-11.6902
lene	-11.6903
yman	-11.6905
▁inject	-11.6905
iora	-11.6906
▁ideolog	-11.6908
▁innocen	-11.6908
▁ranger	-11.6908
▁guitar	-11.6908
omposite	-11.6909
▁unilateral	-11.691
▁Avenue	-11.691
▁Exxon	-11.691
▁Passenger	-11.691
▁Refuge	-11.691
▁barricade	-11.691
▁calendar	-11.691
▁historian	-11.691
▁implant	-11.691
▁prototype	-11.691
▁stalemate	-11.691
▁wheelchair	-11.691
▁Retail	-11.691
▁intensify	-11.691
▁curator	-11.691
▁evolv	-11.691
▁wrist	-11.691
▁engulf	-11.691
▁Abraham	-11.691
▁pretend	-11.691
▁Initiative	-11.691
▁fiber	-11.691
▁Emanuel	-11.691
▁Jihad	-11.691
▁craz	-11.691
▁pharmaceutical	-11.691
▁liais	-11.691
▁frontrunner	-11.691
▁spouse	-11.691
▁Atleti	-11.691
▁keynote	-11.691
▁calorie	-11.6911
▁reminisc	-11.6911
▁bicycle	-11.6911
▁Franco	-11.6911
▁Blitz	-11.6911
▁grace	-11.6911
▁vocal	-11.6911
▁dwindl	-11.6912
▁Evans	-11.6912
▁wield	-11.6912
▁revelation	-11.6912
humi	-11.6912
lie	-11.6912
▁snack	-11.6913
▁Claus	-11.6914
▁headache	-11.6914
▁reinforcement	-11.6914
▁honey	-11.6915
▁Djo	-11.6916
▁superb	-11.6916
▁cordon	-11.6917
▁Napoli	-11.6917
▁bowl	-11.6917
▁stockpile	-11.6918
▁overlook	-11.692
▁im	-11.6922
▁auditor	-11.6924
▁Look	-11.6925
▁acceptance	-11.6925
▁Jean	-11.6925
▁rift	-11.6925
ancy	-11.6926
▁Sand	-11.6927
▁bleed	-11.6927
▁spann	-11.6928
tting	-11.6928
▁offend	-11.6928
leet	-11.6929
▁nationalist	-11.6929
ork	-11.693
▁Micke	-11.6936
▁Bros	-11.6936
▁Border	-11.6937
▁Helen	-11.694
▁du	-11.694
lary	-11.694
▁performer	-11.694
▁noise	-11.6941
▁Natural	-11.6947
holm	-11.6948
▁priorities	-11.6949
▁sprint	-11.695
▁Mong	-11.6951
▁addiction	-11.6951
nprofit	-11.6953
▁vest	-11.6954
▁Vincen	-11.6955
GS	-11.6955
▁composer	-11.6961
▁concentrat	-11.6961
▁applaud	-11.6963
▁supplement	-11.6963
▁rotat	-11.6963
▁conscien	-11.6964
▁inspiration	-11.6964
▁Yea	-11.6967
▁Soon	-11.6971
▁salt	-11.6979
▁apple	-11.6983
▁casualt	-11.6989
▁dealer	-11.6992
▁liver	-11.6993
▁stumbl	-11.6995
▁Player	-11.6995
ethane	-11.6997
▁Ferrar	-11.7
▁Hae	-11.7001
▁Pier	-11.7002
▁pub	-11.7007
elro	-11.7008
ab	-11.701
▁Russ	-11.7017
▁Sund	-11.7019
▁Maha	-11.7024
tive	-11.7024
▁der	-11.7026
▁owe	-11.7032
▁Cher	-11.7037
ging	-11.7037
▁Mour	-11.7038
ore	-11.7044
▁Chan	-11.7046
▁Arabian	-11.7049
▁winger	-11.705
hmer	-11.7054
▁hi	-11.7062
ueens	-11.7063
▁homicide	-11.7064
▁ja	-11.7068
▁upgrade	-11.7069
▁guarded	-11.7073
▁lane	-11.7073
▁educat	-11.7078
▁bidd	-11.7083
hong	-11.7083
iffe	-11.7083
▁bodyguard	-11.7084
▁burg	-11.7087
▁swear	-11.7088
tano	-11.7089
nts	-11.7092
▁flare	-11.7092
▁pirate	-11.7092
▁ignit	-11.7093
▁Rosen	-11.7094
▁Gil	-11.7094
▁Hak	-11.7099
▁Cel	-11.7101
▁Any	-11.7103
▁trailer	-11.7103
▁retire	-11.7118
▁extremist	-11.7119
att	-11.712
▁Ann	-11.712
▁Lah	-11.7124
▁Chase	-11.7133
▁Work	-11.7136
oi	-11.7145
▁designate	-11.7147
▁explaining	-11.7147
▁rings	-11.7149
▁Poo	-11.7152
cade	-11.7153
▁hostilit	-11.7154
soo	-11.7155
▁Kay	-11.7165
▁scratch	-11.7166
ito	-11.7168
▁troubles	-11.7168
▁Fly	-11.717
▁tapes	-11.7176
chenk	-11.7178
▁cl	-11.718
lan	-11.7189
bel	-11.7202
▁inhal	-11.7203
lf	-11.7215
▁exhaust	-11.7217
▁Bak	-11.7225
ague	-11.7227
▁Christin	-11.7229
▁lover	-11.723
▁Kil	-11.7232
cute	-11.7249
adley	-11.7254
uds	-11.726
▁Sau	-11.727
von	-11.7273
▁chased	-11.7273
action	-11.7275
▁Gol	-11.7276
▁outlin	-11.7277
rell	-11.729
▁horses	-11.7296
▁overwhelm	-11.7297
▁Jos	-11.7303
gang	-11.7319
ndrome	-11.7332
▁Julia	-11.7346
▁substanti	-11.7347
▁ensur	-11.7351
▁Roj	-11.7353
grid	-11.7354
▁Mu	-11.7356
point	-11.7357
pi	-11.7363
verything	-11.7364
juan	-11.7365
spoke	-11.7366
▁interfer	-11.7367
▁Troop	-11.7368
scope	-11.7374
▁cope	-11.7375
▁absolute	-11.7381
ama	-11.7392
▁Arsen	-11.7395
▁ward	-11.7397
▁Nam	-11.74
made	-11.7401
▁End	-11.7401
▁prizes	-11.7401
▁Multi	-11.7402
▁lea	-11.7405
hold	-11.7406
▁Independen	-11.7408
▁Laute	-11.7409
▁significan	-11.7409
▁pod	-11.7409
▁restrain	-11.7411
▁Jamaica	-11.7412
arov	-11.7413
▁Beck	-11.7415
▁shoulders	-11.7415
▁DA	-11.7417
▁stir	-11.7419
▁rod	-11.7422
▁Burk	-11.7426
▁debat	-11.743
▁Social	-11.7434
oriented	-11.7436
▁unauthori	-11.7436
▁unlawful	-11.7436
▁Gorbachev	-11.7436
▁Newcastle	-11.7436
▁Rwanda	-11.7436
▁clerk	-11.7436
▁convincing	-11.7436
▁embargo	-11.7436
▁evasion	-11.7436
▁juvenile	-11.7436
▁mechanism	-11.7436
▁perspective	-11.7436
▁robust	-11.7436
▁solving	-11.7436
▁Spiel	-11.7436
▁eacute	-11.7436
▁federation	-11.7436
▁glad	-11.7436
▁gossip	-11.7436
▁spree	-11.7436
▁steroid	-11.7436
▁Jacob	-11.7436
▁bishop	-11.7436
▁spiral	-11.7436
▁biofuel	-11.7436
▁cheat	-11.7436
▁blunt	-11.7436
▁proclaim	-11.7436
athedral	-11.7436
▁Yellow	-11.7436
▁Picture	-11.7436
▁Flood	-11.7436
▁cinema	-11.7436
▁Fitzg	-11.7436
▁oversight	-11.7436
▁dentist	-11.7436
▁charisma	-11.7436
▁database	-11.7436
▁railroad	-11.7436
▁Laborator	-11.7436
▁UFO	-11.7436
▁Lugo	-11.7436
▁Malawi	-11.7437
▁potato	-11.7437
▁crippl	-11.7437
▁comparison	-11.7437
▁differ	-11.7437
▁plume	-11.7437
▁DEL	-11.7438
▁collar	-11.7438
▁gust	-11.7438
▁cough	-11.7438
▁constructive	-11.7438
▁maneuver	-11.7438
▁cartel	-11.7439
▁Chadian	-11.7439
▁Lawyer	-11.744
▁bias	-11.744
▁exploration	-11.744
▁unbeat	-11.744
▁Kasp	-11.7442
▁Vick	-11.7442
▁barrage	-11.7442
▁Roll	-11.7442
▁Supervisor	-11.7443
rative	-11.7443
▁coastline	-11.7443
▁downplay	-11.7443
▁handgun	-11.7444
▁Guardian	-11.7446
▁prediction	-11.7447
▁Costa	-11.7448
▁Aug	-11.7449
▁hyper	-11.745
▁soap	-11.745
▁tag	-11.7451
▁privilege	-11.7451
▁Winston	-11.7452
▁warhead	-11.7453
▁bubble	-11.7454
▁Visit	-11.7457
▁Andrea	-11.7458
▁policymaker	-11.7459
▁fier	-11.7461
▁Carla	-11.7464
▁equaliz	-11.7465
uous	-11.7472
▁tail	-11.7473
aretaker	-11.7478
hof	-11.7483
▁trauma	-11.7486
rum	-11.7488
▁mal	-11.7489
ison	-11.7491
▁buyout	-11.7493
▁Jud	-11.7502
▁erect	-11.752
▁soda	-11.7521
eem	-11.7523
▁Marin	-11.7523
aro	-11.7529
▁Cook	-11.7531
oman	-11.7532
▁pav	-11.7536
▁Phu	-11.7537
RLIN	-11.7538
▁Leno	-11.7544
▁uncle	-11.7546
ories	-11.7547
▁NH	-11.755
▁avert	-11.7553
▁Ivanov	-11.7555
▁Mori	-11.7555
employment	-11.7556
▁Greg	-11.7557
apet	-11.7559
▁keeper	-11.756
rat	-11.7561
▁defi	-11.7562
▁countryside	-11.7563
▁metropoli	-11.7564
▁automotive	-11.7565
entia	-11.7567
▁Karim	-11.7569
unt	-11.7578
▁Canc	-11.7579
▁Gett	-11.7585
▁destabilize	-11.7595
▁Mail	-11.7596
▁inning	-11.76
▁scuffle	-11.7606
▁tongue	-11.7606
are	-11.7607
▁clan	-11.7616
▁Final	-11.7625
▁blockbuster	-11.7625
rry	-11.7635
▁hook	-11.7635
▁Hard	-11.7637
▁armi	-11.7639
▁digg	-11.7639
sources	-11.7639
▁Gue	-11.764
▁clippe	-11.7642
▁Mem	-11.7646
▁KOS	-11.7646
▁funn	-11.7649
▁sore	-11.7654
▁lone	-11.7654
▁organize	-11.7656
bright	-11.7657
▁municipal	-11.7664
▁plug	-11.7665
▁spur	-11.7667
▁tribe	-11.767
ette	-11.767
BP	-11.767
▁speculate	-11.7671
▁Dodge	-11.7676
▁Nichol	-11.7677
▁Test	-11.7678
▁revise	-11.7683
▁companion	-11.7683
▁Uni	-11.7684
▁AM	-11.7684
▁corpse	-11.7686
▁wheels	-11.769
my	-11.7696
▁Jam	-11.7706
▁trans	-11.7709
▁empir	-11.7715
▁ch	-11.7717
▁Galla	-11.7723
▁discs	-11.7724
▁explore	-11.7726
▁sum	-11.773
▁AG	-11.7746
▁brake	-11.7753
eful	-11.7754
▁slowing	-11.7756
oria	-11.776
▁passports	-11.7769
thing	-11.7773
▁entr	-11.7778
▁tun	-11.7782
▁Capital	-11.7785
▁Kor	-11.7786
▁tolerate	-11.7794
tage	-11.7796
▁presid	-11.7797
▁Prot	-11.7798
▁excite	-11.7809
tries	-11.7809
emi	-11.7811
AL	-11.7811
▁fann	-11.7815
cover	-11.7816
▁skinn	-11.7819
▁extradit	-11.7833
▁dish	-11.7834
pies	-11.7834
rosa	-11.7847
eb	-11.7854
▁applie	-11.7866
ating	-11.7875
▁outbreaks	-11.7875
▁exception	-11.788
▁improvements	-11.7885
lame	-11.789
▁disclos	-11.7893
▁NAS	-11.7893
tatistical	-11.7896
▁philosoph	-11.79
▁Ver	-11.7903
▁Flo	-11.7908
jab	-11.791
▁assum	-11.7911
course	-11.7914
outhwest	-11.7915
▁NIS	-11.7916
box	-11.7916
▁Kenne	-11.7916
▁Henri	-11.7917
▁rein	-11.7918
▁slim	-11.792
▁scam	-11.7925
▁Tu	-11.7926
▁McC	-11.7926
▁squeez	-11.7932
ico	-11.7933
lmost	-11.7933
▁Buy	-11.7946
hrai	-11.7951
▁assure	-11.7951
▁compare	-11.7952
ku	-11.7952
FC	-11.7952
▁Million	-11.7953
kins	-11.7966
▁favorites	-11.7979
▁Wei	-11.7981
▁Kumar	-11.7986
▁Are	-11.7987
▁corn	-11.7988
▁trap	-11.799
▁luc	-11.799
elief	-11.799
▁mode	-11.7991
▁cigar	-11.7991
▁unconditional	-11.7992
▁Custom	-11.7992
▁Firefighter	-11.7992
▁Frost	-11.7992
▁Litvin	-11.7992
▁Tikrit	-11.7992
▁Veteran	-11.7992
▁appall	-11.7992
▁evangelical	-11.7992
▁fatigue	-11.7992
▁hectare	-11.7992
▁immense	-11.7992
▁kangaroo	-11.7992
▁machete	-11.7992
▁nickname	-11.7992
▁pandemic	-11.7992
▁precinct	-11.7992
▁quarantine	-11.7992
▁reprocess	-11.7992
▁ritual	-11.7992
▁subpoena	-11.7992
▁technician	-11.7992
▁Bahrain	-11.7992
▁lesbian	-11.7992
▁staunch	-11.7992
▁bipartisan	-11.7992
▁chimp	-11.7992
▁cruel	-11.7992
▁rogue	-11.7992
▁Fabio	-11.7992
▁Lehman	-11.7992
▁parachute	-11.7992
▁parallel	-11.7992
▁Northwest	-11.7992
▁helmet	-11.7992
▁Johannes	-11.7992
▁Centur	-11.7992
▁splash	-11.7992
▁wholesale	-11.7992
▁translator	-11.7992
▁horror	-11.7992
▁unofficial	-11.7992
▁View	-11.7992
▁gauge	-11.7992
▁sneak	-11.7992
▁Export	-11.7992
▁Foley	-11.7992
▁baggage	-11.7992
▁parole	-11.7992
▁ailment	-11.7992
▁sheikh	-11.7992
▁seminar	-11.7992
▁supermarket	-11.7992
▁crystal	-11.7992
▁Jefferson	-11.7992
RID	-11.7992
▁lavish	-11.7992
▁Saint	-11.7993
▁Parent	-11.7993
▁Separate	-11.7993
▁multinational	-11.7993
▁forgot	-11.7993
▁lifestyle	-11.7993
▁leaf	-11.7993
▁Juli	-11.7993
▁Holder	-11.7993
▁copyright	-11.7993
▁landfall	-11.7994
▁composite	-11.7994
▁salary	-11.7994
▁embark	-11.7994
▁mismanage	-11.7994
▁comedian	-11.7994
▁uncomm	-11.7994
▁Brent	-11.7994
▁JP	-11.7994
▁Jerem	-11.7995
witt	-11.7995
▁centimeter	-11.7995
▁Francois	-11.7995
▁foil	-11.7995
▁Mill	-11.7996
▁Todd	-11.7996
▁predator	-11.7996
▁commerc	-11.7997
▁sadden	-11.7997
▁youngster	-11.7997
▁wa	-11.7998
▁considerably	-11.7998
▁torrent	-11.7998
▁Lyon	-11.7999
▁instructor	-11.7999
▁picket	-11.7999
▁tenor	-11.8001
▁complication	-11.8001
▁Tuck	-11.8003
▁bypass	-11.8003
▁Cameroon	-11.8003
▁Nike	-11.8004
▁decorat	-11.8004
ically	-11.8004
▁Lynn	-11.8005
TLAN	-11.8005
▁Train	-11.8006
▁Mari	-11.8006
EGO	-11.8008
luster	-11.8009
▁Pak	-11.8011
▁Abdel	-11.8013
▁Inde	-11.8015
▁staple	-11.8016
▁Country	-11.8017
▁ke	-11.8017
AIRO	-11.8018
▁thriller	-11.802
▁ER	-11.802
▁sicken	-11.8021
▁interven	-11.8022
enos	-11.8024
▁liqu	-11.8025
▁fortress	-11.8026
amburg	-11.803
▁IT	-11.803
stam	-11.8031
▁Word	-11.8033
ache	-11.8034
▁Writer	-11.8036
▁cris	-11.8039
lam	-11.8045
descent	-11.8049
▁wag	-11.805
mun	-11.8053
▁Kiev	-11.8054
▁prop	-11.8055
▁capitalist	-11.8056
▁Floren	-11.806
use	-11.8065
▁aggravat	-11.8068
▁Shell	-11.807
pate	-11.807
immer	-11.8072
erous	-11.8075
lroo	-11.8079
uarte	-11.8081
▁Observat	-11.8083
▁Gh	-11.8098
▁Timo	-11.8104
▁affiliat	-11.8107
▁bout	-11.8112
▁jin	-11.8116
▁Riot	-11.8117
▁campaigner	-11.812
SC	-11.8122
▁Till	-11.8123
▁Kean	-11.813
▁le	-11.8131
▁accelerat	-11.8135
av	-11.8135
▁Lucian	-11.8139
▁Munic	-11.8141
▁bruis	-11.8142
▁Schol	-11.8147
▁Tok	-11.8149
mates	-11.8162
▁Klo	-11.8164
▁Pin	-11.8174
▁conventional	-11.818
▁trainer	-11.8183
eong	-11.8184
▁extraditi	-11.8187
adic	-11.8188
ommunity	-11.8192
acks	-11.8193
▁infections	-11.8197
▁Fe	-11.8198
▁opera	-11.82
▁arena	-11.8212
▁Stal	-11.822
▁Spring	-11.8221
▁Fu	-11.8225
▁scholar	-11.8225
mble	-11.8229
▁Mother	-11.8232
▁Sp	-11.8232
▁Ran	-11.8234
▁seeker	-11.8242
▁persuad	-11.8243
aka	-11.8245
▁justifi	-11.8254
▁thoughts	-11.8255
row	-11.8259
▁riches	-11.8261
lese	-11.8261
▁bounc	-11.8265
▁Mile	-11.827
sang	-11.8271
▁undermin	-11.8272
▁Shre	-11.8272
▁ASE	-11.8277
▁regulate	-11.8285
▁outage	-11.8288
kat	-11.8296
▁fe	-11.8297
▁bounce	-11.83
▁Pick	-11.8312
uso	-11.8313
ambia	-11.8316
▁Nichols	-11.8316
▁sampl	-11.8318
▁folk	-11.8324
▁Mwa	-11.8326
atic	-11.8327
▁Hoi	-11.8331
▁reinstate	-11.8335
▁tune	-11.8338
▁Book	-11.8339
jani	-11.8346
mont	-11.8347
▁carve	-11.8348
▁tick	-11.8355
▁Alk	-11.8357
works	-11.8359
ig	-11.8361
ATH	-11.8361
aron	-11.8361
lena	-11.8363
▁dose	-11.8364
pot	-11.8373
ci	-11.8374
iko	-11.8384
uck	-11.8386
zer	-11.8397
▁Duk	-11.8398
▁starv	-11.8398
ption	-11.8408
▁Ful	-11.8414
▁Chae	-11.8415
wick	-11.8422
▁pric	-11.8423
▁invad	-11.8426
istic	-11.8427
zone	-11.8429
▁adj	-11.8434
amount	-11.8435
▁underscore	-11.8437
pin	-11.844
ode	-11.8441
AO	-11.8442
▁Monet	-11.8445
▁arsenal	-11.8446
▁slope	-11.8449
▁Ivan	-11.8449
▁guil	-11.8452
grade	-11.8453
▁Lab	-11.8456
vi	-11.8461
▁Ci	-11.8463
▁candle	-11.8466
▁Ok	-11.847
▁Feli	-11.8475
ummit	-11.8475
▁Seg	-11.8477
pon	-11.8486
▁initiat	-11.849
state	-11.8494
▁rap	-11.8496
BO	-11.8496
rous	-11.8499
▁Fla	-11.8502
scale	-11.8506
tial	-11.8511
map	-11.8516
▁comb	-11.8519
▁Tra	-11.8535
▁Eva	-11.8536
what	-11.8536
▁McA	-11.854
▁concede	-11.8541
uran	-11.8541
▁hills	-11.8543
▁op	-11.8543
athan	-11.8544
ctic	-11.8556
nnie	-11.8558
onga	-11.856
▁MAD	-11.8565
▁Lead	-11.8568
▁Morocc	-11.8571
▁distort	-11.8575
CS	-11.8576
hapter	-11.858
▁McLa	-11.858
▁Crawford	-11.858
▁Jupiter	-11.858
▁Mbeki	-11.858
▁archipelag	-11.858
▁integrity	-11.858
▁pedestrian	-11.858
▁reconsider	-11.858
▁skyscraper	-11.858
▁Oxford	-11.858
▁delicate	-11.858
▁improper	-11.858
▁renown	-11.858
▁tariff	-11.858
▁Address	-11.858
▁adjourn	-11.858
▁dormitor	-11.858
▁noodle	-11.858
▁Patriot	-11.858
▁definitive	-11.858
▁gloom	-11.858
▁rhythm	-11.858
▁Dmitr	-11.858
▁snatch	-11.858
▁Building	-11.858
▁Fritz	-11.858
▁Filipino	-11.858
▁foreclosure	-11.858
▁stint	-11.858
▁jacket	-11.858
amilton	-11.858
▁Hutchins	-11.858
▁safeguard	-11.858
▁excerpt	-11.858
▁premise	-11.858
▁Davyd	-11.858
▁disclosure	-11.858
▁feud	-11.858
▁external	-11.858
▁luna	-11.858
▁slaying	-11.858
▁Limit	-11.8581
▁Armenian	-11.8581
▁furni	-11.8581
▁forensic	-11.8581
▁Salah	-11.8581
dorf	-11.8581
▁wander	-11.8581
▁persist	-11.8581
▁Titan	-11.8581
▁Respond	-11.8582
▁collaboration	-11.8582
▁Adel	-11.8582
▁Investor	-11.8582
▁forthcoming	-11.8582
▁Alvar	-11.8582
▁carriage	-11.8583
▁edit	-11.8583
▁Store	-11.8583
▁rehab	-11.8583
▁Mandel	-11.8583
▁Product	-11.8583
▁absorb	-11.8583
▁archive	-11.8583
ert	-11.8583
▁ditch	-11.8584
▁vary	-11.8584
▁feat	-11.8584
▁quest	-11.8584
DU	-11.8584
▁outrageous	-11.8585
▁Kaka	-11.8585
▁irritat	-11.8585
▁fiction	-11.8586
▁Tension	-11.8586
▁ancestor	-11.8587
ateur	-11.8588
▁Studio	-11.8589
▁festiv	-11.8589
▁VE	-11.859
▁devil	-11.859
▁lobbyist	-11.859
▁gripp	-11.8591
▁installment	-11.8592
▁therapist	-11.8592
▁dragon	-11.8592
▁caffein	-11.8592
▁partisan	-11.8592
▁confession	-11.8592
jeon	-11.8593
▁hardship	-11.8594
▁Jang	-11.8594
▁Luft	-11.8594
▁Roland	-11.8595
▁backward	-11.8596
▁Point	-11.8598
RNA	-11.8598
▁Ruth	-11.86
▁defiant	-11.8601
▁courthouse	-11.8601
▁seasonal	-11.8601
acent	-11.8603
berra	-11.8603
▁console	-11.8603
▁Slam	-11.8605
▁woke	-11.8605
▁vanish	-11.8607
tte	-11.8608
▁gallery	-11.861
▁Emm	-11.8611
▁drift	-11.8612
bari	-11.8612
▁AL	-11.8613
▁transmitt	-11.8615
▁Alma	-11.8616
▁passionate	-11.8616
▁Guy	-11.8617
▁spectators	-11.8617
ven	-11.8617
▁Toshi	-11.8623
▁Grant	-11.8626
▁bury	-11.8634
▁pot	-11.8639
sud	-11.864
▁Pedr	-11.8642
▁stair	-11.8647
▁lin	-11.8649
▁UNE	-11.8649
eta	-11.8652
▁snap	-11.8653
ran	-11.8655
▁gram	-11.8657
▁hom	-11.8661
▁exo	-11.8664
▁robe	-11.8665
▁Mesh	-11.8665
▁examiner	-11.8668
▁Liberia	-11.867
▁plagu	-11.8672
arter	-11.8675
▁entit	-11.8677
▁Libert	-11.8678
▁Valen	-11.8685
▁Soccer	-11.8686
▁arise	-11.869
▁analyze	-11.87
▁chok	-11.8701
illionaire	-11.8703
▁capp	-11.8714
▁execute	-11.8715
▁Masa	-11.8721
▁Tan	-11.8722
▁Rang	-11.8733
dium	-11.8733
sterda	-11.8733
▁Mario	-11.8742
▁pen	-11.8747
vinen	-11.8748
ea	-11.8754
▁serial	-11.8758
▁retract	-11.8765
▁pancreati	-11.8767
▁vaccines	-11.8776
abel	-11.8779
▁Khala	-11.878
▁lawn	-11.8781
lis	-11.8788
▁lunche	-11.8789
▁spat	-11.8789
▁interfere	-11.8797
▁bay	-11.88
▁relocate	-11.8804
ylan	-11.8813
▁Gal	-11.8821
▁prey	-11.8823
nze	-11.8828
▁infringe	-11.8841
U	-11.8843
▁Sale	-11.8848
▁recommends	-11.8852
far	-11.8854
▁Serie	-11.8855
▁arch	-11.8859
▁Ward	-11.8868
▁Anba	-11.887
▁lighter	-11.8879
stitution	-11.8883
▁DP	-11.8886
▁Inside	-11.8889
anga	-11.8893
imo	-11.8893
▁wise	-11.8898
▁na	-11.8909
vine	-11.8911
▁Tran	-11.8911
▁Schu	-11.8913
▁aut	-11.8915
▁Forb	-11.8921
ference	-11.8923
umi	-11.8931
eba	-11.8932
LC	-11.8942
▁Sales	-11.8946
hwa	-11.895
▁Prod	-11.8955
▁Kas	-11.8955
glasses	-11.8963
▁donation	-11.8964
▁commun	-11.8965
▁Maure	-11.8966
bi	-11.8974
ON	-11.8974
▁franc	-11.8976
▁SAN	-11.8978
II	-11.8982
▁Joy	-11.8983
ky	-11.8984
▁koo	-11.9005
inj	-11.9012
▁facilitate	-11.902
▁revenues	-11.9026
▁emphasize	-11.9032
▁Im	-11.9032
▁Secret	-11.9033
▁pad	-11.9033
▁lett	-11.9034
▁Ris	-11.9036
▁Madi	-11.9039
ake	-11.9044
utt	-11.9046
▁frighten	-11.9058
ched	-11.9065
▁confus	-11.9072
hem	-11.9075
▁RC	-11.9077
uart	-11.9083
▁brac	-11.9091
llen	-11.9095
zio	-11.9097
▁stabiliz	-11.9097
ulous	-11.9109
ai	-11.911
odor	-11.9113
▁Trac	-11.9116
▁desir	-11.9118
constitutional	-11.9127
beat	-11.9127
▁default	-11.9127
continent	-11.9127
▁jo	-11.9129
battle	-11.9129
redit	-11.9135
▁Body	-11.9142
▁Les	-11.9147
▁formula	-11.9149
deal	-11.9154
▁Lig	-11.9155
phis	-11.9157
▁Administrati	-11.9159
▁Data	-11.9173
eafood	-11.9179
oc	-11.918
atiri	-11.9181
abo	-11.9187
due	-11.919
rwin	-11.9195
▁loya	-11.9197
▁span	-11.9202
croft	-11.9204
▁conspir	-11.9204
▁blank	-11.9204
rchestra	-11.9205
uebec	-11.9205
▁Azerbaijan	-11.9205
▁Confederation	-11.9205
▁Disaster	-11.9205
▁abnormal	-11.9205
▁albatross	-11.9205
▁centrifuge	-11.9205
▁compatriot	-11.9205
▁defensive	-11.9205
▁diarrhea	-11.9205
▁exaggerat	-11.9205
▁explicit	-11.9205
▁nutrient	-11.9205
▁paramilitar	-11.9205
▁standstill	-11.9205
▁submarine	-11.9205
▁technological	-11.9205
▁temblor	-11.9205
▁whistle	-11.9205
▁clown	-11.9205
▁falter	-11.9205
▁sacred	-11.9205
▁sculpture	-11.9205
AKAR	-11.9205
▁Sultan	-11.9205
▁overheat	-11.9205
▁inherit	-11.9205
▁resurgen	-11.9205
▁Fellow	-11.9205
▁Treat	-11.9205
▁Source	-11.9205
▁beverage	-11.9205
▁humpback	-11.9205
▁justify	-11.9205
▁Physic	-11.9205
▁overshadow	-11.9205
▁arthr	-11.9205
▁blackmail	-11.9205
▁Enron	-11.9205
▁orientation	-11.9205
▁provocation	-11.9205
▁BANG	-11.9205
▁overdose	-11.9205
▁skeleton	-11.9205
▁Investigation	-11.9205
▁rooftop	-11.9205
▁meteorologist	-11.9205
▁stump	-11.9205
▁brink	-11.9205
▁leverage	-11.9205
▁monster	-11.9205
▁description	-11.9205
▁cricket	-11.9205
▁rebuke	-11.9205
▁annul	-11.9205
▁heavyweight	-11.9205
▁Hanaro	-11.9206
▁assembl	-11.9206
▁meltdown	-11.9206
▁Team	-11.9206
▁feather	-11.9206
▁Duja	-11.9206
▁garner	-11.9206
▁Chuck	-11.9206
▁consulate	-11.9206
▁merchant	-11.9206
▁Conner	-11.9206
▁advertisement	-11.9206
▁Robinson	-11.9206
▁Lafa	-11.9206
▁Globo	-11.9206
▁disband	-11.9207
▁litter	-11.9207
▁courageous	-11.9207
▁inflammat	-11.9207
▁notify	-11.9207
▁translation	-11.9207
▁disturbance	-11.9207
▁showcase	-11.9207
shmi	-11.9208
▁censor	-11.9208
▁piano	-11.9208
▁floodwater	-11.9208
YD	-11.9209
▁Scientolog	-11.9209
▁shortfall	-11.9209
▁genom	-11.9211
▁workplace	-11.9212
▁stern	-11.9212
▁Duck	-11.9212
▁horribl	-11.9212
▁breakdown	-11.9213
▁baton	-11.9213
▁deterrent	-11.9213
▁simulate	-11.9213
▁distributor	-11.9214
▁Moroccan	-11.9214
▁Millen	-11.9215
ext	-11.9216
▁Observer	-11.9217
▁newborn	-11.9218
▁Lower	-11.9218
uver	-11.9218
▁Abram	-11.9219
▁Nile	-11.9219
▁Online	-11.922
▁Spur	-11.922
▁rust	-11.922
sibility	-11.922
▁intentional	-11.9221
▁Gome	-11.9221
▁compensate	-11.9221
▁dismissal	-11.9222
▁Kirk	-11.9222
▁cake	-11.9222
▁Journalist	-11.9223
▁slapp	-11.9223
▁Yemeni	-11.9224
▁IU	-11.9225
▁anymore	-11.9226
▁alcoholic	-11.9227
Capri	-11.9228
▁magnetic	-11.9228
nnan	-11.9228
wi	-11.9229
▁scorch	-11.923
▁portrayal	-11.9231
▁transformation	-11.9231
▁mobiliz	-11.9232
▁Max	-11.9233
▁Rak	-11.9233
▁Oz	-11.9234
▁Algerian	-11.9235
▁progressive	-11.9235
▁Independent	-11.9239
▁Valentin	-11.924
▁Soldiers	-11.9241
look	-11.9243
▁log	-11.9243
bei	-11.9245
▁stranger	-11.9249
▁detector	-11.925
▁cure	-11.9254
▁Come	-11.9255
anana	-11.9258
▁Gard	-11.9258
▁wishes	-11.9261
▁facto	-11.9265
▁mega	-11.9269
▁Prest	-11.9271
▁web	-11.9272
▁blackout	-11.9272
▁motivation	-11.9272
▁perch	-11.9277
▁influen	-11.9279
▁walkout	-11.928
drop	-11.9281
▁Bund	-11.9285
▁roller	-11.9285
▁felon	-11.9286
▁penguins	-11.9287
iv	-11.9289
▁depressed	-11.9289
▁Valeri	-11.929
atero	-11.9293
▁manual	-11.9294
▁boycotted	-11.9295
▁Suz	-11.9295
▁sens	-11.9298
ircuit	-11.9301
ction	-11.9308
rose	-11.9309
▁relieve	-11.9314
▁Jen	-11.9316
▁butter	-11.9317
▁particles	-11.9319
fia	-11.9322
liberation	-11.9324
▁Hend	-11.9325
▁statistical	-11.9327
ome	-11.9328
inal	-11.9331
▁Stil	-11.9333
▁Bot	-11.9335
▁Deb	-11.9338
▁cred	-11.9343
▁allerg	-11.9348
▁Gala	-11.9355
dominant	-11.9357
▁authorize	-11.9364
▁Dav	-11.9373
hui	-11.9375
▁topple	-11.9384
▁Russe	-11.9385
▁sword	-11.9393
▁enabl	-11.9394
▁cancell	-11.9394
▁mates	-11.94
▁leaning	-11.9403
NSO	-11.9403
▁bio	-11.9406
▁KG	-11.941
▁crumbl	-11.941
▁Yass	-11.9413
▁popul	-11.9415
▁imp	-11.9418
ambo	-11.9418
▁sabotage	-11.9421
toya	-11.9427
▁Crist	-11.943
▁bash	-11.9431
EN	-11.9431
▁Emil	-11.9437
musse	-11.9438
rimp	-11.9443
era	-11.9444
▁amuse	-11.9445
rena	-11.9449
▁Fish	-11.9452
ron	-11.9461
▁Iranians	-11.9472
▁reassure	-11.9478
▁listing	-11.948
chen	-11.948
▁Naga	-11.9487
▁beside	-11.9488
▁soak	-11.9494
▁sang	-11.9498
▁Jav	-11.9498
▁credibl	-11.9498
▁disc	-11.9503
nier	-11.9504
▁hood	-11.951
▁Holm	-11.9513
▁renounce	-11.9518
ego	-11.9522
▁mat	-11.9524
▁aero	-11.9524
▁Mine	-11.9529
▁Meteorologi	-11.9531
elli	-11.9539
▁outlet	-11.9542
errill	-11.9544
▁plain	-11.9546
▁Sull	-11.9551
▁sue	-11.9553
fraction	-11.9554
▁ba	-11.9554
▁corps	-11.9561
▁Elev	-11.9572
mpire	-11.9576
ilo	-11.9582
▁Had	-11.9583
LM	-11.9585
RI	-11.9588
▁smuggle	-11.959
▁receiver	-11.9611
▁Bai	-11.9616
bin	-11.9621
▁credi	-11.9622
nom	-11.9643
afford	-11.9644
ulu	-11.9645
eng	-11.9647
asco	-11.9649
▁Bernie	-11.9651
eth	-11.9654
▁accessor	-11.9659
▁lashe	-11.9663
▁retaliat	-11.9665
▁revers	-11.9665
ssi	-11.9668
bye	-11.967
MI	-11.967
▁Vari	-11.9671
WF	-11.968
ggy	-11.9681
▁Burn	-11.9685
▁ma	-11.9689
▁lonel	-11.969
take	-11.9691
eur	-11.9693
reze	-11.9693
vin	-11.9693
▁Warn	-11.9697
ears	-11.9698
sour	-11.97
tz	-11.9709
▁Maru	-11.9711
▁shower	-11.9714
▁futures	-11.9716
▁Mah	-11.9724
we	-11.9728
▁stabb	-11.9729
▁ha	-11.974
eparation	-11.975
▁identifi	-11.9752
oh	-11.9753
▁inevitabl	-11.9754
ncer	-11.9755
▁Key	-11.9758
thy	-11.9762
▁Ice	-11.9766
IM	-11.9778
▁wipe	-11.9783
▁sensation	-11.9788
secretary	-11.9793
▁Vin	-11.9794
low	-11.9795
Ang	-11.9796
▁concentrate	-11.9798
ks	-11.9798
▁cultivat	-11.9817
itude	-11.9819
ivic	-11.9823
▁Care	-11.9828
▁Hawkin	-11.9832
▁skip	-11.9833
if	-11.9839
kawa	-11.984
▁Clemen	-11.9845
▁porn	-11.9847
▁Bulgaria	-11.9848
▁fundrais	-11.985
▁teach	-11.9855
▁Statistic	-11.9857
▁Rush	-11.9859
iquit	-11.9859
▁isolate	-11.9861
▁cord	-11.9862
▁villa	-11.9862
▁Fuji	-11.9863
▁spawn	-11.9867
▁comput	-11.9867
lihood	-11.9871
pportunit	-11.9871
▁Barclay	-11.9871
▁Charlotte	-11.9871
▁Lawrence	-11.9871
▁Marathon	-11.9871
▁Paraguay	-11.9871
▁Siberia	-11.9871
▁affidavit	-11.9871
▁disapprov	-11.9871
▁fragment	-11.9871
▁librar	-11.9871
▁malfunction	-11.9871
▁mogul	-11.9871
▁nephew	-11.9871
▁precondition	-11.9871
▁unleash	-11.9871
▁unnecessar	-11.9871
▁vomit	-11.9871
▁Delegate	-11.9871
▁Sleep	-11.9871
▁bystander	-11.9871
▁rejoin	-11.9871
▁surname	-11.9871
▁vendor	-11.9871
▁monaster	-11.9871
▁thumb	-11.9871
▁pneum	-11.9871
▁Happy	-11.9871
▁reshuffl	-11.9871
UMP	-11.9872
▁Vinci	-11.9872
▁Sherpa	-11.9872
▁estrange	-11.9872
▁elegan	-11.9872
▁minimal	-11.9872
▁excellent	-11.9872
▁dissatisf	-11.9872
▁enlist	-11.9872
▁stroll	-11.9872
▁roadblock	-11.9872
▁saint	-11.9872
▁coffin	-11.9872
▁memo	-11.9872
▁Braun	-11.9872
▁memoir	-11.9872
▁Darling	-11.9872
▁Casp	-11.9872
▁jaw	-11.9873
▁spacewalk	-11.9873
▁email	-11.9873
▁miracle	-11.9873
▁foul	-11.9873
▁peel	-11.9873
▁Diplomat	-11.9873
▁Tribun	-11.9873
▁Number	-11.9873
▁redeployment	-11.9873
▁clamp	-11.9873
▁Teacher	-11.9873
▁commentator	-11.9873
▁orphanage	-11.9873
▁Keep	-11.9874
▁Benoi	-11.9874
▁swamp	-11.9874
▁martial	-11.9874
▁Bennett	-11.9874
▁Petrole	-11.9875
▁cramp	-11.9875
▁hinder	-11.9875
▁valuable	-11.9875
▁pilgrimage	-11.9876
▁rage	-11.9876
▁collud	-11.9876
▁flavor	-11.9877
▁Trail	-11.9877
▁publicize	-11.9877
▁chopper	-11.9878
dding	-11.9879
▁Cruz	-11.9879
▁Yoko	-11.988
▁Gerald	-11.9881
▁Askari	-11.9881
▁hideout	-11.9882
▁checkup	-11.9883
▁lenient	-11.9884
etti	-11.9886
▁conservationist	-11.9886
▁Barney	-11.989
▁farmland	-11.9892
▁Shank	-11.9892
bvious	-11.9893
▁Ash	-11.9893
▁Hugh	-11.9894
crates	-11.9896
▁Pais	-11.9897
▁boot	-11.9899
▁stray	-11.9905
dysse	-11.9905
▁swarm	-11.9906
▁Hag	-11.9907
▁pleasure	-11.9908
life	-11.991
irming	-11.991
▁swam	-11.9912
▁reel	-11.9915
▁Lump	-11.9915
epp	-11.9915
▁Cox	-11.9916
▁AS	-11.9917
▁harmon	-11.9918
▁Nim	-11.9921
▁Want	-11.9922
ngue	-11.9924
agh	-11.9924
▁lag	-11.9926
▁reminder	-11.9927
▁Wong	-11.9932
▁quantit	-11.9932
▁Ghan	-11.9932
waken	-11.9934
▁Doming	-11.9934
▁charm	-11.9937
▁denounce	-11.9937
▁bare	-11.9938
▁refiner	-11.9939
▁Shand	-11.995
▁Guards	-11.9951
▁galaxy	-11.9952
▁Sula	-11.9953
sef	-11.9953
roll	-11.9956
▁Hungar	-11.9957
▁freezer	-11.9957
▁interviewer	-11.9963
▁Lum	-11.9967
▁juror	-11.9969
▁Nabi	-11.9971
▁impressed	-11.9973
▁SA	-11.9973
▁dignitar	-11.9976
▁Mag	-11.9986
tious	-11.9987
▁emergenc	-11.9989
▁Johans	-11.9989
ru	-11.9991
▁stirring	-11.9996
▁hacker	-12.0002
TC	-12.0005
▁gum	-12.0007
▁exceptional	-12.0025
▁rout	-12.0027
▁Fey	-12.0031
▁Beth	-12.0039
▁hijacker	-12.004
▁Yar	-12.0042
▁nett	-12.0045
related	-12.0045
▁invade	-12.0051
▁disciplin	-12.0054
yclone	-12.0055
▁superior	-12.0058
▁mel	-12.0058
hor	-12.0061
nda	-12.0064
▁independents	-12.0076
▁Patt	-12.0082
stra	-12.0084
▁Jur	-12.0084
▁Moss	-12.0084
▁cont	-12.0091
▁communicat	-12.0094
▁Hai	-12.01
▁congratulate	-12.0102
▁Pal	-12.0104
▁Sai	-12.0109
evel	-12.0112
▁optim	-12.0113
▁accommodate	-12.0115
▁quota	-12.0117
▁ridd	-12.0118
▁unite	-12.0119
ali	-12.0124
▁precedent	-12.0129
▁cr	-12.0133
▁skipp	-12.0134
▁dra	-12.0144
▁bore	-12.0145
▁finaliz	-12.015
▁Naj	-12.0172
▁Sara	-12.0176
▁Kyong	-12.0178
▁Rey	-12.0181
ussi	-12.0181
gm	-12.0192
▁stimulate	-12.0193
▁Barks	-12.0197
▁Wie	-12.0209
itu	-12.0219
▁Polit	-12.0224
LE	-12.0233
▁Electronic	-12.0234
▁resource	-12.0237
▁plains	-12.0239
▁Marco	-12.024
▁dece	-12.0242
▁relation	-12.0243
eval	-12.0248
wes	-12.0254
▁crossings	-12.0255
▁Banda	-12.0257
▁dependenc	-12.0266
ruz	-12.0271
▁Add	-12.0283
▁Bayer	-12.0285
ational	-12.0292
▁beard	-12.0295
▁Sport	-12.0296
▁skill	-12.0306
▁Rocky	-12.0307
ram	-12.0309
▁reliabl	-12.0309
▁recogniz	-12.031
onso	-12.0311
▁Pu	-12.0311
▁provoke	-12.0317
▁allocat	-12.0325
bro	-12.0328
▁laborer	-12.0335
▁Beng	-12.0337
has	-12.0339
▁sung	-12.034
▁pe	-12.034
▁clutch	-12.0341
▁comet	-12.0348
▁arts	-12.0352
aidi	-12.0363
▁lovers	-12.0364
migration	-12.0367
▁associates	-12.0369
mate	-12.0371
▁prosecut	-12.0376
▁confusi	-12.0376
ria	-12.0376
▁Nest	-12.0377
▁dissolv	-12.0382
nian	-12.0384
▁confiscat	-12.0384
▁reviews	-12.0384
onic	-12.0386
▁Cycl	-12.0391
▁trapp	-12.0391
▁Yama	-12.0402
king	-12.0402
ip	-12.0403
voi	-12.0407
▁Cos	-12.0407
rov	-12.0412
▁Mak	-12.0412
▁Gig	-12.0425
▁Brand	-12.0426
alai	-12.0428
ith	-12.0428
▁Gill	-12.0433
▁Kan	-12.044
▁Protect	-12.0441
▁Bain	-12.0445
▁Ren	-12.0448
gue	-12.0452
reau	-12.0457
▁exchang	-12.046
▁compris	-12.0465
▁Iron	-12.0466
▁defuse	-12.0469
▁graves	-12.0476
▁Kha	-12.0478
▁vacan	-12.0481
▁deserves	-12.0491
▁killers	-12.0503
▁Score	-12.0503
▁bless	-12.0503
ych	-12.0506
ato	-12.0507
Morgan	-12.0507
frame	-12.0508
model	-12.0508
morning	-12.0508
▁Pul	-12.0513
stair	-12.0516
▁Heath	-12.0517
▁buck	-12.0519
stability	-12.0524
together	-12.0532
▁continuous	-12.0537
▁horrif	-12.0538
▁Pack	-12.0538
▁Mall	-12.0539
▁deter	-12.0546
nica	-12.0548
roads	-12.0549
agen	-12.0551
▁extinguish	-12.0551
▁Opera	-12.0553
▁reluctan	-12.0558
▁jun	-12.0558
guet	-12.0561
gne	-12.0567
▁Machi	-12.0569
▁laund	-12.0574
▁tackl	-12.0574
SS	-12.0577
▁corrupt	-12.0581
▁incit	-12.0582
▁evacu	-12.0582
▁Abdulla	-12.0583
heim	-12.0584
▁orphan	-12.0584
▁mineral	-12.0584
uclear	-12.0585
▁indirect	-12.0586
▁Baptist	-12.0586
▁Similar	-12.0586
▁evident	-12.0586
▁volley	-12.0586
▁Estimate	-12.0586
▁Insurgent	-12.0586
▁Lithuania	-12.0586
▁Ritchie	-12.0586
▁Salvador	-12.0586
▁acclaim	-12.0586
▁accumulate	-12.0586
▁clarify	-12.0586
▁convenience	-12.0586
▁curtain	-12.0586
▁dynamic	-12.0586
▁gondola	-12.0586
▁jurisdiction	-12.0586
▁motorbike	-12.0586
▁specify	-12.0586
▁Dupre	-12.0586
▁Strong	-12.0586
▁appreciati	-12.0586
▁unearth	-12.0586
▁Eduard	-12.0586
▁Gabriel	-12.0586
▁superstar	-12.0586
▁fascinat	-12.0586
▁minimiz	-12.0586
▁erotic	-12.0586
▁Casino	-12.0586
▁Gilbert	-12.0586
▁Emmanuel	-12.0586
▁Muhammad	-12.0586
▁corridor	-12.0586
▁roam	-12.0586
misunderstanding	-12.0586
▁tread	-12.0586
▁envision	-12.0586
▁Mubar	-12.0586
▁grocer	-12.0586
▁blade	-12.0586
▁Archaeologi	-12.0586
▁Freud	-12.0586
▁Seinfeld	-12.0586
▁cyberspace	-12.0586
▁expulsion	-12.0586
▁crane	-12.0586
▁Advance	-12.0586
▁aisle	-12.0587
▁textile	-12.0587
▁blacklist	-12.0587
▁curious	-12.0587
▁ceasefire	-12.0587
▁Meyer	-12.0587
▁trench	-12.0587
▁cathedral	-12.0587
▁malign	-12.0587
▁preference	-12.0587
▁Ameli	-12.0587
▁Large	-12.0587
▁Archive	-12.0588
▁exert	-12.0588
▁annoy	-12.0588
▁imagination	-12.0588
▁Trump	-12.0588
▁spotlight	-12.0588
▁shunn	-12.0589
▁gangster	-12.0589
▁Roos	-12.0589
▁Steelers	-12.0589
▁verbal	-12.0589
▁Derby	-12.0589
▁pupp	-12.0589
▁phrase	-12.0589
▁invention	-12.0589
▁fledg	-12.059
▁Nasir	-12.059
▁ideological	-12.0591
▁Everton	-12.0591
▁molest	-12.0591
▁whipp	-12.0591
▁racist	-12.0591
▁knight	-12.0591
▁sting	-12.0591
▁foment	-12.0592
▁systematic	-12.0592
▁perpetrator	-12.0592
▁Luther	-12.0592
▁delta	-12.0592
▁prescrib	-12.0592
▁normalization	-12.0593
▁Militant	-12.0593
▁patch	-12.0594
metric	-12.0594
▁contemporar	-12.0594
▁cream	-12.0595
▁thigh	-12.0595
▁Gator	-12.0595
▁doom	-12.0597
▁canoe	-12.0597
▁multimillion	-12.0597
▁Code	-12.0599
▁jogg	-12.0599
▁embezzl	-12.0599
▁authoritarian	-12.0599
▁emitt	-12.0601
▁Urban	-12.0601
▁boil	-12.0601
▁refineries	-12.0602
bola	-12.0602
▁Estra	-12.0602
ehr	-12.0603
▁See	-12.0605
▁skidd	-12.0605
▁Cut	-12.0605
▁interrogat	-12.0606
▁disk	-12.0606
▁dipped	-12.0607
▁Ranch	-12.0607
▁referee	-12.0608
▁integrat	-12.0608
▁tenth	-12.0608
▁deplor	-12.0609
▁una	-12.0612
▁homeowner	-12.0612
▁Studi	-12.0614
▁Stam	-12.0615
▁Fisheries	-12.0616
▁tile	-12.0617
▁Jamaican	-12.0618
▁Des	-12.0619
ieu	-12.0619
▁rental	-12.0621
▁combatant	-12.0622
▁Alme	-12.0623
post	-12.063
▁Things	-12.0632
▁Harle	-12.0633
▁Soy	-12.0637
▁Silver	-12.0637
▁fend	-12.0638
erber	-12.0641
▁plantation	-12.0642
▁Vera	-12.0644
▁decent	-12.0647
▁Cars	-12.0647
▁lawless	-12.0648
nants	-12.065
▁raft	-12.065
▁Youth	-12.0651
▁Commander	-12.0651
▁Lamp	-12.0652
bane	-12.0653
▁bureaucrat	-12.0654
▁squeeze	-12.0664
▁Ros	-12.0665
▁Colomb	-12.0667
▁packs	-12.0673
asso	-12.0674
▁AN	-12.0674
▁Mai	-12.0674
ehan	-12.0678
▁Shrin	-12.0678
▁Duca	-12.0681
▁Samp	-12.0682
▁angle	-12.0687
igat	-12.0687
▁bend	-12.0688
aries	-12.0689
emptive	-12.0691
▁reinforce	-12.0693
▁eras	-12.0696
▁Stevens	-12.0701
▁User	-12.0702
gate	-12.0702
atus	-12.0706
▁fuse	-12.0708
elegraph	-12.0708
geant	-12.071
avi	-12.0711
▁enthusiastic	-12.0714
TP	-12.0716
▁finalists	-12.0716
safe	-12.0728
ually	-12.0734
▁mono	-12.0735
▁Finn	-12.0737
▁dancer	-12.0737
▁identi	-12.0738
▁Bark	-12.0741
▁Spect	-12.0742
doch	-12.0743
▁Tyl	-12.0745
▁Philipp	-12.0748
▁manufacture	-12.0754
▁Jessi	-12.0759
▁Cle	-12.0763
▁Mega	-12.0763
▁penn	-12.0763
▁slice	-12.0767
▁Shau	-12.0769
kin	-12.0779
▁Cate	-12.0784
▁Sharp	-12.0791
▁Kill	-12.0791
▁Nationalist	-12.08
ario	-12.0802
▁belly	-12.0804
xis	-12.0805
▁Wor	-12.0807
▁Kel	-12.0807
▁myth	-12.081
bert	-12.0819
▁creditor	-12.082
▁sci	-12.0826
saw	-12.0827
▁Berg	-12.0829
thic	-12.0829
▁Dor	-12.0829
riel	-12.0831
▁rem	-12.0834
▁conceiv	-12.0836
▁regrett	-12.0839
him	-12.0842
▁rec	-12.0842
▁woode	-12.0843
bur	-12.0847
▁kissing	-12.085
▁slashing	-12.0861
▁Claudi	-12.0861
▁Darre	-12.0862
▁Kad	-12.0862
▁Regi	-12.0875
▁Lou	-12.0875
rubber	-12.0885
▁Dill	-12.089
▁Try	-12.089
issa	-12.0897
▁desp	-12.0902
▁Mek	-12.0903
AP	-12.0906
▁sour	-12.0907
▁assassinate	-12.0908
▁meteor	-12.0914
▁trac	-12.0915
▁Stop	-12.0916
▁Sal	-12.0925
unny	-12.0926
SBURG	-12.0932
▁rep	-12.0933
toff	-12.0934
▁Moneta	-12.0936
log	-12.0942
▁Lib	-12.0956
tun	-12.0958
▁seas	-12.0959
▁underline	-12.0959
bas	-12.0962
▁Marty	-12.0963
▁Kat	-12.0964
taka	-12.0966
nfantry	-12.097
tia	-12.097
ET	-12.0975
▁Reporter	-12.0979
print	-12.0984
▁periodic	-12.0993
▁lash	-12.0998
och	-12.1
cin	-12.1001
▁gro	-12.1008
matic	-12.1012
▁Duran	-12.1013
▁repatriat	-12.1021
▁audiences	-12.1026
▁shout	-12.1029
▁Ti	-12.1041
▁Toy	-12.1042
▁amo	-12.105
▁dome	-12.1053
▁Cheng	-12.1062
jev	-12.1065
icon	-12.107
▁disguis	-12.1088
▁hik	-12.1089
▁admir	-12.1093
▁Mona	-12.111
LL	-12.1113
▁offset	-12.1113
▁Shar	-12.1125
▁Fl	-12.1126
▁Wend	-12.1132
horn	-12.1134
▁Have	-12.1134
zi	-12.1138
qu	-12.1143
▁Lal	-12.1151
inous	-12.1162
▁Rap	-12.1171
▁Ferr	-12.1172
unting	-12.1173
usk	-12.1174
▁Ter	-12.1175
lender	-12.1176
▁Nu	-12.1182
nne	-12.1184
com	-12.1185
▁prob	-12.1189
▁translate	-12.1193
andel	-12.1194
▁donate	-12.1202
▁Pont	-12.1206
▁render	-12.1209
▁Josh	-12.1209
▁boo	-12.121
▁casual	-12.1211
▁Ger	-12.1213
▁stat	-12.1214
▁shall	-12.1216
▁royalt	-12.1216
▁Hur	-12.1228
▁mediate	-12.1233
▁agrees	-12.1234
▁admitt	-12.1236
egas	-12.1237
abi	-12.124
▁obstruct	-12.1242
▁stirr	-12.1243
▁readi	-12.125
▁exercis	-12.1252
▁Hell	-12.1256
kind	-12.1259
▁Guns	-12.1262
▁Reno	-12.1265
▁galax	-12.1265
awar	-12.1266
CN	-12.1269
▁proportion	-12.1269
▁BO	-12.1269
akat	-12.127
▁dot	-12.1271
diac	-12.1279
found	-12.1293
grow	-12.1297
▁enforc	-12.13
▁physic	-12.1301
around	-12.1304
▁Domini	-12.1311
nsu	-12.1313
▁logg	-12.132
▁Ak	-12.1322
ivan	-12.1323
▁rib	-12.1325
RAN	-12.1329
▁fo	-12.1329
▁Lui	-12.1331
eddin	-12.1334
▁Close	-12.1334
▁Voi	-12.1339
▁expir	-12.1339
▁dip	-12.1341
▁Beaut	-12.1345
▁emphasi	-12.1348
▁enroll	-12.1349
▁excavat	-12.135
▁Rama	-12.1352
rivate	-12.1353
opyright	-12.1354
▁legitima	-12.1354
▁Garc	-12.1354
▁neglect	-12.1355
▁Adviser	-12.1355
▁Anglican	-12.1355
▁Blanchett	-12.1355
▁Bodlander	-12.1355
▁Inspection	-12.1355
▁Participa	-12.1355
▁Resort	-12.1355
▁Sanchez	-12.1355
▁Satellite	-12.1355
▁Smurf	-12.1355
▁UNITE	-12.1355
▁aggregate	-12.1355
▁ecosystem	-12.1355
▁insufficient	-12.1355
▁intimate	-12.1355
▁magistrate	-12.1355
▁resurrect	-12.1355
▁sanctuar	-12.1355
▁upheaval	-12.1355
▁wizard	-12.1355
▁Situation	-12.1355
▁quadruple	-12.1355
YANG	-12.1355
▁Namdaemu	-12.1355
▁Please	-12.1355
▁complicit	-12.1355
▁ossuar	-12.1355
▁voyage	-12.1355
▁zebra	-12.1355
▁Blood	-12.1355
▁Tempel	-12.1355
▁prophet	-12.1355
▁Adolf	-12.1355
▁rainforest	-12.1355
▁fugitive	-12.1355
▁Sindh	-12.1355
▁Barroso	-12.1355
▁frantic	-12.1355
▁faint	-12.1355
▁warlord	-12.1355
▁motel	-12.1355
▁Delaware	-12.1355
▁merit	-12.1355
▁vague	-12.1355
▁identical	-12.1355
▁throng	-12.1355
▁clause	-12.1355
▁Jalal	-12.1355
▁sermon	-12.1355
▁Polanski	-12.1355
▁balk	-12.1355
▁chemist	-12.1355
▁resemblance	-12.1355
▁glove	-12.1356
▁nightmare	-12.1356
▁Fresh	-12.1356
▁Meghani	-12.1356
▁astonish	-12.1356
▁Elvi	-12.1356
▁Hajj	-12.1356
▁mixture	-12.1356
▁weird	-12.1356
▁compell	-12.1356
▁embroi	-12.1356
▁Celtic	-12.1356
▁footprint	-12.1357
▁swimmer	-12.1357
▁snowfall	-12.1357
▁Trev	-12.1357
▁jihadist	-12.1358
ussain	-12.1358
▁unfold	-12.1358
▁Vil	-12.1358
▁gown	-12.1358
▁Mirror	-12.1358
▁hillside	-12.1358
▁calculation	-12.1359
▁fetch	-12.1359
▁thaw	-12.1359
▁characteristic	-12.1359
▁fabricat	-12.1359
▁Grow	-12.1359
▁canister	-12.1359
▁salute	-12.136
▁deaf	-12.136
▁Caffe	-12.136
▁twenty	-12.136
▁frenz	-12.136
▁enrollment	-12.1361
▁Bog	-12.1361
▁adaptation	-12.1362
▁Dress	-12.1362
▁dogged	-12.1363
▁Maritime	-12.1363
▁resettle	-12.1364
▁gor	-12.1364
▁battlefield	-12.1365
▁Battle	-12.1365
▁interpretation	-12.1366
ukov	-12.1366
▁renam	-12.1367
▁assignment	-12.1367
nova	-12.1367
▁shotgun	-12.1367
aewoo	-12.1368
eau	-12.1368
▁downgrade	-12.1368
▁reservation	-12.1369
▁Disneyland	-12.137
▁Gwang	-12.137
▁heroic	-12.137
▁budd	-12.1371
▁Krug	-12.1372
▁Railway	-12.1375
▁hut	-12.1375
▁shootout	-12.1375
▁lament	-12.1376
▁bark	-12.1376
▁Kati	-12.1376
▁Boni	-12.1377
▁emb	-12.1378
▁ramm	-12.1379
▁Ober	-12.138
▁Lars	-12.138
olen	-12.1382
▁Producer	-12.1382
▁collector	-12.1384
▁Sometime	-12.1386
▁hallway	-12.1386
▁Camill	-12.1387
▁flies	-12.1388
▁tangib	-12.1388
▁puni	-12.1389
▁veer	-12.139
▁Story	-12.1391
▁nutrition	-12.1392
▁Lari	-12.1393
rup	-12.1395
▁wrestl	-12.1395
▁Mode	-12.1396
▁Fill	-12.1398
▁urin	-12.1398
▁adventurer	-12.14
▁jitter	-12.14
fan	-12.14
▁fax	-12.1404
▁bite	-12.1405
▁affection	-12.1405
uez	-12.1406
▁Pesh	-12.141
▁degrad	-12.141
▁realistic	-12.1411
▁couch	-12.1411
▁Study	-12.1412
nce	-12.1412
▁conductor	-12.1415
▁Mason	-12.1418
▁explorer	-12.1419
lett	-12.1421
▁Carrie	-12.1422
moto	-12.1424
lept	-12.1424
aw	-12.1424
umn	-12.1424
ika	-12.1425
ushi	-12.1425
▁Cheon	-12.1425
rot	-12.1427
▁IP	-12.1434
▁horn	-12.1438
▁proportional	-12.1442
▁Rach	-12.1442
▁Alexandr	-12.1442
▁Planet	-12.1443
▁meal	-12.1443
rjee	-12.1445
EH	-12.1447
▁Solan	-12.1448
WP	-12.1459
▁Hwa	-12.146
Spark	-12.1461
▁Messi	-12.1464
talia	-12.1466
rawa	-12.1468
▁VIP	-12.1477
▁tide	-12.1478
▁Dora	-12.1481
▁Burt	-12.1484
▁ounces	-12.1488
▁blend	-12.1488
▁sanit	-12.1493
tina	-12.1493
inburg	-12.1505
▁sake	-12.1505
▁Gere	-12.1508
rick	-12.1509
pat	-12.1519
▁undern	-12.1519
▁perceiv	-12.1521
col	-12.1529
anxi	-12.1531
▁Rafi	-12.1537
▁nominate	-12.1537
▁Sto	-12.1537
▁mock	-12.1538
▁cav	-12.1546
▁underscor	-12.1547
ouf	-12.1549
▁chin	-12.1554
▁usage	-12.1554
book	-12.1562
▁shells	-12.1562
▁Again	-12.1564
nan	-12.1568
▁smuggl	-12.1569
usan	-12.1575
errez	-12.1575
▁reproducti	-12.1575
▁elde	-12.1576
yu	-12.1578
of	-12.1578
▁pools	-12.1578
oom	-12.1579
▁dissolve	-12.1579
▁envelope	-12.1581
CF	-12.1581
▁cling	-12.1582
AMI	-12.1588
ader	-12.159
▁destruct	-12.1591
▁Hindus	-12.1592
▁yog	-12.1598
▁Schult	-12.1601
▁incorporat	-12.1605
▁cart	-12.1606
▁Af	-12.1616
▁evaluate	-12.1621
▁advocat	-12.1625
▁neo	-12.1626
MS	-12.1627
▁math	-12.1632
ark	-12.1636
▁defian	-12.1639
▁rub	-12.164
▁retriev	-12.1641
illy	-12.1641
enza	-12.1642
▁calculate	-12.1643
▁relian	-12.1643
▁Shop	-12.165
▁ne	-12.1664
▁Berl	-12.1666
rada	-12.1675
▁Event	-12.1676
▁Taj	-12.1678
▁heel	-12.1679
▁Bris	-12.168
▁Sina	-12.168
▁Ein	-12.1681
▁Ica	-12.1684
▁waterway	-12.1684
var	-12.1686
▁integrate	-12.169
▁edg	-12.1691
chai	-12.1695
▁Mirr	-12.1698
▁Works	-12.1707
nterstate	-12.1707
eban	-12.1707
MAN	-12.1715
▁Webb	-12.1716
▁quo	-12.1716
▁Gamb	-12.1717
tel	-12.1724
▁seeds	-12.1736
workers	-12.1738
▁Marshal	-12.1753
▁uphold	-12.1756
trust	-12.1757
ander	-12.1758
pite	-12.1761
▁Sim	-12.1769
▁Gin	-12.1778
hiko	-12.1781
▁notable	-12.1784
THE	-12.1786
▁Hop	-12.179
▁ripple	-12.1798
▁Tower	-12.1802
▁Canar	-12.1806
▁Fra	-12.1811
ddie	-12.1813
▁opener	-12.1817
▁infring	-12.1825
▁Oman	-12.1829
▁Cott	-12.1829
▁Prai	-12.1829
▁reconciliat	-12.183
ench	-12.1838
RM	-12.1846
▁arrangement	-12.1848
▁preced	-12.1849
▁closet	-12.1855
▁Lai	-12.186
▁compuls	-12.186
▁coaster	-12.1862
▁Tam	-12.1862
▁Tel	-12.1871
▁Pla	-12.1875
▁Nativ	-12.1877
▁Prat	-12.1878
oma	-12.1878
▁Sevent	-12.1883
SL	-12.1885
▁Schum	-12.1885
▁Mei	-12.1888
▁shrug	-12.1891
▁Cap	-12.1892
▁Dona	-12.1893
▁Odi	-12.1895
▁Sher	-12.1899
▁scal	-12.1904
ety	-12.193
▁Dou	-12.1939
▁ascend	-12.1945
▁Ari	-12.1948
▁sights	-12.1954
▁Stre	-12.1956
harmonic	-12.1965
▁discipline	-12.1966
LP	-12.1969
▁shatter	-12.1973
▁hell	-12.1974
utomotive	-12.1985
than	-12.1985
▁Clar	-12.199
hurt	-12.1994
▁sup	-12.1998
allow	-12.2005
lcome	-12.2005
▁Colo	-12.2024
▁Luc	-12.2024
smo	-12.203
bol	-12.2032
isco	-12.204
oha	-12.2045
CD	-12.2046
▁dri	-12.2054
▁Village	-12.2055
▁Alba	-12.2056
ator	-12.2056
▁Por	-12.206
▁Lot	-12.2063
tu	-12.2065
US	-12.2076
imon	-12.2078
▁coppe	-12.2094
bre	-12.2094
TT	-12.21
raged	-12.2103
▁builder	-12.2104
view	-12.2105
▁firefight	-12.2106
▁albums	-12.2106
▁Tha	-12.2108
conduct	-12.211
nutrition	-12.211
foot	-12.2111
▁Eli	-12.2111
sleep	-12.2112
▁raz	-12.2115
four	-12.2115
mill	-12.2115
▁Know	-12.2119
ownship	-12.212
▁supreme	-12.2123
hans	-12.2124
▁Corporat	-12.2128
shot	-12.2129
tana	-12.2129
penh	-12.213
▁oppress	-12.2133
phone	-12.2135
uicide	-12.2137
NK	-12.2141
ahn	-12.2143
▁Terror	-12.2144
▁embrac	-12.2147
ogether	-12.2147
▁messag	-12.2149
▁freight	-12.215
▁lur	-12.2156
▁Shak	-12.2162
▁KO	-12.2164
cry	-12.2165
▁Albania	-12.2166
▁Ty	-12.2168
pact	-12.2169
▁normaliz	-12.2169
▁Wacho	-12.2172
lu	-12.2173
▁bike	-12.2174
▁Fabr	-12.2176
▁Clint	-12.2179
▁abdom	-12.218
gon	-12.2182
▁Cald	-12.2183
▁strategi	-12.2184
▁worship	-12.2185
avoid	-12.2185
▁imperial	-12.2186
▁explode	-12.2186
UR	-12.2187
hej	-12.2187
▁fog	-12.2187
▁Palestin	-12.2187
riminal	-12.2187
emilitariz	-12.2188
▁skyrocket	-12.2188
▁Alejandr	-12.2188
▁Caesar	-12.2188
▁Detective	-12.2188
▁Juventu	-12.2188
▁Namibia	-12.2188
▁Trinidad	-12.2188
▁UNHCR	-12.2188
▁abolition	-12.2188
▁accomplice	-12.2188
▁athletic	-12.2188
▁avalanche	-12.2188
▁awkward	-12.2188
▁brawl	-12.2188
▁bulb	-12.2188
▁cantaloupe	-12.2188
▁cockpit	-12.2188
▁constituenc	-12.2188
▁deflect	-12.2188
▁discontent	-12.2188
▁disqualifi	-12.2188
▁emperor	-12.2188
▁enclave	-12.2188
▁endeavor	-12.2188
▁frequenc	-12.2188
▁futurist	-12.2188
▁overflow	-12.2188
▁Adventure	-12.2188
▁comrade	-12.2188
▁reptile	-12.2188
▁Connor	-12.2188
▁fertilizer	-12.2188
eutic	-12.2188
ockefeller	-12.2188
▁Anchor	-12.2188
▁Knox	-12.2188
▁Windsor	-12.2188
▁chimpanzee	-12.2188
▁wrangl	-12.2188
▁delinquent	-12.2188
▁unify	-12.2188
▁Activis	-12.2188
▁leopard	-12.2188
▁plaintiff	-12.2188
▁thymus	-12.2188
▁heaven	-12.2188
▁intoxicat	-12.2188
▁stalk	-12.2188
▁Morici	-12.2188
▁blitz	-12.2188
▁prevail	-12.2188
▁Ayres	-12.2188
▁patent	-12.2188
▁Samuel	-12.2188
▁marble	-12.2188
▁gym	-12.2189
▁suitcase	-12.2189
▁Newspaper	-12.2189
▁Mauritania	-12.2189
▁chef	-12.2189
▁desktop	-12.2189
▁qualification	-12.2189
▁Ricard	-12.2189
▁unreasonabl	-12.2189
▁Screen	-12.2189
▁Search	-12.2189
▁analog	-12.2189
▁Ohmy	-12.2189
▁mathematic	-12.2189
▁stiff	-12.2189
▁Pepper	-12.2189
▁rope	-12.2189
▁tarmac	-12.2189
▁forehand	-12.2189
▁Viru	-12.2189
▁surrogate	-12.2189
▁inundate	-12.2189
▁levee	-12.2189
▁rip	-12.2189
▁patern	-12.2189
▁Hopkin	-12.219
▁lime	-12.219
▁Cesar	-12.219
▁Salam	-12.219
▁discard	-12.219
▁Proceed	-12.219
▁battalion	-12.219
▁circuit	-12.219
▁Slavi	-12.219
▁Som	-12.219
▁Balkan	-12.219
▁commemoration	-12.2191
steps	-12.2191
▁columnist	-12.2191
▁Boulo	-12.2191
▁workshop	-12.2191
▁gala	-12.2191
▁Blacksburg	-12.2192
▁psychiatrist	-12.2192
▁FRAN	-12.2192
▁stack	-12.2192
▁Ground	-12.2192
▁touchdown	-12.2193
▁Bradley	-12.2193
▁deliberation	-12.2194
▁Chungchon	-12.2194
▁purse	-12.2194
▁Sil	-12.2194
▁flatten	-12.2195
▁Manager	-12.2195
▁Citizen	-12.2195
▁fabrication	-12.2195
▁sniper	-12.2196
▁iceberg	-12.2196
▁Oliver	-12.2196
▁Explorer	-12.2196
▁Blanc	-12.2197
▁Lebo	-12.2197
▁abdomen	-12.2197
▁Break	-12.2197
▁collaborator	-12.2197
▁reunion	-12.2197
▁Sheik	-12.2197
▁Roche	-12.2198
▁Model	-12.2198
▁McCla	-12.2198
▁dash	-12.2198
▁modifi	-12.2198
▁revoke	-12.2198
▁navigat	-12.2198
▁dimensional	-12.2199
▁cement	-12.2199
▁Ryo	-12.22
▁cull	-12.22
▁feline	-12.22
▁Diwa	-12.2201
▁depiction	-12.2201
▁physicist	-12.2201
▁tyrann	-12.2202
▁temper	-12.2202
▁Bau	-12.2202
▁weightless	-12.2202
▁Cypr	-12.2202
▁Hal	-12.2203
▁worm	-12.2203
▁Eurosta	-12.2203
▁Llo	-12.2203
schle	-12.2204
fest	-12.2205
▁coward	-12.2205
▁purge	-12.2205
▁Hernan	-12.2205
▁compatible	-12.2206
etcher	-12.2206
▁reef	-12.2207
▁matchup	-12.2207
▁thorn	-12.2207
▁tri	-12.2207
▁mountainside	-12.2207
▁Turkmen	-12.2208
▁Sound	-12.2209
▁groom	-12.221
▁viewing	-12.221
▁abductee	-12.2211
▁wrestler	-12.2211
▁sniff	-12.2213
▁downward	-12.2213
▁hugg	-12.2213
ipper	-12.2214
▁usher	-12.2215
gery	-12.2217
▁defy	-12.2218
▁Hogan	-12.2219
jin	-12.2219
▁capita	-12.222
▁counselor	-12.222
▁Blu	-12.2223
▁Petro	-12.2223
▁stark	-12.2223
▁hospitalization	-12.2224
▁Asha	-12.2225
▁Pi	-12.2226
▁Sreb	-12.2228
▁void	-12.2229
gh	-12.2231
▁thriv	-12.2232
▁Montrea	-12.2232
ridge	-12.2235
▁flexibilit	-12.2235
▁Suva	-12.2237
▁doll	-12.2238
▁Jeon	-12.2238
▁Luna	-12.2239
▁Sien	-12.224
▁unfit	-12.224
▁adolescent	-12.224
LD	-12.2241
▁Corre	-12.2241
▁Hoff	-12.2245
ANSA	-12.2245
▁upward	-12.2245
▁forgive	-12.2245
angle	-12.2247
▁minded	-12.2249
▁Cove	-12.2249
▁Lynd	-12.2251
▁Yog	-12.2253
uot	-12.2255
▁Labo	-12.2255
▁ICE	-12.2257
marked	-12.226
▁Cost	-12.2263
▁Meu	-12.2267
▁Ott	-12.2267
pun	-12.2268
▁frig	-12.227
cow	-12.2272
clusion	-12.2272
▁Drew	-12.2277
▁Kerch	-12.2287
▁Fou	-12.2288
▁bonds	-12.2291
▁Fried	-12.2292
ahir	-12.2298
dida	-12.23
▁Rees	-12.2302
▁skeptical	-12.2302
▁Rajas	-12.2303
owing	-12.2303
▁antiquit	-12.2307
tner	-12.2311
▁mistaken	-12.2313
▁biting	-12.2316
khar	-12.2317
▁processor	-12.232
▁indicator	-12.2326
wai	-12.2326
▁pur	-12.2328
rang	-12.2334
▁curv	-12.2334
vac	-12.2343
used	-12.2349
rap	-12.2351
▁clone	-12.2351
▁Blues	-12.2357
▁Parr	-12.2362
▁booster	-12.2363
▁Does	-12.2363
▁EST	-12.2367
▁Geno	-12.2367
gaz	-12.237
▁activat	-12.2376
nese	-12.2378
hart	-12.2386
▁heroin	-12.2394
▁Bold	-12.2394
▁Pur	-12.2398
▁Clay	-12.2398
▁Lago	-12.2403
▁barb	-12.2406
fre	-12.2406
▁gam	-12.2408
▁va	-12.2411
chu	-12.2415
▁socialist	-12.2423
▁prosecute	-12.2424
▁Tang	-12.2425
wind	-12.2427
▁pessimist	-12.2436
▁Solt	-12.2438
▁abilit	-12.2441
▁Mae	-12.2442
▁lips	-12.2448
oul	-12.2451
▁chatt	-12.2453
▁nest	-12.246
▁SN	-12.2463
▁Bah	-12.2464
▁remed	-12.247
ANA	-12.2474
bee	-12.2474
iot	-12.2478
▁Bron	-12.248
▁Gaul	-12.248
abad	-12.2486
▁Stand	-12.249
▁wir	-12.2492
kia	-12.2496
ovic	-12.25
▁Spokes	-12.2501
▁Mann	-12.2501
quet	-12.2505
aptain	-12.2507
▁liberaliz	-12.2512
AI	-12.2513
nstein	-12.2518
▁shorten	-12.2521
▁sway	-12.2525
▁Dori	-12.2526
▁intrigu	-12.2527
▁Ruba	-12.2529
▁generators	-12.2531
▁Georgian	-12.2532
RC	-12.2532
eep	-12.2532
▁pin	-12.2533
oppo	-12.2536
keeper	-12.2538
niya	-12.2541
▁gunn	-12.2542
▁exhausted	-12.2548
▁Sham	-12.2549
▁freeway	-12.2557
▁notion	-12.2561
chang	-12.2561
▁Biolog	-12.257
decent	-12.258
▁Denn	-12.2581
▁mute	-12.2584
▁bearer	-12.2585
▁Compa	-12.2587
▁spar	-12.2601
▁Dark	-12.2602
▁regulat	-12.2604
hafi	-12.2608
bury	-12.2613
▁pale	-12.2615
▁Hat	-12.2621
aimi	-12.2628
reedom	-12.263
iagra	-12.263
▁fle	-12.2632
▁WM	-12.2634
▁recorder	-12.2637
▁forbidd	-12.2638
MD	-12.2638
▁lander	-12.2639
tech	-12.264
▁cal	-12.2641
egu	-12.2646
▁dear	-12.2648
▁Luck	-12.2651
▁Mun	-12.2652
eef	-12.2656
cini	-12.2658
dron	-12.2661
mam	-12.2663
▁Friends	-12.2671
retz	-12.2678
▁relegat	-12.2681
▁downsiz	-12.2685
ending	-12.2689
ichi	-12.2693
eck	-12.2695
jong	-12.2696
vani	-12.2708
▁stok	-12.2709
list	-12.2712
▁beak	-12.2715
▁Tas	-12.2722
▁vet	-12.2724
▁Mint	-12.273
▁missionar	-12.2735
▁cur	-12.2736
▁disma	-12.2737
▁decreas	-12.2739
▁generator	-12.2741
▁relocat	-12.275
▁athlete	-12.2752
▁Sar	-12.2759
▁reads	-12.276
iac	-12.2762
▁governors	-12.2764
▁calculat	-12.2768
▁Sum	-12.2768
▁expose	-12.2769
▁Demonstrat	-12.2771
▁Bri	-12.2774
rix	-12.2781
▁reuni	-12.2786
mir	-12.2789
▁relat	-12.279
ame	-12.2792
▁mus	-12.2792
▁Gate	-12.2794
▁Shan	-12.2794
▁Alp	-12.2795
▁biograph	-12.2798
imbo	-12.2806
▁employer	-12.2806
olong	-12.2806
▁mill	-12.2807
▁destructi	-12.2809
▁rob	-12.2809
▁miserabl	-12.2816
▁Arl	-12.2824
▁Barr	-12.2829
anu	-12.2829
eek	-12.283
ndell	-12.2832
▁Hor	-12.2849
ishi	-12.285
▁Atta	-12.2852
▁Bra	-12.2852
ahab	-12.2856
VER	-12.2856
chemical	-12.2857
ER	-12.2859
pinning	-12.2859
DR	-12.2859
▁Low	-12.2861
▁DE	-12.2868
▁Rand	-12.287
▁Basin	-12.2872
▁insider	-12.2875
▁Len	-12.2875
lumin	-12.2876
gg	-12.2876
▁integrati	-12.2878
▁cycl	-12.2878
▁Mus	-12.288
▁covert	-12.2881
bbie	-12.2883
▁preach	-12.2885
▁Melan	-12.2887
ID	-12.289
▁metro	-12.2893
pus	-12.2894
▁graduat	-12.2898
zad	-12.29
rticle	-12.2903
load	-12.2904
▁Pett	-12.2906
cluded	-12.2909
▁boundar	-12.2911
▁Robbe	-12.2921
idis	-12.2927
ughl	-12.2929
▁spik	-12.2932
▁Serg	-12.2936
▁ung	-12.2943
▁Fen	-12.2948
▁dive	-12.295
▁ratifi	-12.2958
RA	-12.2965
lift	-12.2965
▁Aj	-12.2968
▁Hano	-12.2968
▁Carol	-12.2973
▁plen	-12.2976
▁Hir	-12.2982
▁interact	-12.2985
▁Gong	-12.2986
lusive	-12.2986
▁suite	-12.2991
elling	-12.2994
position	-12.2998
ving	-12.2999
gye	-12.3002
inos	-12.3009
▁Prison	-12.3011
taek	-12.3017
Chang	-12.3021
utter	-12.3023
▁awake	-12.3024
▁invent	-12.3024
yak	-12.3027
▁Jess	-12.3035
▁Kana	-12.3036
car	-12.3039
rgis	-12.3044
▁Spirit	-12.3045
▁Carolin	-12.305
▁thrive	-12.3051
▁Mang	-12.3051
nction	-12.3051
▁Cl	-12.3053
▁Garr	-12.3056
▁Roth	-12.3058
▁bat	-12.3061
▁TM	-12.3062
▁settlements	-12.3065
▁advoca	-12.3066
▁Bomb	-12.3068
▁profession	-12.3073
ADS	-12.3074
moon	-12.3079
▁Homo	-12.3084
▁Haa	-12.3085
▁Born	-12.3086
▁mechanic	-12.3087
▁divisi	-12.3089
essenger	-12.3091
▁scann	-12.3092
▁implicat	-12.3093
achi	-12.3093
▁obsess	-12.3096
alcon	-12.3096
▁veterinar	-12.3096
rystal	-12.3096
▁JOHAN	-12.3097
▁Kazakh	-12.3097
▁Additional	-12.3097
▁indiscriminate	-12.3097
▁Panmunj	-12.3097
▁curtail	-12.3097
▁demolish	-12.3097
▁disregard	-12.3097
▁fluctuat	-12.3097
▁rebuff	-12.3097
▁Astronaut	-12.3097
▁Berezovsky	-12.3097
▁Dreamliner	-12.3097
▁Glacier	-12.3097
▁Madagascar	-12.3097
▁Professional	-12.3097
▁Tanzania	-12.3097
▁Yugoslav	-12.3097
▁administer	-12.3097
▁appetite	-12.3097
▁bourse	-12.3097
▁churn	-12.3097
▁clergy	-12.3097
▁crawl	-12.3097
▁culprit	-12.3097
▁erratic	-12.3097
▁goddess	-12.3097
▁grasp	-12.3097
▁jetliner	-12.3097
▁leisure	-12.3097
▁loophole	-12.3097
▁memorandum	-12.3097
▁mujah	-12.3097
▁ordinance	-12.3097
▁outflow	-12.3097
▁portfolio	-12.3097
▁souvenir	-12.3097
▁specimen	-12.3097
▁ultimatum	-12.3097
▁outnumber	-12.3097
▁rethink	-12.3097
▁rhino	-12.3097
▁BlackBerr	-12.3097
▁Consider	-12.3097
▁backpack	-12.3097
▁contagio	-12.3097
▁dynamit	-12.3097
▁jelly	-12.3097
▁scoop	-12.3097
▁swirl	-12.3097
▁Gwen	-12.3097
▁abstain	-12.3097
▁trunk	-12.3097
▁Jorge	-12.3097
▁steadfast	-12.3097
▁snapshot	-12.3097
▁mistreat	-12.3097
▁Theatre	-12.3097
▁crab	-12.3097
▁fraudulent	-12.3097
▁unwilling	-12.3097
▁seismic	-12.3098
▁AIR	-12.3098
▁ecsta	-12.3098
▁sleeve	-12.3098
▁Edmund	-12.3098
▁Ericsson	-12.3098
▁Population	-12.3098
▁juice	-12.3098
▁categorical	-12.3098
▁encrypt	-12.3098
▁Clinic	-12.3098
▁cadet	-12.3098
▁fool	-12.3098
eille	-12.3098
▁Thunder	-12.3098
▁chew	-12.3098
▁Boulder	-12.3098
▁Kampu	-12.3098
▁Lieber	-12.3098
▁fetus	-12.3098
▁elbow	-12.3098
atorium	-12.3098
▁preview	-12.3098
▁coloss	-12.3098
▁revel	-12.3098
▁straw	-12.3098
▁cemeter	-12.3098
▁grill	-12.3099
▁nuts	-12.3099
▁Elisa	-12.3099
▁refund	-12.3099
▁sequel	-12.3099
risis	-12.3099
▁birthrate	-12.3099
▁clever	-12.3099
▁resent	-12.3099
▁incur	-12.3099
mith	-12.3099
▁thieves	-12.3099
▁Hosseini	-12.3099
▁McNam	-12.3099
▁cubic	-12.31
▁Guti	-12.31
▁Celebrit	-12.31
▁refrigerator	-12.31
▁muddy	-12.31
▁racket	-12.31
▁Horm	-12.31
emeter	-12.31
ental	-12.31
▁Thoms	-12.31
▁Nova	-12.3101
▁Wheel	-12.3101
▁certifi	-12.3101
▁Cedar	-12.3101
▁headphone	-12.3101
▁rabbit	-12.3102
▁flourish	-12.3102
▁stoppage	-12.3102
▁superjumbo	-12.3102
▁Ruben	-12.3103
▁artwork	-12.3103
▁Kiku	-12.3103
▁marketplace	-12.3103
▁Ivor	-12.3104
▁colonel	-12.3104
▁thankful	-12.3105
▁kyoo	-12.3105
▁feminin	-12.3105
OW	-12.3105
▁Horse	-12.3105
▁electorate	-12.3106
▁innovation	-12.3106
▁billboard	-12.3106
▁colorful	-12.3107
▁Lux	-12.3108
▁banana	-12.3108
▁Pardo	-12.3109
▁Plain	-12.3109
▁Clean	-12.311
▁Natan	-12.311
▁Steel	-12.311
▁Glov	-12.3111
▁equalise	-12.3111
▁Ginger	-12.3111
▁fundamentalist	-12.3112
▁hardline	-12.3112
▁Calder	-12.3113
▁sporadic	-12.3113
▁Brod	-12.3114
▁architecture	-12.3114
▁Yeo	-12.3115
▁Coca	-12.3115
▁cheese	-12.3116
▁escalator	-12.3116
aci	-12.3117
▁supervisor	-12.3118
rag	-12.3118
aver	-12.312
▁motorist	-12.3123
▁classmate	-12.3124
▁pinn	-12.3124
▁airship	-12.3124
▁spaceship	-12.3124
ollea	-12.3127
awful	-12.3127
otherap	-12.3127
▁fundraiser	-12.3127
▁heft	-12.3129
▁ICR	-12.313
▁Gross	-12.313
▁fist	-12.313
▁Dyna	-12.3132
▁Prof	-12.3133
▁carat	-12.3136
▁Fein	-12.3137
▁relate	-12.3142
▁strangl	-12.3143
lar	-12.3145
▁entertainer	-12.3145
▁Clement	-12.3145
bil	-12.3146
▁Maldiv	-12.3146
▁Eisen	-12.3147
▁forceful	-12.315
▁Make	-12.315
▁lapse	-12.315
▁fractur	-12.315
lestero	-12.3151
▁loosen	-12.3153
▁protester	-12.3155
▁rode	-12.3155
▁Takes	-12.3156
omplex	-12.3156
▁Fayya	-12.3157
ines	-12.3158
▁Berr	-12.316
▁commute	-12.3161
▁Carre	-12.3162
▁flagg	-12.3162
▁Card	-12.3162
▁Kraus	-12.3165
▁AAA	-12.3168
worth	-12.3171
▁Money	-12.3178
▁Hyde	-12.3182
lic	-12.3182
▁Porter	-12.3186
mandu	-12.319
▁dismay	-12.3193
▁Hammon	-12.3194
▁brun	-12.3199
▁hog	-12.3199
▁Singaporean	-12.3207
▁hatch	-12.3209
▁migration	-12.3209
onym	-12.3212
league	-12.3213
nipes	-12.3214
▁rash	-12.3214
▁Lind	-12.3214
▁Arabs	-12.3215
▁capitalism	-12.3216
stable	-12.3216
tri	-12.3224
▁Denis	-12.3226
tract	-12.3226
▁nois	-12.3227
tze	-12.3228
▁boob	-12.3231
▁Saga	-12.3232
▁rewrit	-12.3234
▁Sixt	-12.3242
jor	-12.325
▁dresse	-12.3252
▁Start	-12.3254
▁Wear	-12.3254
▁Vo	-12.3255
anni	-12.3259
▁devote	-12.3262
▁banker	-12.3262
▁approache	-12.3268
AGO	-12.3274
▁loser	-12.3289
nold	-12.3289
▁Willi	-12.3292
▁Dis	-12.3296
▁Ker	-12.3304
▁marcher	-12.3312
iti	-12.3315
▁Yun	-12.3316
hin	-12.3317
APE	-12.3321
▁Suf	-12.3322
▁Mauric	-12.3324
adi	-12.3328
tta	-12.3329
▁elevat	-12.3329
▁perish	-12.3332
▁Julian	-12.3335
▁Traveler	-12.3338
oke	-12.3341
▁attendants	-12.3343
▁Patter	-12.3345
young	-12.3346
▁shin	-12.3348
hue	-12.3352
▁Shui	-12.3352
pine	-12.336
▁Das	-12.336
▁deliberat	-12.3366
ira	-12.3368
▁withstand	-12.3368
ori	-12.3376
wall	-12.3377
▁Jun	-12.3378
gram	-12.3379
▁treasur	-12.338
▁lakes	-12.3382
lsan	-12.3384
▁Minorit	-12.3387
vert	-12.3392
ublin	-12.3393
▁complicate	-12.3407
▁verifiabl	-12.3407
mise	-12.3411
▁Moussa	-12.3413
▁Lang	-12.3426
▁bully	-12.3432
▁Ying	-12.3433
▁Tab	-12.3434
▁vent	-12.3435
▁Ethic	-12.3436
▁incorporate	-12.3441
▁Robin	-12.3441
bah	-12.3442
ken	-12.3443
ides	-12.3447
anoma	-12.3447
tenberg	-12.345
ecca	-12.3456
▁Has	-12.3461
RG	-12.3463
▁Wol	-12.3466
▁tract	-12.3466
▁Burg	-12.347
▁Way	-12.3471
wage	-12.3473
ghi	-12.3479
▁Past	-12.348
ternal	-12.3482
▁Corn	-12.3482
▁consolidate	-12.3484
▁Non	-12.3485
▁Anton	-12.3493
uitt	-12.3496
▁complian	-12.3498
usted	-12.3503
▁birdie	-12.3506
▁geo	-12.3514
▁Tzi	-12.3516
▁gentle	-12.3518
▁Mano	-12.3518
▁sacking	-12.3525
rail	-12.3527
ealander	-12.3532
▁Bre	-12.3534
▁printer	-12.3539
▁secretari	-12.3542
ovi	-12.3542
RU	-12.3544
▁Hyo	-12.3546
▁Muha	-12.3549
▁physiolog	-12.3553
iji	-12.3553
ug	-12.3557
▁header	-12.356
elo	-12.3577
▁Shil	-12.3585
▁Tomm	-12.3586
amy	-12.3588
▁vo	-12.3594
▁lip	-12.3601
▁NTS	-12.3606
▁basin	-12.361
▁Sde	-12.3612
▁tumble	-12.3613
iers	-12.3614
CB	-12.3615
▁directions	-12.3615
▁destroyer	-12.3616
lman	-12.3617
iki	-12.3626
▁Creat	-12.3628
▁Fit	-12.3635
dder	-12.3637
zing	-12.3638
▁Ev	-12.3638
▁Leaders	-12.3653
uted	-12.3675
▁Stra	-12.3677
egan	-12.3685
reva	-12.3686
▁predicts	-12.369
uca	-12.369
▁Shen	-12.369
▁Herman	-12.3695
ready	-12.3698
feld	-12.3698
▁Frankl	-12.3702
hoe	-12.3706
▁whiske	-12.3713
rk	-12.3716
fill	-12.3719
▁betray	-12.3722
▁Cat	-12.3733
▁gu	-12.3733
▁flowing	-12.3733
bun	-12.3738
▁Advisor	-12.3738
ges	-12.3741
dez	-12.3742
▁Bam	-12.3742
▁replica	-12.3748
▁gene	-12.3749
▁Kal	-12.3752
▁mire	-12.3756
believ	-12.3762
sahi	-12.3784
anner	-12.3785
▁Nou	-12.3792
▁Joan	-12.3793
▁refin	-12.3794
atherin	-12.3794
▁Bli	-12.3794
soon	-12.3798
ign	-12.3801
▁induce	-12.3805
SE	-12.3809
lab	-12.381
aire	-12.381
▁Bab	-12.3815
▁Tani	-12.3815
▁Exi	-12.3819
hard	-12.3825
▁cele	-12.3839
▁Step	-12.3841
▁BU	-12.3853
▁dominan	-12.3855
suit	-12.3855
▁Duch	-12.3858
ashi	-12.3858
tai	-12.3863
oir	-12.3864
▁greeting	-12.3868
paste	-12.387
yar	-12.387
▁stampede	-12.3876
▁Fonda	-12.3877
▁convict	-12.3881
▁Cana	-12.3881
▁milita	-12.3882
▁foray	-12.3883
vit	-12.3888
gues	-12.389
lain	-12.3895
orrow	-12.3895
quarium	-12.3895
asi	-12.3896
greement	-12.3899
alban	-12.3899
▁Vel	-12.39
mb	-12.3907
nsei	-12.3913
▁attitudes	-12.3916
rop	-12.3921
visibl	-12.3938
▁Imag	-12.3943
PR	-12.3948
ound	-12.395
▁enthusiast	-12.3961
iff	-12.3962
terrestrial	-12.3962
idge	-12.3964
▁detonate	-12.3964
omi	-12.3967
mara	-12.397
▁electro	-12.3975
▁robbe	-12.398
tter	-12.3984
▁Stud	-12.3985
eka	-12.3989
▁hug	-12.399
media	-12.3995
▁Cind	-12.3996
stands	-12.4002
▁Om	-12.4016
blaze	-12.4019
heema	-12.4019
parents	-12.4019
committee	-12.4019
cop	-12.4022
lines	-12.4023
▁Deng	-12.4026
technology	-12.4028
tics	-12.4028
▁Doug	-12.403
▁residenc	-12.4035
▁rebuil	-12.4045
▁neuro	-12.4048
watch	-12.4048
▁Pra	-12.405
▁Nikol	-12.4052
oven	-12.4056
owed	-12.4058
▁Bong	-12.4061
▁magnet	-12.4065
▁sweat	-12.4067
▁prominen	-12.407
fann	-12.407
sphere	-12.4073
▁marker	-12.4075
▁masse	-12.4076
▁anticipate	-12.4077
▁outsider	-12.4079
▁jihad	-12.4083
▁swo	-12.4084
▁conciliat	-12.4085
▁syn	-12.4086
▁waive	-12.4087
▁gag	-12.4088
▁Trin	-12.4089
▁ensu	-12.409
kanit	-12.409
oda	-12.4091
▁flip	-12.4091
▁distract	-12.4093
▁bankrupt	-12.4094
reliminar	-12.4095
▁pediatric	-12.4097
▁buoy	-12.4097
▁affirm	-12.4097
▁spontaneous	-12.4097
▁Account	-12.4097
▁Belarus	-12.4097
▁Djamena	-12.4097
▁Grylls	-12.4097
▁Kashiwa	-12.4097
▁Matthew	-12.4097
▁Netscape	-12.4097
▁absurd	-12.4097
▁complement	-12.4097
▁cuisine	-12.4097
▁disadvantage	-12.4097
▁dysfunction	-12.4097
▁lizard	-12.4097
▁mosquito	-12.4097
▁mutilat	-12.4097
▁pacify	-12.4097
▁revamp	-12.4097
▁rupture	-12.4097
▁sandbag	-12.4097
▁surcharge	-12.4097
▁Elliot	-12.4097
▁paleontologist	-12.4097
▁Alcohol	-12.4097
▁TGV	-12.4097
▁effig	-12.4097
▁telecast	-12.4097
▁wrack	-12.4097
▁Bolivia	-12.4097
▁Rutger	-12.4097
▁Senegal	-12.4097
▁shrunk	-12.4097
▁solemn	-12.4097
▁Elysee	-12.4097
▁detach	-12.4097
▁terrifi	-12.4097
▁prevalen	-12.4097
▁reneg	-12.4097
▁Blaz	-12.4097
▁landlord	-12.4097
▁turbine	-12.4097
▁demographic	-12.4097
▁module	-12.4097
▁Bishop	-12.4097
▁Twitter	-12.4097
▁pelvi	-12.4097
▁pinpoint	-12.4097
▁itinerar	-12.4097
▁newcomer	-12.4098
▁Monitor	-12.4098
▁antenna	-12.4098
▁Tsuyo	-12.4098
▁emphatic	-12.4098
▁relentless	-12.4098
▁vigorous	-12.4098
▁Return	-12.4098
▁brisk	-12.4098
▁minivan	-12.4098
▁commend	-12.4098
▁disconnect	-12.4098
▁bolt	-12.4098
▁germ	-12.4098
▁stymie	-12.4098
▁latitude	-12.4098
▁mimic	-12.4098
▁mortal	-12.4098
uddin	-12.4098
▁Declaration	-12.4098
▁flank	-12.4098
▁Osbourne	-12.4098
▁sitcom	-12.4098
▁Arsha	-12.4098
quille	-12.4098
▁unnerv	-12.4098
▁unfreez	-12.4098
SSELS	-12.4098
▁wrinkle	-12.4098
▁eyewitness	-12.4098
▁reclaim	-12.4098
▁hedge	-12.4098
▁arraignment	-12.4098
▁evict	-12.4099
▁dispel	-12.4099
▁spew	-12.4099
▁Azim	-12.4099
▁screenplay	-12.4099
▁generous	-12.4099
▁sidewalk	-12.4099
▁furious	-12.4099
▁submerg	-12.4099
▁thirty	-12.4099
▁rendition	-12.4099
▁Boat	-12.4099
▁Tigr	-12.41
▁humid	-12.41
▁realign	-12.41
▁stain	-12.41
▁inviting	-12.41
▁Tuls	-12.41
▁Katz	-12.41
▁Yuko	-12.41
▁Could	-12.41
▁condom	-12.41
▁Mitch	-12.41
▁Rocket	-12.41
▁Hamza	-12.4101
▁Harmon	-12.4101
▁drummer	-12.4101
▁Rebel	-12.4101
▁unlock	-12.4102
▁Baek	-12.4102
▁Haq	-12.4102
▁graduation	-12.4102
▁distraction	-12.4102
▁abundan	-12.4102
esterday	-12.4103
▁derive	-12.4103
▁fluid	-12.4103
▁LaS	-12.4103
▁Kirch	-12.4103
▁Rider	-12.4104
▁feast	-12.4104
▁Paek	-12.4104
▁Graz	-12.4104
▁funnel	-12.4104
▁Kinne	-12.4105
▁surgical	-12.4105
▁innovati	-12.4105
▁Copper	-12.4105
▁loung	-12.4106
rches	-12.4106
▁infantry	-12.4107
hapel	-12.4107
▁Taji	-12.4107
kistan	-12.4107
▁Jamestown	-12.4107
▁trek	-12.4107
▁interruption	-12.4108
▁Nobu	-12.4108
▁interceptor	-12.4108
▁Vonn	-12.4109
▁handset	-12.411
▁autobiograph	-12.411
▁audiotape	-12.411
▁distinguish	-12.4111
▁quarte	-12.4111
▁recit	-12.4112
▁totalitarian	-12.4112
▁Listen	-12.4113
▁moderniz	-12.4113
▁wagon	-12.4113
pua	-12.4113
▁feedback	-12.4113
▁Slovakia	-12.4114
▁Tasmania	-12.4114
▁housekeeper	-12.4114
▁Hann	-12.4114
▁woodland	-12.4115
▁Pirate	-12.4115
▁Marx	-12.4115
▁Legal	-12.4115
▁Bett	-12.4116
▁nast	-12.4116
▁blacks	-12.4117
▁Mao	-12.4119
▁intestin	-12.412
▁adjustment	-12.412
rrowhead	-12.412
brew	-12.4121
▁NA	-12.4122
▁Laurent	-12.4123
▁slap	-12.4124
▁rug	-12.4124
▁Mosle	-12.4126
▁adversari	-12.4127
▁flush	-12.4127
▁restructure	-12.4128
▁repressi	-12.4129
tilin	-12.413
▁reconn	-12.4131
▁Sprint	-12.4131
▁cardiov	-12.4131
teau	-12.4131
▁Heather	-12.4132
▁Hair	-12.4133
qb	-12.4135
▁dweller	-12.4138
shu	-12.4138
▁claw	-12.4138
CA	-12.4139
▁Benz	-12.414
▁pluck	-12.414
▁overture	-12.414
iano	-12.4141
▁versa	-12.4141
▁unfor	-12.4141
▁Shaun	-12.4143
uito	-12.4143
▁Tourist	-12.4144
▁Espan	-12.4144
▁solicit	-12.4145
▁firearm	-12.4147
▁Equal	-12.4147
▁Smithson	-12.4148
▁Musta	-12.4151
▁Hid	-12.4151
▁offence	-12.4152
▁genital	-12.4152
▁Eun	-12.4152
▁Estonian	-12.4154
llan	-12.4158
▁Giro	-12.4163
raft	-12.4165
hni	-12.4166
rie	-12.4168
environmentalist	-12.4168
culty	-12.4168
▁Borne	-12.4169
▁horrifi	-12.4169
▁porch	-12.4173
▁brew	-12.4173
▁Personal	-12.4175
▁cro	-12.4175
▁Borg	-12.4179
▁balanc	-12.4181
▁Mara	-12.4183
▁Masha	-12.4187
▁saga	-12.4188
▁directive	-12.419
asia	-12.4199
cable	-12.42
▁ridge	-12.4201
▁Merv	-12.4202
▁Scar	-12.4208
▁Fighter	-12.4208
▁unsur	-12.4212
▁Finding	-12.4213
mega	-12.4214
▁Mako	-12.4216
▁timeline	-12.4217
▁Sophi	-12.4218
nov	-12.4218
▁Naha	-12.4219
▁Depress	-12.4219
▁Hous	-12.422
▁Lotte	-12.4221
tory	-12.4223
▁Being	-12.4224
▁Appa	-12.4225
enne	-12.4227
▁jeopardize	-12.4229
▁Robbi	-12.423
▁Comb	-12.424
▁Name	-12.424
hall	-12.424
make	-12.4241
tractor	-12.4242
▁Ryd	-12.4244
▁Sura	-12.4244
▁swelling	-12.4244
▁outfield	-12.4246
▁commando	-12.4247
▁lame	-12.4249
gro	-12.4249
▁Tsu	-12.4251
▁graz	-12.4252
▁dott	-12.4256
▁Khalil	-12.4257
rdin	-12.4258
▁Merck	-12.4263
▁Ull	-12.4265
▁Naf	-12.427
yette	-12.4277
▁List	-12.4282
▁Carbo	-12.4283
▁Gregor	-12.4283
oun	-12.4283
▁ME	-12.4286
▁suck	-12.4294
▁Giz	-12.4294
▁gutt	-12.4296
▁admire	-12.4297
▁endless	-12.4297
▁Adrian	-12.4297
▁Gir	-12.4301
▁candles	-12.4302
▁Venet	-12.4304
▁Allah	-12.4305
gara	-12.4306
▁licens	-12.4307
▁cott	-12.4307
veh	-12.4308
▁deserv	-12.4313
▁ca	-12.4313
rga	-12.4318
▁conscript	-12.4321
▁GE	-12.4323
reach	-12.4323
SN	-12.4328
gra	-12.433
▁Shaha	-12.4333
▁specialize	-12.4337
▁Adm	-12.4339
drome	-12.4342
▁tablet	-12.4342
teractive	-12.4343
▁Parkin	-12.4346
nforcement	-12.4351
▁Barad	-12.4355
▁Chiap	-12.4355
▁Pir	-12.4356
arve	-12.4357
▁Sandr	-12.4359
▁assumption	-12.436
▁Hadi	-12.4361
▁normalize	-12.4363
▁Lek	-12.4367
▁uncla	-12.4369
▁Onta	-12.4372
gged	-12.4373
▁injure	-12.4376
▁Lex	-12.4381
▁sock	-12.4387
▁summar	-12.4391
▁merchandise	-12.4395
▁Button	-12.4403
▁controller	-12.4408
SI	-12.4411
▁Bess	-12.4415
▁shade	-12.4416
▁Bashir	-12.4423
▁tur	-12.4424
oise	-12.4425
etz	-12.4428
glio	-12.4431
▁pitcher	-12.4433
▁Baba	-12.4436
ameter	-12.4443
▁Popula	-12.4444
▁imagin	-12.4449
emin	-12.4451
▁Sol	-12.4451
▁Devi	-12.4455
rel	-12.4457
pur	-12.4458
aptop	-12.4469
▁Advisors	-12.4475
▁geologic	-12.4475
aria	-12.4477
lock	-12.4482
tal	-12.449
▁Kost	-12.449
▁prot	-12.4496
uro	-12.4499
▁Natali	-12.45
▁Pace	-12.4502
▁Idi	-12.4503
▁retiree	-12.4504
FLD	-12.4507
pulsion	-12.4508
▁dar	-12.4512
ubei	-12.4514
▁scarce	-12.4515
olonel	-12.4517
▁motivate	-12.4519
▁Francesc	-12.452
carf	-12.4525
erp	-12.4527
▁exceeding	-12.4529
▁hijacking	-12.4533
▁infuriat	-12.4536
▁preside	-12.4538
▁redistribut	-12.4547
els	-12.4553
▁Mind	-12.4555
hab	-12.456
▁clima	-12.4563
▁Abd	-12.4572
▁Tat	-12.4572
lli	-12.4578
CLA	-12.4581
▁reunifi	-12.4581
▁Eri	-12.4581
▁Hunting	-12.4584
tisa	-12.4587
▁Piro	-12.4587
▁angri	-12.4594
▁gods	-12.4597
BRU	-12.4598
uang	-12.4604
▁abound	-12.4608
▁Seo	-12.4609
rnab	-12.4616
▁indecen	-12.4625
▁unp	-12.4626
riq	-12.4626
evic	-12.4627
▁Rings	-12.4627
yze	-12.4628
▁dishe	-12.4629
otic	-12.463
▁Rib	-12.4631
ammar	-12.4642
▁hwa	-12.4654
▁toleran	-12.4658
▁Dub	-12.4663
▁phon	-12.4663
▁escalate	-12.4663
icker	-12.4665
fusion	-12.4668
▁Colon	-12.4671
iver	-12.4678
▁cater	-12.4679
track	-12.4681
▁KA	-12.469
azar	-12.4692
▁Tenn	-12.4694
▁educate	-12.4701
▁Sub	-12.4717
pecies	-12.4717
▁Dai	-12.4735
▁Gert	-12.4736
▁sca	-12.4739
▁adulter	-12.4753
▁liberate	-12.4754
▁Ski	-12.4756
iat	-12.4763
▁OS	-12.4779
▁originat	-12.478
▁reserv	-12.4788
▁launche	-12.4789
owler	-12.48
▁Spokesm	-12.4801
▁beg	-12.4804
▁misus	-12.4813
▁Claud	-12.4814
effer	-12.483
▁Tama	-12.4834
▁dare	-12.4841
▁wonders	-12.4841
dam	-12.4847
▁inability	-12.4852
▁pressur	-12.4856
▁Soli	-12.4856
ML	-12.4858
▁Gila	-12.486
▁detainee	-12.4866
▁Cre	-12.4871
▁mur	-12.4874
▁Pet	-12.4876
yah	-12.4879
▁Satt	-12.4888
pecialist	-12.489
▁Aero	-12.4893
arra	-12.4895
▁Natal	-12.4898
▁Cau	-12.4899
▁PE	-12.4908
ryl	-12.4908
▁casting	-12.4916
ANE	-12.4921
▁Ring	-12.4923
roz	-12.4925
flation	-12.4925
OL	-12.4926
▁correction	-12.4927
accessib	-12.4928
NC	-12.4935
▁Karr	-12.4941
mal	-12.4942
cchi	-12.4946
▁ju	-12.4953
gay	-12.4954
▁intra	-12.4957
▁Meri	-12.4959
say	-12.4964
bard	-12.4968
▁MR	-12.497
▁qua	-12.497
anyon	-12.4973
▁Firef	-12.4973
▁toddlers	-12.4975
tress	-12.4984
▁fume	-12.4987
▁conven	-12.499
rchbishop	-12.4995
▁aspir	-12.4996
wha	-12.4998
▁stipulate	-12.5007
science	-12.5008
mendment	-12.5009
▁rocker	-12.501
py	-12.502
word	-12.5022
▁merg	-12.5022
▁prep	-12.5026
▁matur	-12.5027
tmospher	-12.5027
▁Cour	-12.5028
thura	-12.5034
▁bun	-12.5037
▁Cu	-12.5037
▁behave	-12.5039
▁attribute	-12.5041
AND	-12.5045
unker	-12.5048
▁satisfy	-12.5051
▁RS	-12.5053
eij	-12.5054
▁aggravate	-12.5054
▁homi	-12.5056
▁Vik	-12.5057
▁beneficia	-12.5057
rescent	-12.5061
▁Coo	-12.5072
▁Pine	-12.5081
TN	-12.5086
▁exclude	-12.5093
▁gr	-12.5093
icho	-12.5095
dental	-12.51
peculation	-12.5104
▁bras	-12.5106
▁Pl	-12.511
▁Malt	-12.511
▁Az	-12.5111
MO	-12.5113
▁Alf	-12.5117
▁Alban	-12.5122
▁Circ	-12.5123
ARAC	-12.5124
convenient	-12.5126
hould	-12.5129
adequate	-12.5129
accurate	-12.5129
government	-12.513
spring	-12.513
economic	-12.5131
bridge	-12.5131
GM	-12.5131
season	-12.5131
daughter	-12.5132
help	-12.5132
▁Writ	-12.5133
style	-12.5133
effective	-12.5136
sults	-12.5139
wanted	-12.5139
▁salvage	-12.514
▁PS	-12.5141
▁Bac	-12.5142
▁entertain	-12.5144
roar	-12.5145
trategic	-12.5147
sense	-12.5148
affected	-12.515
▁Bru	-12.5151
▁petro	-12.5154
heard	-12.5155
mber	-12.5156
▁col	-12.5158
▁suicid	-12.516
▁Stones	-12.5163
match	-12.5164
▁mobilize	-12.5165
NS	-12.5165
▁Nadi	-12.5167
chon	-12.5168
kwan	-12.5175
▁Luz	-12.5177
▁burge	-12.5177
▁Sc	-12.5178
span	-12.518
▁Contra	-12.5182
▁nano	-12.5184
▁Americ	-12.5185
itzer	-12.5192
obacco	-12.5193
sunami	-12.5193
▁cite	-12.5196
▁steppe	-12.5197
▁snub	-12.5197
▁Nan	-12.52
▁lava	-12.52
▁Carli	-12.5201
ight	-12.5201
▁Byr	-12.5202
bian	-12.5203
▁ancest	-12.5203
agazine	-12.5204
▁pharmac	-12.5205
▁compress	-12.5205
▁cliff	-12.5206
▁Marlboro	-12.5206
mple	-12.5207
▁Person	-12.5207
lobo	-12.5207
imeter	-12.5208
▁scour	-12.5208
▁Certain	-12.5208
▁McLe	-12.5208
▁precarious	-12.5208
hygien	-12.5208
▁Daimler	-12.5208
▁Eagle	-12.5208
▁Escape	-12.5208
▁Fashion	-12.5208
▁IRS	-12.5208
▁Liechtenstein	-12.5208
▁Magistrate	-12.5208
▁Princip	-12.5208
▁Suspect	-12.5208
▁Uruguay	-12.5208
▁apprehend	-12.5208
▁cheetah	-12.5208
▁demolition	-12.5208
▁derelict	-12.5208
▁detergent	-12.5208
▁eclipse	-12.5208
▁entrepreneur	-12.5208
▁exacerbat	-12.5208
▁handcuff	-12.5208
▁kilowatt	-12.5208
▁nickel	-12.5208
▁procure	-12.5208
▁recharge	-12.5208
▁recipient	-12.5208
▁remittance	-12.5208
▁shepherd	-12.5208
▁susceptib	-12.5208
▁unravel	-12.5208
▁vicinity	-12.5208
▁Evolution	-12.5209
▁Magoni	-12.5209
▁McClinto	-12.5209
▁banteng	-12.5209
▁encircl	-12.5209
▁gigabyte	-12.5209
▁hemorrhag	-12.5209
▁manhunt	-12.5209
▁whirl	-12.5209
▁classify	-12.5209
▁narco	-12.5209
▁nonviolen	-12.5209
▁Marriot	-12.5209
▁imbalance	-12.5209
▁jockey	-12.5209
▁malicious	-12.5209
▁minibus	-12.5209
▁Fioren	-12.5209
▁Legend	-12.5209
▁suffocat	-12.5209
▁Aviv	-12.5209
▁Wilkins	-12.5209
▁bulldozer	-12.5209
▁glory	-12.5209
▁gymnast	-12.5209
▁friction	-12.5209
▁graveyard	-12.5209
▁smear	-12.5209
▁taunt	-12.5209
▁theoretical	-12.5209
uestions	-12.5209
▁injustice	-12.5209
▁twel	-12.5209
▁conspirator	-12.5209
▁discord	-12.5209
▁biometric	-12.5209
▁stitche	-12.5209
▁entail	-12.5209
▁pupil	-12.5209
▁cosmetic	-12.5209
▁marvel	-12.5209
nthia	-12.5209
▁Inspector	-12.5209
▁warrior	-12.5209
▁dissent	-12.5209
▁gaffe	-12.5209
▁Brief	-12.5209
▁Weekend	-12.5209
▁covet	-12.5209
▁Spider	-12.5209
▁carnival	-12.5209
▁ATM	-12.5209
▁Mukas	-12.5209
▁pizz	-12.5209
▁Idris	-12.5209
▁snowstorm	-12.5209
▁Obeid	-12.5209
▁Gartner	-12.5209
▁screw	-12.5209
▁Antw	-12.5209
▁essay	-12.5209
▁masterpiece	-12.5209
▁Monster	-12.5209
▁ventilat	-12.5209
▁grievance	-12.5209
▁spider	-12.5209
▁nongovernment	-12.5209
▁chipmaker	-12.5209
▁Neighbor	-12.5209
▁accommodation	-12.5209
▁Hoop	-12.521
▁preemptive	-12.521
▁Reform	-12.521
▁Transformers	-12.521
▁czar	-12.521
▁chapel	-12.521
▁eavesdropp	-12.521
▁Brewer	-12.521
▁Launch	-12.521
▁overreact	-12.521
▁sift	-12.521
▁luxurious	-12.521
▁valve	-12.521
▁Negotiation	-12.521
▁wiretapp	-12.521
▁primate	-12.521
▁scout	-12.521
▁invoke	-12.5211
▁pause	-12.5211
▁interstate	-12.5211
▁tamper	-12.5211
▁Clover	-12.5211
▁termination	-12.5211
▁compass	-12.5211
▁polite	-12.5211
▁pinch	-12.5211
ech	-12.5211
▁airlift	-12.5211
▁fringe	-12.5211
▁cremation	-12.5211
▁Ellis	-12.5212
▁Milos	-12.5212
▁entice	-12.5212
▁Cloud	-12.5212
▁paw	-12.5212
▁Jaip	-12.5212
▁Vander	-12.5212
▁exemption	-12.5212
▁carving	-12.5212
▁dumpling	-12.5213
geous	-12.5213
▁LaB	-12.5213
▁Hashem	-12.5213
rou	-12.5213
▁Yuca	-12.5213
▁flawless	-12.5213
wich	-12.5213
▁Holz	-12.5213
▁toxin	-12.5213
opa	-12.5213
▁LLC	-12.5213
▁Akh	-12.5214
▁tee	-12.5214
▁elevation	-12.5214
▁Territor	-12.5214
▁Maxim	-12.5214
▁downpour	-12.5215
▁Grin	-12.5215
▁Smart	-12.5216
▁doctrine	-12.5216
▁curricul	-12.5216
▁Jabal	-12.5216
▁penaliz	-12.5216
▁cache	-12.5216
chett	-12.5216
pponents	-12.5217
▁Foster	-12.5217
▁Stau	-12.5217
▁maul	-12.5217
▁fiance	-12.5217
▁novelist	-12.5217
▁McCle	-12.5217
▁jolt	-12.5217
▁booth	-12.5218
▁Refer	-12.5218
▁aspiration	-12.5218
▁decoration	-12.5219
▁organism	-12.522
elieve	-12.522
choa	-12.522
▁Simpl	-12.522
▁cynical	-12.5221
▁hoard	-12.5221
rogba	-12.5221
▁audition	-12.5221
diari	-12.5221
▁alligator	-12.5222
▁Casa	-12.5223
▁Yuri	-12.5223
▁premeditat	-12.5223
▁Locke	-12.5223
▁composition	-12.5224
▁respectful	-12.5225
▁veil	-12.5225
▁knot	-12.5226
▁destin	-12.5226
▁chem	-12.5226
▁Maggi	-12.5226
▁barber	-12.5226
▁Panda	-12.5227
▁Mongolia	-12.5227
▁adorn	-12.5227
guel	-12.5227
▁Cair	-12.5229
▁Rubin	-12.5229
▁Factor	-12.523
tis	-12.5232
▁Heller	-12.5232
▁Rale	-12.5235
▁dair	-12.5236
▁Nat	-12.5237
▁runaway	-12.5238
▁Hath	-12.5238
▁Hyn	-12.5238
▁reap	-12.5238
▁insert	-12.524
▁Weiss	-12.524
▁Wax	-12.524
▁Horn	-12.524
▁worshipper	-12.524
▁bugg	-12.524
▁worthless	-12.5241
▁mold	-12.5241
TRA	-12.5241
▁Fiji	-12.5241
▁Met	-12.5242
▁Wheat	-12.5243
▁overpower	-12.5245
▁kisses	-12.5245
▁Revere	-12.5246
▁Moai	-12.5246
▁Taka	-12.5246
▁Mello	-12.5246
▁Map	-12.5247
▁ayurved	-12.5247
▁Hayd	-12.5247
▁arrow	-12.5248
▁merc	-12.5248
▁Cliff	-12.5248
▁Grove	-12.5248
▁vulnerabilit	-12.5249
▁buff	-12.5249
vara	-12.525
▁contributor	-12.525
▁Hashim	-12.5252
▁Alessandr	-12.5252
▁verge	-12.5253
▁meddl	-12.5255
okou	-12.5255
▁dangl	-12.5255
▁reper	-12.5256
pick	-12.5256
▁Face	-12.5257
▁Lau	-12.5258
▁tram	-12.5259
dard	-12.5259
▁rework	-12.5259
▁bot	-12.5261
▁erode	-12.5261
▁Tao	-12.5261
▁anthropolog	-12.5262
▁Safe	-12.5262
▁Leon	-12.5264
▁Sign	-12.5264
ngchon	-12.5266
▁Naka	-12.5266
▁maid	-12.5267
▁Latino	-12.5269
▁Hadn	-12.5271
▁Wald	-12.5274
▁pie	-12.5275
▁Joon	-12.5275
joy	-12.5276
▁Calv	-12.5277
cker	-12.5277
▁Lombard	-12.5277
▁Walt	-12.5278
▁alga	-12.5278
▁Campo	-12.5279
▁necessity	-12.528
▁scanner	-12.5283
▁rightful	-12.5283
▁NY	-12.5285
▁widower	-12.5286
▁Bolsh	-12.5287
▁slick	-12.5287
▁breez	-12.5287
mark	-12.5291
zar	-12.5292
▁Plann	-12.5293
▁citation	-12.5294
▁institutional	-12.5295
▁amass	-12.5296
▁Farmer	-12.5296
▁DI	-12.5297
▁Gray	-12.5298
▁Mende	-12.5301
▁Tries	-12.5302
▁Yoshi	-12.5302
illian	-12.5303
▁compromis	-12.5307
▁forge	-12.531
▁unifi	-12.531
▁designation	-12.531
▁Santor	-12.531
dog	-12.5311
▁taek	-12.5312
▁Bee	-12.5314
▁Vern	-12.5314
▁satisfactor	-12.5316
▁penetrat	-12.5316
news	-12.5317
weight	-12.5317
▁lumin	-12.5317
jid	-12.5318
▁Aq	-12.5318
▁Kristin	-12.532
▁emitter	-12.532
▁insurer	-12.5321
▁tit	-12.5327
cock	-12.5331
▁Heng	-12.5331
▁unha	-12.5332
▁ashes	-12.5333
uil	-12.5334
▁damp	-12.5337
▁Sander	-12.5337
▁Lauren	-12.5339
▁shutter	-12.5339
orne	-12.5343
badi	-12.5344
▁Nie	-12.5344
ATION	-12.5345
uel	-12.535
▁Mwan	-12.535
▁Marul	-12.5351
▁Berger	-12.5351
umu	-12.5355
▁Lankan	-12.5358
▁beneficiar	-12.5363
▁Santos	-12.5363
▁Chai	-12.537
▁sharpen	-12.5372
▁Rule	-12.5375
gawa	-12.5379
▁initiate	-12.5382
ilja	-12.5382
▁Wolfe	-12.5387
▁Petr	-12.5388
ltz	-12.5395
▁defus	-12.5399
▁molecul	-12.5399
▁Normal	-12.5403
▁MS	-12.5406
▁Goul	-12.5406
▁hiker	-12.5407
▁undertake	-12.5412
▁Crowd	-12.5414
▁herb	-12.5414
itch	-12.5417
slaughter	-12.5421
gher	-12.5427
igan	-12.5429
predictabl	-12.5429
▁perk	-12.5431
ased	-12.5432
gby	-12.5436
▁downside	-12.5442
▁Fame	-12.5444
▁Helms	-12.5444
ex	-12.5445
▁Yin	-12.5446
▁Dogs	-12.5446
cak	-12.5448
ourage	-12.5452
ERA	-12.5454
▁Ly	-12.5455
ingles	-12.547
afe	-12.5473
▁sla	-12.5475
▁Ami	-12.5479
▁Too	-12.548
▁Vid	-12.5484
▁visitation	-12.5486
▁Vill	-12.5487
▁fri	-12.5487
▁Krist	-12.5491
▁Teen	-12.5493
PB	-12.5497
▁hydra	-12.55
magine	-12.5501
▁nu	-12.5505
▁Shir	-12.5508
▁Hanu	-12.5513
iyan	-12.5514
▁Kup	-12.5519
▁hon	-12.5522
▁Bana	-12.5525
▁Branc	-12.5528
▁Band	-12.5529
▁skirt	-12.5536
▁coupons	-12.5542
▁yachts	-12.5543
▁piled	-12.5544
arro	-12.5546
▁dictate	-12.5554
table	-12.5555
▁Employe	-12.5557
▁forci	-12.5557
nar	-12.5558
▁wade	-12.556
▁Pass	-12.5563
▁Marian	-12.5564
▁discourage	-12.5565
▁Wilder	-12.5568
▁servers	-12.5571
▁poke	-12.5575
▁persecut	-12.5576
▁Ing	-12.5577
aj	-12.5577
train	-12.5577
lat	-12.5581
▁Anni	-12.5582
cott	-12.5582
urious	-12.5589
▁Hand	-12.5593
hap	-12.5594
TAM	-12.5605
▁Lag	-12.5607
▁Bait	-12.561
▁poet	-12.5618
ormula	-12.562
mperial	-12.5624
boy	-12.5625
riano	-12.5628
▁Mok	-12.5629
▁examples	-12.563
lier	-12.5631
ethy	-12.5639
▁Barb	-12.5645
▁stimulat	-12.5648
▁Boc	-12.5656
▁whisk	-12.5658
▁defamat	-12.5659
▁Prob	-12.5661
ENS	-12.5663
tical	-12.5665
▁cosm	-12.5667
▁holi	-12.5668
gart	-12.5671
▁Seb	-12.5674
▁Gat	-12.5675
▁Reg	-12.5676
▁grie	-12.5681
hei	-12.5682
▁Gra	-12.5692
iding	-12.5695
▁breeder	-12.5697
▁curl	-12.5698
yud	-12.5704
▁herald	-12.5708
ashes	-12.5714
▁Ac	-12.5717
lop	-12.5721
▁fade	-12.5724
eller	-12.5724
veral	-12.5727
▁Reina	-12.5732
slow	-12.574
▁extort	-12.5742
▁Deco	-12.5742
mund	-12.5743
fsha	-12.5743
▁dodg	-12.5747
▁hol	-12.5748
wn	-12.5748
ute	-12.5749
▁awe	-12.575
▁Mull	-12.5751
▁Heat	-12.5755
▁Promoti	-12.576
▁fluor	-12.5762
▁swell	-12.5772
▁compile	-12.5775
▁trafficker	-12.5778
▁Mayo	-12.5778
▁verse	-12.578
▁facilitat	-12.5782
napp	-12.5786
poly	-12.5789
▁Jenn	-12.5792
▁Frederic	-12.5794
▁Hi	-12.5799
lves	-12.5804
▁ru	-12.5804
robe	-12.5807
▁tallie	-12.5811
uga	-12.5811
▁Cali	-12.582
nacio	-12.5831
yad	-12.5847
enay	-12.5849
▁Kra	-12.5852
lus	-12.5853
osis	-12.586
wak	-12.5861
▁Via	-12.5861
uant	-12.5862
▁underse	-12.587
▁illuminat	-12.5876
▁Sac	-12.5881
▁Si	-12.5887
bly	-12.5888
holder	-12.5893
▁Meg	-12.5901
reb	-12.5905
omo	-12.5923
rama	-12.5924
▁Cristi	-12.5926
▁PET	-12.5928
▁Fil	-12.5928
▁skier	-12.5928
▁insur	-12.5929
gainst	-12.5941
▁legislat	-12.5943
▁Levin	-12.5949
kar	-12.5954
▁frustrate	-12.5974
▁structur	-12.5974
ymo	-12.5979
▁abide	-12.5981
▁dodge	-12.5982
IO	-12.5985
posed	-12.5996
PC	-12.5997
▁ignite	-12.5998
▁Thor	-12.5999
▁Maur	-12.6002
▁gil	-12.6002
▁Wide	-12.6006
▁Range	-12.6007
▁Turki	-12.6007
▁blockbusters	-12.6008
▁psycho	-12.6011
dler	-12.6014
▁Hoy	-12.6015
▁lamp	-12.6016
iar	-12.6017
pag	-12.6025
▁roadway	-12.6031
▁vindicat	-12.6033
▁Ele	-12.6035
▁camel	-12.6037
▁glea	-12.6044
▁subsidiz	-12.6049
dian	-12.6051
▁alleviate	-12.6056
▁Race	-12.6057
iq	-12.6058
▁drawings	-12.6064
closure	-12.6069
aba	-12.6071
isch	-12.6072
▁Ply	-12.6072
▁Kau	-12.6073
▁hyp	-12.6078
▁Page	-12.6078
▁tremor	-12.6081
rill	-12.6082
▁hurdle	-12.609
▁yacht	-12.6093
▁deteriorate	-12.6093
▁upgrad	-12.6093
▁terminate	-12.6101
comm	-12.6103
▁accomplishment	-12.6104
▁ge	-12.6104
▁brace	-12.6106
cio	-12.6108
▁repress	-12.6109
▁pal	-12.611
▁whaler	-12.6115
comfortabl	-12.612
▁Dani	-12.6128
▁pillar	-12.6129
▁arc	-12.6133
▁Eu	-12.6137
▁reproduc	-12.6138
▁bor	-12.6138
▁inconvenience	-12.6141
▁Aba	-12.6144
gie	-12.6144
souf	-12.6145
kel	-12.6155
makers	-12.6157
▁Basic	-12.6159
▁Hale	-12.6161
▁Christo	-12.6163
ubb	-12.6175
aq	-12.6176
▁Danc	-12.6177
▁begg	-12.6178
▁CHI	-12.6179
uinn	-12.6179
▁Limon	-12.618
▁Hamm	-12.6181
illo	-12.6185
ection	-12.6194
▁DM	-12.6195
win	-12.6201
▁proteins	-12.6201
▁lieutenants	-12.6201
▁coupon	-12.6207
▁trends	-12.6209
aida	-12.6209
▁Fo	-12.6216
▁Sad	-12.6223
erno	-12.6224
▁inflat	-12.6224
▁Kwa	-12.6232
NP	-12.6233
cast	-12.6233
raped	-12.6233
CIO	-12.624
ately	-12.6247
▁stretche	-12.6252
▁Bit	-12.6254
▁Cra	-12.6256
▁Ols	-12.6261
▁Norm	-12.6263
gers	-12.6263
solution	-12.6265
▁tab	-12.6267
dah	-12.6278
▁commut	-12.6281
▁collaborat	-12.6285
now	-12.6287
enberg	-12.6291
▁intimidati	-12.6294
liga	-12.6295
core	-12.6301
thma	-12.6307
rock	-12.631
▁Mous	-12.6311
stad	-12.6316
kes	-12.6316
IT	-12.6316
▁kin	-12.6328
sche	-12.633
▁prim	-12.6335
▁fr	-12.6337
▁Hacke	-12.6348
midt	-12.6348
▁Saba	-12.6352
kull	-12.6353
urveill	-12.6353
cientific	-12.6353
▁stereo	-12.6355
▁Cent	-12.6365
nourishe	-12.6366
▁euthan	-12.6366
▁Levi	-12.6368
▁logic	-12.637
VP	-12.637
▁Stac	-12.637
cube	-12.6372
walk	-12.6377
Works	-12.6377
realistic	-12.6378
pour	-12.6378
tooth	-12.6379
▁thrust	-12.6379
stroke	-12.638
historic	-12.638
▁spoil	-12.6381
graduate	-12.6381
swam	-12.6385
▁hun	-12.6385
▁fracture	-12.6385
reason	-12.6387
case	-12.6388
reconcil	-12.6391
▁extradite	-12.6392
▁Wind	-12.6394
▁temp	-12.6394
▁LI	-12.6395
guid	-12.6396
gam	-12.6401
▁satisfact	-12.6403
▁enthusias	-12.6404
lara	-12.6408
▁GA	-12.6409
emic	-12.641
zhn	-12.6411
▁huddl	-12.6413
▁Audi	-12.6417
▁shine	-12.6424
uth	-12.6425
HP	-12.6427
unda	-12.6427
▁precis	-12.6427
▁Astro	-12.6429
adh	-12.6429
▁conf	-12.643
embe	-12.643
assim	-12.6433
▁jeo	-12.6437
▁disast	-12.6438
rude	-12.6438
▁Flore	-12.644
▁fabric	-12.6441
▁Alto	-12.6441
uppe	-12.6442
▁numb	-12.6443
▁rev	-12.6443
antas	-12.6445
▁scrub	-12.6446
▁drops	-12.6447
▁Vas	-12.6448
▁snag	-12.6448
▁Morris	-12.6449
into	-12.6452
▁flour	-12.6452
▁eject	-12.6453
slaught	-12.6453
iston	-12.6454
▁calib	-12.6454
▁reconstruct	-12.6454
▁Ike	-12.6454
▁RF	-12.6454
▁expedit	-12.6455
▁registr	-12.6456
etsk	-12.6456
▁wis	-12.6456
ILA	-12.6456
attalion	-12.6456
▁cripple	-12.6457
aliban	-12.6458
▁Lef	-12.6458
igital	-12.6458
▁clarifi	-12.6458
funct	-12.6458
▁blatant	-12.6458
▁brazen	-12.6458
▁immoral	-12.6458
▁incorrect	-12.6458
▁stupid	-12.6458
▁Admiral	-12.6458
▁Bombardier	-12.6458
▁Chechnya	-12.6458
▁Montenegr	-12.6458
▁Pablo	-12.6458
▁Prefectur	-12.6458
▁cogniti	-12.6458
▁dilemma	-12.6458
▁encroach	-12.6458
▁fountain	-12.6458
▁gharial	-12.6458
▁involuntar	-12.6458
▁jaguar	-12.6458
▁lodging	-12.6458
▁modify	-12.6458
▁mudslide	-12.6458
▁octopus	-12.6458
▁permafrost	-12.6458
▁pesticide	-12.6458
▁picnic	-12.6458
▁reprimand	-12.6458
▁scapegoat	-12.6458
▁shroud	-12.6458
▁straddl	-12.6458
▁subtitle	-12.6458
▁tarnish	-12.6458
▁trampled	-12.6458
▁tumult	-12.6458
▁underestimat	-12.6458
▁uninhabit	-12.6458
▁CJD	-12.6459
▁Scully	-12.6459
▁Success	-12.6459
▁fortunate	-12.6459
▁glorify	-12.6459
▁mishandl	-12.6459
▁nullify	-12.6459
▁occupy	-12.6459
▁regroup	-12.6459
▁reschedul	-12.6459
▁tirade	-12.6459
▁tweak	-12.6459
▁unpleasant	-12.6459
▁Confiden	-12.6459
▁Ordinar	-12.6459
▁Railroad	-12.6459
▁avatar	-12.6459
▁kennel	-12.6459
▁niece	-12.6459
▁outsourc	-12.6459
▁remorse	-12.6459
▁Cambridge	-12.6459
▁Mahmud	-12.6459
▁polygam	-12.6459
▁Alegr	-12.6459
▁grape	-12.6459
▁indigen	-12.6459
▁loath	-12.6459
▁thirst	-12.6459
▁Explosive	-12.6459
▁Reeves	-12.6459
▁conversion	-12.6459
[...]
