<pad>	0
<s>	0
</s>	0
<unk>	0
▁.	-3.22182
을	-3.60207
는	-3.74919
의	-3.77174
은	-3.9953
▁	-3.99948
를	-4.08303
가	-4.35645
▁,	-4.43575
에	-4.44543
이	-4.46779
고	-4.72822
에서	-5.15376
한	-5.1676
로	-5.20308
▁이	-5.26129
▁일	-5.2762
인	-5.30872
▁그	-5.36014
▁있다	-5.46344
으로	-5.47509
과	-5.49877
▁고	-5.5799
와	-5.58167
도	-5.64425
▁수	-5.65834
▁밝혔다	-5.71581
▁말했다	-5.73892
할	-5.80942
▁년	-5.89076
▁있는	-5.91719
하고	-5.97336
지	-6.03612
다	-6.11088
▁전	-6.19194
▁대한	-6.21813
했다	-6.23552
▁위해	-6.23785
하는	-6.24877
▁이번	-6.29224
▁미국	-6.30996
▁전했다	-6.31396
▁월	-6.32189
▁한	-6.32685
▁지난	-6.39087
▁현지시간	-6.41952
▁정부	-6.42947
며	-6.43791
▁대해	-6.49347
▁미	-6.53528
▁며	-6.53612
던	-6.53934
▁중	-6.55263
해	-6.56738
된	-6.57265
▁것으로	-6.57303
기	-6.57639
▁명	-6.58184
나	-6.59269
▁것	-6.59683
▁명이	-6.60691
에게	-6.61104
▁것이라고	-6.62415
▁있다고	-6.69075
으며	-6.69369
▁그러나	-6.71019
▁것을	-6.72036
히	-6.76317
▁더	-6.76814
▁이라크	-6.77659
스	-6.80925
s	-6.83988
▁다른	-6.84615
게	-6.84998
자	-6.87875
▁명의	-6.87943
▁대통령	-6.90725
하게	-6.9231
▁중국	-6.92596
운	-6.94503
▁한편	-6.95979
이다	-6.96213
▁북한	-6.98823
▁또	-6.9931
▁이라고	-6.99517
▁약	-6.99548
▁만	-7.00431
▁주	-7.00874
▁오바마	-7.00988
지만	-7.012
▁경찰	-7.03979
▁등	-7.04817
▁에	-7.05334
들이	-7.0719
▁대변인	-7.07365
▁후	-7.0747
▁총리	-7.07576
하기	-7.10718
▁많은	-7.11449
▁우리	-7.124
▁통해	-7.12717
▁부시	-7.13046
▁이후	-7.13214
▁위한	-7.13828
하지	-7.1523
리	-7.16002
▁대통령은	-7.16183
▁세	-7.17098
적인	-7.17427
만	-7.18284
▁영국	-7.18287
▁가장	-7.18658
하며	-7.18777
▁내	-7.19507
▁두	-7.19871
▁동안	-7.20561
했으며	-7.20637
▁같은	-7.20869
들	-7.22019
까지	-7.223
▁것이다	-7.22814
▁않았다	-7.24659
▁한국	-7.25566
될	-7.26225
▁말	-7.30566
▁개	-7.33325
시	-7.33506
▁주장했다	-7.33618
▁가	-7.33773
▁할	-7.34188
▁세계	-7.34536
트	-7.35251
▁한다	-7.3529
▁될	-7.35593
▁이들	-7.36494
▁달러	-7.36517
▁현재	-7.36548
▁있	-7.37184
▁문제	-7.37287
▁것은	-7.37843
▁또한	-7.383
▁관련	-7.38474
▁바	-7.38651
▁때	-7.40575
라	-7.4205
▁대	-7.42856
▁일부	-7.43107
▁알	-7.43177
▁이상	-7.43287
▁보도했다	-7.43518
으나	-7.43529
▁시	-7.4402
▁했다	-7.44537
및	-7.44806
어	-7.4494
▁덧붙였다	-7.45068
▁최근	-7.45451
▁지역	-7.45728
서	-7.45766
상	-7.45793
▁경우	-7.46165
▁있었다	-7.46743
면	-7.47448
드	-7.48402
사	-7.49738
했다고	-7.49765
▁영화	-7.49946
▁자신의	-7.50241
▁모든	-7.50656
▁것이	-7.52069
▁후보	-7.524
했던	-7.52782
▁새로	-7.54053
▁함께	-7.54746
▁당시	-7.5515
수	-7.55657
▁라고	-7.55754
일	-7.57179
▁미군	-7.58157
▁시간	-7.58398
▁일본	-7.59053
▁그리고	-7.595
▁로	-7.59532
주	-7.59621
거	-7.59673
에따르면	-7.61165
됐다	-7.61528
▁계획	-7.61737
▁뒤	-7.62697
▁경제	-7.63591
야	-7.63647
▁조사	-7.63721
▁예정이다	-7.65329
▁수도	-7.66177
▁설명했다	-7.66672
▁결과	-7.66935
▁모두	-7.67093
▁있습니다	-7.67432
▁에서	-7.67872
▁있으며	-7.6847
▁러시아	-7.69365
▁처음	-7.69692
▁몇	-7.69893
▁프랑스	-7.70332
▁의	-7.70765
라고	-7.70949
성	-7.71732
▁아직	-7.7215
도록	-7.72269
▁유엔	-7.7248
▁당국	-7.72882
▁공격	-7.73882
보다	-7.74098
▁큰	-7.74337
▁하는	-7.74523
▁없다	-7.74929
▁사실	-7.75018
▁파키스탄	-7.7526
간	-7.75658
▁이란	-7.75922
▁위	-7.76025
▁이스라엘	-7.76328
▁계속	-7.7677
▁경기	-7.78448
▁the	-7.78605
▁분	-7.79173
▁사고	-7.79187
해야	-7.79455
진	-7.79828
▁회담	-7.7993
▁그녀	-7.80031
▁국가	-7.80434
▁지난해	-7.80467
▁제	-7.80888
▁대통령이	-7.81392
▁올해	-7.81424
▁지	-7.81599
▁나	-7.82514
르	-7.82549
▁라	-7.82935
▁민주당	-7.82966
들을	-7.83343
▁사건	-7.83385
▁않을	-7.84483
▁클린턴	-7.84594
이라고	-7.84749
▁억	-7.84837
▁차	-7.85138
▁열린	-7.85158
하다	-7.85771
비	-7.8625
▁이날	-7.86391
▁사람들	-7.86402
▁성명	-7.86691
아	-7.8757
▁비	-7.87871
한다	-7.88293
했습니다	-7.88958
했	-7.8908
니	-7.89089
▁번째	-7.89665
▁발표했다	-7.89867
▁발생한	-7.90563
▁하고	-7.90899
선	-7.91127
▁사	-7.91336
▁받고	-7.91671
▁받았다	-7.91764
▁테러	-7.92002
면서	-7.924
▁CNN	-7.92505
▁존	-7.93323
부	-7.93589
▁달	-7.93685
▁미국의	-7.93982
때문에	-7.94202
▁다시	-7.94258
▁지원	-7.94735
▁to	-7.94745
적	-7.94818
크	-7.95157
▁그들	-7.95388
▁여성	-7.95959
▁관계자	-7.9608
▁된다	-7.961
에는	-7.96174
장	-7.9637
하	-7.96449
▁이라	-7.96875
▁가운데	-7.96897
▁발표	-7.97547
▁핵	-7.97628
치	-7.97653
e	-7.98042
대	-7.984
하여	-7.98475
▁사망했다	-7.9877
▁사람들이	-7.98817
즈	-7.99035
▁반	-7.99293
당	-7.99446
▁있을	-7.99905
▁오	-8.00321
▁of	-8.00462
▁주요	-8.00478
화	-8.00484
▁이에	-8.00686
▁의해	-8.00748
었다	-8.00804
▁해	-8.00915
입니다	-8.01056
▁됐다	-8.01849
부터	-8.02039
▁국제	-8.03606
▁사람	-8.03715
적으로	-8.03755
▁데	-8.03798
▁초	-8.03862
에도	-8.03871
▁인해	-8.04085
▁장관	-8.04375
에따라	-8.04493
소	-8.05029
▁자	-8.05391
▁조	-8.05395
▁대부분	-8.05573
▁아	-8.05601
이나	-8.06054
▁선거	-8.06271
▁사망	-8.06336
▁첫	-8.0661
습니다	-8.07028
▁채	-8.07031
▁않은	-8.07094
▁관계	-8.07792
하지만	-8.07837
▁조치	-8.07909
▁보고	-8.08049
▁시위	-8.08682
▁s	-8.0897
처럼	-8.09705
▁결정	-8.09777
▁혐의로	-8.09917
▁아프간	-8.10316
▁거	-8.10974
▁TV	-8.11147
▁지금	-8.11211
▁이미	-8.11324
▁때문	-8.11403
전	-8.11728
▁기록	-8.12107
세	-8.12407
▁승리	-8.12629
y	-8.12774
용	-8.13004
이며	-8.13217
하면서	-8.13619
원	-8.13752
길	-8.13937
▁연구	-8.14141
▁위치한	-8.14741
▁매우	-8.14956
▁군	-8.15099
▁마	-8.15114
▁번	-8.15536
▁있었	-8.15629
▁S	-8.15683
▁원	-8.16159
에서는	-8.16398
▁안	-8.16708
▁이슬람	-8.16821
보	-8.16889
였	-8.17603
▁A	-8.1778
타	-8.17921
레	-8.18017
▁총	-8.18437
▁없는	-8.18546
▁기자	-8.18561
로부터	-8.18855
▁줄	-8.19396
▁피해	-8.19512
▁정보	-8.1953
▁팔레스타인	-8.19623
▁방문	-8.19875
▁비난	-8.19975
마	-8.20115
le	-8.20207
▁노	-8.20335
▁살	-8.20379
되어	-8.2058
▁회사	-8.20985
▁오늘	-8.2119
됐	-8.21202
▁추가	-8.21268
프	-8.21542
▁뉴욕	-8.21597
▁km	-8.21624
▁W	-8.21729
▁의원	-8.21883
▁않고	-8.21915
▁강	-8.22073
▁한다고	-8.22115
▁있다는	-8.22399
▁탈레반	-8.22646
▁부	-8.22728
▁조지	-8.22749
식	-8.22999
명	-8.23194
▁간	-8.235
▁지지	-8.23565
▁아이	-8.23575
▁대선	-8.23725
▁기	-8.23806
▁호주	-8.24129
▁인도	-8.24334
▁유럽	-8.24737
▁년간	-8.24863
▁점	-8.24872
▁다	-8.25095
▁어떤	-8.2516
▁지적했다	-8.252
▁정도	-8.2523
▁잘	-8.25341
▁활동	-8.25679
▁독일	-8.25888
돼	-8.26481
였다	-8.26484
▁혐의	-8.26799
▁소속	-8.26963
▁in	-8.27528
▁시장	-8.27712
▁포함	-8.27855
했지만	-8.27951
▁하지	-8.28139
▁감독	-8.28306
▁새	-8.28319
▁개의	-8.28404
▁내용	-8.2846
질	-8.28463
▁?	-8.2848
▁대표	-8.28504
티	-8.28988
디	-8.29116
▁협상	-8.29124
▁우려	-8.29254
우	-8.2932
라는	-8.29321
▁구	-8.2935
▁프로그램	-8.29441
▁최고	-8.2996
파	-8.30967
▁예정	-8.31331
▁없다고	-8.31445
▁부상	-8.31592
미	-8.31653
▁대학	-8.31856
▁a	-8.31938
안	-8.32298
▁않는다	-8.32645
제	-8.32648
▁보고서	-8.32655
▁여러	-8.32709
▁받은	-8.33041
▁인터넷	-8.33126
▁발생했다	-8.33234
함	-8.33314
려	-8.33678
▁성	-8.33715
▁못했다	-8.33779
▁상	-8.33874
▁입장	-8.33899
▁상원의원	-8.33908
▁하	-8.33912
되었다	-8.34366
▁주장	-8.34835
▁사용	-8.34921
코	-8.35024
▁카	-8.35267
ing	-8.35355
합니다	-8.35645
▁폭탄	-8.3567
▁요구	-8.35787
되는	-8.35819
▁매케인	-8.3584
▁관리	-8.35999
바	-8.36031
린	-8.36066
▁의회	-8.36201
▁개월	-8.36672
▁박사	-8.36679
▁올림픽	-8.36833
▁많	-8.36925
구	-8.36989
▁오후	-8.3699
▁도	-8.37235
▁시작	-8.37529
▁판매	-8.38578
▁전쟁	-8.3922
▁북한이	-8.39404
▁모습	-8.39662
▁보도	-8.39886
ed	-8.39978
▁발생	-8.40001
▁된	-8.40204
권	-8.40257
▁보	-8.40442
▁단체	-8.41164
▁언론	-8.41296
▁인터뷰에서	-8.41402
▁자동차	-8.4157
▁생각	-8.41618
산	-8.41794
▁남자	-8.4198
러	-8.42139
토	-8.42146
▁준비	-8.42512
▁B	-8.42742
▁컴퓨터	-8.4276
관	-8.42806
내	-8.43141
▁이러	-8.43304
오	-8.43346
▁있어	-8.43358
▁앞으로	-8.43529
▁곳	-8.43532
되지	-8.43569
▁것에	-8.43706
▁나는	-8.4385
카	-8.44018
▁갖고	-8.44228
▁않	-8.44253
▁터키	-8.44519
▁원문기사보기	-8.44609
▁현지	-8.44752
d	-8.44814
▁차량	-8.44954
▁미얀마	-8.45035
▁마지막	-8.45077
되고	-8.45188
▁기술	-8.45199
▁강조했다	-8.45371
▁공화당	-8.457
▁경찰이	-8.45824
▁병원	-8.46055
▁합의	-8.46198
▁배	-8.46222
▁무	-8.46263
들에게	-8.463
▁개발	-8.46788
▁떨어진	-8.4684
▁정	-8.47018
▁교수	-8.47381
차	-8.47682
▁가진	-8.47725
▁않았	-8.47815
▁석방	-8.47918
▁반대	-8.47934
국	-8.48003
▁방송	-8.48053
▁앞서	-8.48088
▁오전	-8.48236
▁평화	-8.4826
▁피	-8.48499
▁힐러리	-8.48644
▁사이	-8.48663
▁남부	-8.48687
▁폭발	-8.48728
▁비난했다	-8.48992
▁변화	-8.49091
▁지도자	-8.49193
▁미국과	-8.49457
하는데	-8.49545
▁정책	-8.49585
▁여	-8.49596
이었다	-8.49738
▁오는	-8.49741
▁주지사	-8.4983
▁차례	-8.50022
▁자신이	-8.50107
▁버락	-8.50376
▁검찰	-8.50694
▁우주	-8.50723
▁m	-8.51178
▁상태	-8.51265
릴	-8.51302
었던	-8.51507
▁규모	-8.51559
모	-8.51758
▁증가	-8.51867
▁상황	-8.51913
▁백악관	-8.51975
▁아시아	-8.52141
노	-8.52344
▁미국이	-8.52524
는데	-8.52765
▁이어	-8.52928
▁노력	-8.53003
▁해결	-8.53107
▁의사	-8.53116
물	-8.53354
▁지난달	-8.5343
▁타	-8.53452
▁투표	-8.53486
▁도시	-8.53615
▁스페인	-8.54384
▁물	-8.54615
▁없었다	-8.54695
▁무샤라프	-8.54925
▁안전	-8.54968
▁지역에서	-8.55141
▁다음	-8.55325
법	-8.55331
▁좋은	-8.55444
▁인근	-8.5558
▁있지만	-8.55776
▁볼	-8.55903
▁와	-8.55911
▁저	-8.55943
▁연방	-8.56097
▁이용	-8.56102
직	-8.56136
▁이를	-8.56264
브	-8.56289
▁집	-8.56378
▁관한	-8.56397
▁N	-8.56565
▁파	-8.56921
▁아무	-8.57035
▁마리	-8.57067
▁C	-8.57283
▁없이	-8.57347
▁가지	-8.57522
▁재	-8.57588
정	-8.57611
▁보인다	-8.57747
▁날	-8.57773
▁전문가들	-8.57902
▁이런	-8.57956
▁영향	-8.57989
▁까지	-8.58213
▁치료	-8.58215
단	-8.58354
▁리	-8.58383
▁야당	-8.58518
▁김	-8.58568
▁AP	-8.58628
▁이탈리아	-8.58844
으로부터	-8.58968
▁이름	-8.59049
들의	-8.59323
▁보다	-8.59894
▁최소	-8.59908
▁장	-8.59921
▁불	-8.60133
호	-8.60182
▁않다	-8.60186
▁모	-8.60331
▁여행	-8.60408
조	-8.60596
al	-8.6074
하기로	-8.60977
▁미국은	-8.60985
▁사망자	-8.61014
▁가족	-8.61029
▁금융	-8.6111
▁양	-8.61226
▁불법	-8.61595
▁가능성	-8.61697
난	-8.61809
▁생산	-8.61828
▁산	-8.61958
▁미사일	-8.62235
▁하나	-8.62386
▁상승	-8.62429
온	-8.62464
▁밤	-8.62533
▁중요한	-8.62561
▁행사	-8.62692
▁공식	-8.62717
▁이전	-8.62759
▁위협	-8.6295
▁연기	-8.63048
▁artic	-8.63286
▁만에	-8.63328
▁검사	-8.63355
▁당	-8.63659
씨	-8.63718
▁신	-8.64073
▁논의	-8.64085
▁주둔	-8.64113
▁최초	-8.64135
▁없	-8.64307
중	-8.64512
a	-8.64556
▁알카에다	-8.64608
▁유	-8.64657
▁알려졌다	-8.65005
▁외	-8.65334
▁매	-8.65406
▁P	-8.65589
▁역사	-8.65619
▁포인트	-8.65629
데	-8.65736
▁사태	-8.65864
터	-8.66148
박	-8.66194
했었다	-8.66314
▁발언	-8.66571
하도록	-8.66638
▁대통령과	-8.66772
▁년에	-8.67154
▁정치적	-8.67249
▁가격	-8.67422
▁씨	-8.67721
▁말했습니다	-8.6775
▁팀	-8.67833
▁법원	-8.67848
▁이야기	-8.67894
▁용의자	-8.68123
▁은행	-8.68435
임	-8.68436
▁돈	-8.68554
▁관심	-8.68559
▁반면	-8.68596
▁것입니다	-8.68751
▁필요	-8.68905
▁주민들	-8.69053
▁부토	-8.69112
신	-8.69161
▁The	-8.69202
▁사망한	-8.69424
▁비행기	-8.6947
▁방법	-8.69485
루	-8.6958
점	-8.69835
▁코리아	-8.69981
▁무기	-8.70081
▁대해서	-8.70379
▁불구하	-8.70439
피	-8.70459
▁열	-8.70536
▁서비스	-8.70771
▁일간	-8.70783
▁정치	-8.70948
▁조직	-8.71061
▁위험	-8.71105
▁자금	-8.71105
▁살해	-8.71125
▁런던	-8.7114
포	-8.71194
▁자신들	-8.71218
▁학교	-8.7137
and	-8.71458
력	-8.715
들과	-8.71517
▁반군	-8.71576
▁최대	-8.71649
▁회장	-8.71814
▁전에	-8.71831
▁공	-8.71927
▁자신	-8.71942
▁T	-8.71947
▁골	-8.72162
체	-8.7222
측	-8.72365
방	-8.72586
▁천	-8.72766
계	-8.72884
▁관계자들	-8.72933
발	-8.72936
▁인	-8.7298
▁선	-8.73132
▁인질	-8.73236
더	-8.7328
▁높은	-8.73339
▁중단	-8.73409
▁발	-8.73417
▁벌이	-8.73729
▁인용	-8.7381
▁지난주	-8.73877
▁출신	-8.73928
▁한나라당	-8.73963
▁북부	-8.74033
▁올	-8.74054
▁바그다드	-8.74291
요	-8.74428
▁공급	-8.74641
▁의하면	-8.74669
▁것이라는	-8.74678
▁역할	-8.74708
해서	-8.75079
▁군사	-8.75139
▁가능성이	-8.75159
▁D	-8.75204
▁심	-8.75294
▁언급	-8.75432
▁게임	-8.75436
▁자살	-8.7555
▁강력	-8.75568
▁코	-8.75573
▁수사	-8.75735
▁만명	-8.75842
▁더욱	-8.75863
▁건물	-8.75992
▁소식	-8.76111
▁지구	-8.76216
▁못	-8.76252
▁뉴스	-8.76259
▁으로	-8.76326
▁왔다	-8.7639
▁소	-8.7641
▁뜻	-8.76514
▁호	-8.7653
▁공동	-8.76818
▁인쇄	-8.7682
츠	-8.76885
군	-8.77014
▁for	-8.7706
▁특	-8.77221
됐다고	-8.77282
▁것이며	-8.77332
▁지역에	-8.77421
▁국경	-8.7745
▁알고	-8.7796
▁서울	-8.78483
▁고위	-8.78786
▁아버지	-8.78786
시킬	-8.78819
위	-8.79151
▁운동	-8.79178
▁법	-8.79187
▁적	-8.7919
▁아니다	-8.79307
▁선수	-8.79398
▁거래	-8.79466
▁어제	-8.79466
▁기업	-8.79745
▁이와	-8.79792
여	-8.79965
▁스	-8.80035
▁우승	-8.80111
▁병력	-8.80153
▁앞	-8.80212
▁나라	-8.80394
▁핵무기	-8.80427
▁법안	-8.80674
▁필요한	-8.80734
▁되는	-8.80753
이자	-8.80913
동	-8.80983
형	-8.8101
▁확인	-8.8106
▁사르코지	-8.81097
▁금지	-8.81142
▁아이들	-8.81143
▁하루	-8.812
▁부족	-8.81209
▁포	-8.81405
▁시작했다	-8.81433
▁감소	-8.81465
▁하마스	-8.81726
▁티베트	-8.81772
▁라이스	-8.81805
▁어	-8.81847
키	-8.81872
▁결국	-8.8212
▁요청	-8.82168
▁투자	-8.82333
▁독립	-8.82442
▁JOINS	-8.82451
▁만달러	-8.82465
▁폭탄테러	-8.82513
▁행위	-8.82574
▁충돌	-8.82582
설명	-8.82706
▁발견	-8.82712
▁위기	-8.82767
▁아침	-8.82798
▁F	-8.82834
▁관련된	-8.83044
▁않는	-8.8312
▁보호	-8.8314
▁시위대	-8.83249
위원회	-8.83268
▁이제	-8.8327
자들	-8.83282
▁기자회견에서	-8.83372
하겠다고	-8.83441
▁콜롬비아	-8.83478
▁전화	-8.83488
든	-8.83514
▁아들	-8.83515
▁각	-8.83828
회	-8.83842
▁공항	-8.83848
▁국방부	-8.83908
▁그것	-8.83997
▁직접	-8.84041
i	-8.84222
▁동영상	-8.84231
▁서	-8.84284
▁아니라	-8.84366
▁원문	-8.84545
▁건강	-8.84552
▁보였다	-8.84684
▁행동	-8.84699
▁표	-8.84908
▁이같	-8.85001
▁남성	-8.85134
▁노무현	-8.85214
▁브라운	-8.85224
이라는	-8.8523
▁캘리포니아	-8.85249
▁독해	-8.85252
▁워싱턴	-8.85373
▁여부	-8.8542
런	-8.85615
문	-8.8574
된다	-8.85748
▁사람이	-8.85812
▁부인	-8.85906
▁위해서	-8.85942
시켰다	-8.85975
▁억원	-8.86013
▁레	-8.86165
▁타고	-8.86476
하면	-8.86504
▁받을	-8.86895
▁있고	-8.87048
er	-8.87217
날	-8.87334
실	-8.87449
종	-8.87525
▁Korea	-8.8757
▁주택	-8.87886
▁비행	-8.88132
▁보안	-8.88182
▁자유	-8.88198
▁역시	-8.88443
▁K	-8.88576
유	-8.88619
▁건설	-8.88751
▁EU	-8.88782
▁대화	-8.88925
란	-8.88959
친	-8.89225
▁특별	-8.89376
▁드	-8.89423
▁회의	-8.89644
▁어떻게	-8.89875
▁음악	-8.90008
▁시신	-8.90067
▁받았	-8.9022
▁년까지	-8.90254
▁기간	-8.90334
▁빌	-8.90594
▁열리는	-8.90689
▁협력	-8.90771
▁이유로	-8.90792
▁베이징	-8.90891
▁곧	-8.91033
▁문제에	-8.91036
▁호텔	-8.91041
▁년대	-8.91257
▁이유	-8.91314
▁판결	-8.91331
그	-8.91367
▁폐쇄	-8.91381
▁철수	-8.91416
감	-8.91468
▁연설	-8.91496
다고	-8.91532
▁문	-8.91601
한다고	-8.91669
▁국무부	-8.91731
▁손	-8.91747
▁사건에	-8.9193
져	-8.91994
▁폴	-8.92183
재	-8.92304
▁숨졌다	-8.92336
▁에너지	-8.9255
▁석유	-8.92798
하자	-8.93234
급	-8.93283
긴	-8.93286
▁온	-8.93356
울	-8.9345
t	-8.93505
▁발사	-8.9356
▁한국인	-8.93678
하려	-8.93688
▁아프가니스탄	-8.93751
▁종	-8.93843
▁데이비드	-8.93995
▁신문	-8.94026
네	-8.94107
▁실	-8.94127
민	-8.9447
하던	-8.94505
공	-8.94584
▁진행	-8.94754
▁G	-8.94768
▁체포	-8.9486
경	-8.94922
학	-8.95057
▁변호사	-8.95125
▁하락	-8.95133
▁박	-8.95191
▁기회	-8.95193
▁있게	-8.95382
▁대사	-8.95477
▁같다	-8.95609
▁과학자들	-8.9567
▁증거	-8.95723
▁H	-8.95798
▁남	-8.95939
▁수술	-8.95969
▁승인	-8.95997
▁우	-8.96037
▁생활	-8.96136
▁com	-8.96145
▁범죄	-8.96198
버	-8.96282
▁대선후보	-8.9632
▁양국	-8.96343
▁전망	-8.96352
▁구조	-8.96363
▁내년	-8.96465
▁도로	-8.9649
설	-8.96668
▁공개	-8.96672
▁현	-8.96675
혀	-8.96684
▁전세계	-8.96704
▁월에	-8.96743
▁사회	-8.96767
▁있기	-8.96826
▁상원	-8.96907
▁주변	-8.9692
▁너무	-8.96964
▁교육	-8.97026
▁눈	-8.97059
▁납치	-8.97088
▁통신	-8.97135
▁요구했다	-8.97192
속	-8.97489
▁길	-8.97702
▁아니	-8.9772
▁발견했다	-8.9772
▁입	-8.98109
▁사업	-8.98131
병	-8.98144
▁수준	-8.98179
▁훈련	-8.98627
▁타임즈	-8.98711
▁인구	-8.98816
심	-8.98872
n	-8.9913
▁생각한다	-8.99262
반	-8.99288
▁만원	-8.99317
▁재개	-8.99392
▁성공	-8.99456
▁비디오	-8.99501
스트	-8.99547
▁개인	-8.99613
량	-8.99812
▁어린이	-8.99824
▁경고	-8.99888
▁결혼	-8.9995
하려는	-8.99983
▁정상	-9.00005
▁애	-9.0007
▁재판	-9.00113
▁전투	-9.00201
▁의견	-9.00333
▁위원회	-9.00343
▁통	-9.00373
▁이동	-9.0046
▁했다고	-9.00475
▁대사관	-9.00513
▁포함한	-9.00548
▁앞두고	-9.00719
▁비롯	-9.00721
▁대규모	-9.00727
지는	-9.00849
▁예정이라	-9.00955
▁화재	-9.0108
▁힘	-9.01112
▁들	-9.0127
▁동물	-9.01314
▁레바논	-9.01495
▁목표	-9.01512
▁로버트	-9.01548
▁나타났다	-9.01585
▁민간인	-9.0166
▁심각한	-9.01751
▁전체	-9.01804
▁딸	-9.02015
▁난	-9.02092
▁관할	-9.02093
▁성장	-9.02168
로서	-9.02196
▁억달러	-9.02374
▁것이라	-9.02528
▁태국	-9.02594
▁사진	-9.02641
▁방	-9.02737
▁판사	-9.02764
▁인간	-9.02886
청	-9.03044
▁안에	-9.03111
▁아닌	-9.03208
으로써	-9.03215
▁여전	-9.03253
▁출전	-9.03308
▁경선	-9.03323
▁방안	-9.03417
▁해외	-9.03439
o	-9.03834
▁여객기	-9.03903
▁못하	-9.03949
▁멕시코	-9.04114
되었	-9.04194
▁제안	-9.04865
▁임무	-9.0501
슨	-9.05035
▁경기에서	-9.05066
▁국민	-9.05202
▁작전	-9.05508
▁촉구했다	-9.05558
▁수입	-9.05591
▁인도네시아	-9.05694
▁명과	-9.05901
▁대신	-9.06163
▁퍼센트	-9.0618
▁밝혀졌다	-9.06207
▁작은	-9.06307
▁건	-9.06331
▁LA	-9.06342
▁시도	-9.06406
p	-9.06495
▁네	-9.06536
▁수치	-9.06623
▁가지고	-9.06784
▁예	-9.0688
▁친구	-9.0692
▁마이클	-9.07049
▁이상이	-9.0706
ar	-9.07146
▁입은	-9.07311
판	-9.07396
하라	-9.0745
▁마을	-9.07488
▁그들의	-9.07508
▁규정	-9.07565
▁인정	-9.076
▁열차	-9.07624
▁지도자들	-9.07632
▁대회	-9.07679
▁스타	-9.07894
▁푸틴	-9.07924
연	-9.08012
▁안보	-9.08142
▁온라인	-9.08273
▁최종	-9.0837
▁제재	-9.08408
▁예상	-9.08519
▁항	-9.08719
▁폭력	-9.08807
▁아기	-9.0888
▁시설	-9.08913
▁선택	-9.09077
▁국민들	-9.09159
▁입었다	-9.09279
▁이라크에서	-9.09286
▁받아	-9.09348
▁바로	-9.09497
▁경쟁	-9.09514
역	-9.09564
강	-9.0962
▁막	-9.09641
▁당신	-9.09719
▁알리	-9.10393
▁행정부	-9.10405
▁말한다	-9.10495
▁인권	-9.10558
▁환경	-9.1061
▁증시	-9.10614
▁연합	-9.10734
▁살고	-9.10875
▁본	-9.10962
▁부대	-9.11002
▁얼마	-9.11005
▁메시지	-9.11065
▁무장	-9.11109
▁그들이	-9.11404
▁밝힌	-9.11503
▁이것	-9.11597
▁측	-9.11661
▁베	-9.11669
▁중인	-9.11826
교	-9.11929
▁대만	-9.11944
▁필요하다	-9.12022
▁만약	-9.12037
▁대의원	-9.12101
▁여자	-9.12164
▁아프리카	-9.12201
▁개선	-9.12236
▁경고했다	-9.12361
▁속	-9.12401
▁돌	-9.1246
▁관리들	-9.12495
▁힐	-9.12721
b	-9.12831
▁서로	-9.12844
▁외국	-9.12928
▁운영	-9.12938
▁치	-9.13135
▁그런	-9.13161
▁미국인	-9.13174
▁보내	-9.13307
▁팔	-9.13355
통	-9.13414
▁화요일	-9.13449
▁책임	-9.13505
▁배우	-9.13573
▁발표한	-9.13577
▁확보	-9.13777
후	-9.1383
▁도움	-9.14007
▁남편	-9.1415
▁즉	-9.14167
너	-9.14252
▁계약	-9.14324
▁항공	-9.14346
▁시스템	-9.14431
▁산업	-9.14479
▁의장	-9.14506
▁출연	-9.14613
▁담	-9.14669
▁비해	-9.14737
▁관계자가	-9.14743
▁세금	-9.1482
복	-9.14836
▁벌였다	-9.14942
▁밝혔	-9.1495
▁주식	-9.15021
▁외국인	-9.15147
▁지수	-9.15198
▁홍콩	-9.1533
▁원인	-9.15378
▁지방	-9.15479
▁광고	-9.1556
▁소송	-9.15804
▁가치	-9.15908
▁없을	-9.16144
▁짐바브웨	-9.16166
▁과거	-9.16234
▁라디오	-9.1627
있는	-9.16342
▁약속	-9.1646
영	-9.1654
▁같이	-9.16619
▁스미스	-9.16645
▁얻	-9.1665
▁기록했다	-9.16702
▁낮	-9.16751
▁중동	-9.16761
▁시즌	-9.16909
금	-9.17017
건	-9.17073
▁여명	-9.17112
▁사무총장	-9.17126
▁헬기	-9.17181
de	-9.17222
행	-9.17289
무	-9.17302
▁상당	-9.17571
▁경	-9.17581
▁시아파	-9.17609
▁거리	-9.17706
▁내렸다	-9.17799
▁브라질	-9.17805
▁빈	-9.17845
▁부부	-9.18007
▁밖에	-9.18029
었다고	-9.18156
▁만나	-9.18343
▁미국에서	-9.18399
졌다	-9.18495
▁M	-9.18632
▁걸	-9.18737
▁공연	-9.18749
▁총선	-9.18781
▁맞	-9.18789
▁유지	-9.18804
▁일정	-9.18972
▁각각	-9.19082
론	-9.19154
▁사임	-9.19154
▁일본의	-9.19202
▁친	-9.19353
h	-9.19449
u	-9.1952
▁시험	-9.19571
▁권리	-9.19617
▁정권	-9.19618
▁평균	-9.1968
음	-9.19746
▁해군	-9.19771
▁감시	-9.19797
▁L	-9.19819
출	-9.19829
▁담당	-9.19968
▁년부터	-9.1997
▁부통령	-9.20026
워	-9.20201
▁웹사이트	-9.20226
▁R	-9.20257
▁앤	-9.20325
▁수단	-9.20334
▁합의했다	-9.20517
▁파업	-9.20597
▁제작	-9.20607
▁국내	-9.20806
▁비용	-9.20919
▁가스	-9.21081
▁나오	-9.21088
▁연료	-9.21113
▁통과	-9.21176
엔	-9.21226
▁텍사스	-9.21309
▁작품	-9.21315
▁다양	-9.21405
▁사이에	-9.21462
▁개최	-9.21626
▁구성	-9.21638
▁on	-9.21659
▁소식통	-9.21667
▁처리	-9.21817
▁환자	-9.21859
▁위원장	-9.21869
▁않아	-9.221
▁대가	-9.22129
▁암	-9.22132
팀	-9.22138
▁과정에서	-9.22147
▁국영	-9.22159
▁사건이	-9.22338
▁주말	-9.22392
▁하기	-9.22426
래	-9.2243
▁내무부	-9.22572
▁여름	-9.22582
▁걸쳐	-9.22588
▁케냐	-9.22626
작	-9.2263
증	-9.22634
▁발견됐다	-9.22645
▁반응	-9.22668
▁인상	-9.22769
했을	-9.22809
▁회	-9.22951
r	-9.23052
▁기대	-9.23074
▁메	-9.23167
▁상황이	-9.23351
▁US	-9.23361
en	-9.2347
▁키	-9.23509
st	-9.2352
▁완전	-9.23543
▁놓	-9.23602
▁학생	-9.23637
▁디	-9.2373
석	-9.24109
▁것과	-9.24202
▁강제	-9.24328
▁선고	-9.24563
▁동부	-9.2457
▁이곳	-9.24614
▁그룹	-9.24642
▁유일	-9.24724
▁E	-9.24842
▁부상했다	-9.24866
▁동	-9.24894
앞서	-9.24903
시켜	-9.25014
▁주민	-9.25051
▁결정했다	-9.25075
an	-9.25079
▁몸	-9.2509
▁단	-9.25531
▁갈	-9.25662
▁후세인	-9.25675
▁주재	-9.25676
es	-9.25689
▁지명	-9.25838
▁캐나다	-9.25986
▁무장세력	-9.26113
품	-9.26249
▁되었다	-9.26338
▁대상으로	-9.26405
▁바이러스	-9.2673
▁어머니	-9.26879
▁촬영	-9.27016
▁루	-9.27108
▁베네수엘라	-9.27261
▁익명	-9.27261
▁알려진	-9.27278
▁페	-9.27427
색	-9.27604
▁해안	-9.27725
▁서부	-9.27732
▁야후	-9.27805
었습니다	-9.27848
▁발견된	-9.27878
▁상대로	-9.28247
▁곳에서	-9.28328
해왔다	-9.28422
▁제공	-9.28509
▁사망하	-9.28837
▁마치	-9.28839
▁차베스	-9.28881
▁로마	-9.28964
▁통제	-9.28992
기도	-9.28995
줄	-9.29071
▁누	-9.29119
두	-9.29139
▁경찰에	-9.29194
류	-9.29197
▁백	-9.29226
▁토	-9.29283
▁바란다	-9.29424
▁다리	-9.29437
▁이래	-9.2945
▁민주주의	-9.29488
▁대변인이	-9.2957
▁집단	-9.29642
▁남한	-9.29678
▁왕자	-9.2971
▁인기	-9.29747
▁요청했다	-9.29784
약	-9.29877
▁패	-9.29941
▁북핵	-9.29951
▁파병	-9.29961
▁희망	-9.30024
▁추	-9.30044
▁받는	-9.30162
▁플로리다	-9.30205
▁일까지	-9.30222
▁항공사	-9.30226
▁U	-9.30265
▁저장	-9.3028
기구	-9.30316
▁여론	-9.30364
▁책	-9.30452
▁논쟁	-9.30505
하였다	-9.30515
▁크게	-9.30603
▁회복	-9.30616
▁자료	-9.30687
▁진압	-9.31062
힌	-9.31065
▁예상된다	-9.31134
▁유권자들	-9.31155
▁여론조사	-9.31157
▁총격	-9.3127
▁사과	-9.31339
▁때까지	-9.31368
▁위성	-9.31481
▁버스	-9.31532
▁밝혔습니다	-9.31658
▁변호사는	-9.31688
▁To	-9.31696
▁하원	-9.31786
▁사는	-9.31839
▁받지	-9.32025
▁접근	-9.32102
분	-9.32147
▁연	-9.3216
▁되고	-9.32173
▁편	-9.32179
▁수출	-9.32378
▁벌	-9.32402
▁있지	-9.32507
케	-9.32592
▁발전	-9.32701
▁제품	-9.32705
▁인터뷰	-9.32724
▁탑승	-9.32739
▁쿠바	-9.32782
▁별	-9.32816
한다는	-9.3308
▁거대	-9.3311
▁밝히	-9.33126
▁e	-9.33131
저	-9.33151
많은	-9.3319
▁적이	-9.33223
록	-9.33252
▁최악	-9.33308
▁무장단체	-9.33324
▁강한	-9.33358
중인	-9.33381
되기	-9.33625
▁암살	-9.33733
▁의료	-9.3392
▁수상	-9.33968
▁실험	-9.34006
▁국회	-9.34052
▁사퇴	-9.34133
▁머리	-9.34172
▁전국	-9.3422
in	-9.34244
▁아니라고	-9.34277
▁세력	-9.34391
▁거부	-9.34433
▁따른	-9.34452
▁나온	-9.34507
하겠다	-9.34585
▁사실이	-9.34614
갈	-9.34632
▁제한	-9.34746
▁마크	-9.34759
▁일부터	-9.34775
▁수색	-9.34788
▁O	-9.34903
료	-9.34929
▁평가	-9.34954
▁성폭행	-9.35015
▁한다는	-9.35045
▁co	-9.35091
기로	-9.35151
▁임기	-9.3517
▁직원	-9.35188
▁주간	-9.35393
▁도움이	-9.35413
▁상원의원이	-9.3556
▁필리핀	-9.35599
▁받게	-9.35693
▁커	-9.35711
▁질문	-9.35758
▁차이	-9.35775
▁의미	-9.35903
▁적어	-9.35905
▁음식	-9.36066
▁되어	-9.36171
▁매년	-9.36193
테	-9.36204
었	-9.36207
업체	-9.36312
▁월요일	-9.36483
▁명령	-9.36544
▁시간이	-9.36609
층	-9.36646
▁중국은	-9.3678
▁파견	-9.36784
▁압력	-9.36787
▁정부와	-9.36859
았다	-9.36874
▁주도	-9.36879
처	-9.36903
인한	-9.36953
▁이집트	-9.37135
▁가능한	-9.372
▁사우디	-9.37357
▁북한에	-9.37403
▁들어	-9.37423
▁있음	-9.37428
▁무역	-9.37463
▁과	-9.3752
▁확인했다	-9.37567
▁선수들	-9.37643
▁가졌다	-9.37659
▁파리	-9.37716
대로	-9.37752
▁감염	-9.37792
▁파괴	-9.37809
▁항공기	-9.37837
▁가자지구	-9.37846
▁두고	-9.37867
▁비밀	-9.37898
▁고통	-9.37934
▁NASA	-9.37945
▁어느	-9.37949
▁중에	-9.3797
등	-9.38022
▁자세	-9.38064
▁달리	-9.38073
▁인수	-9.38138
▁맥	-9.38157
▁공격으로	-9.38315
▁동료	-9.38345
▁칸	-9.38402
▁기소	-9.38432
▁고용	-9.38732
▁시리아	-9.38802
▁인질들	-9.38808
▁학생들	-9.38823
본	-9.38837
▁못한	-9.38951
다면	-9.39095
▁뇌	-9.39177
▁언급했다	-9.39217
▁사람들을	-9.39289
▁기사	-9.39307
▁나왔다	-9.3932
▁보냈다	-9.39342
▁개혁	-9.3935
▁밝히지	-9.3941
▁명으로	-9.3944
▁나머지	-9.39741
▁이끄는	-9.39743
▁불만	-9.39774
▁찾아	-9.39924
▁후에	-9.40027
▁국가들	-9.40174
탄	-9.40284
동안	-9.40317
▁권력	-9.40372
▁사형	-9.40412
▁향해	-9.40445
▁긴장	-9.40477
▁부상자	-9.40549
▁외교	-9.40559
▁개국	-9.40611
▁병	-9.40643
▁살인	-9.40707
▁병사	-9.40881
른	-9.40882
▁지진	-9.40901
▁관해	-9.40906
▁전시	-9.41102
▁올랐다	-9.41169
▁사람들에게	-9.41184
지역	-9.41296
▁I	-9.41306
▁군대	-9.4132
▁안정	-9.41396
▁희생자	-9.41482
▁신고	-9.41512
튼	-9.41524
▁식량	-9.41564
▁제임스	-9.41569
▁공습	-9.4158
▁지나	-9.41612
▁일자리	-9.41694
c	-9.41796
개	-9.41841
▁사랑	-9.41857
쳐	-9.42086
E	-9.42102
▁싶다	-9.42188
▁잘못	-9.42189
▁구체적	-9.42194
▁인물	-9.42212
▁허가	-9.42466
베	-9.42626
sp	-9.42631
▁붕괴	-9.42712
▁다음달	-9.42822
▁참석	-9.4283
▁소재	-9.42836
▁장면	-9.42866
▁센터	-9.42875
센터	-9.42932
▁막기	-9.42994
▁아내	-9.43139
▁강화	-9.43168
▁사령관	-9.43202
▁되지	-9.4333
C	-9.43367
커	-9.43374
▁전기	-9.43387
근	-9.43401
▁목숨	-9.43434
▁흑인	-9.43471
▁미군이	-9.43513
▁위반	-9.43732
▁국무장관	-9.43736
▁만큼	-9.4378
▁의원들	-9.43843
시키는	-9.43905
▁질	-9.43907
▁업체	-9.43927
쉬	-9.44021
▁오른	-9.4408
▁자회담	-9.44149
▁숨지고	-9.44184
▁설치	-9.44258
▁UN	-9.44388
▁기관	-9.44456
▁해야	-9.44596
▁나이	-9.44607
or	-9.44638
▁예측	-9.44658
▁허리케인	-9.44696
▁국방장관	-9.44699
▁수천명	-9.44717
업	-9.44739
▁주장하고	-9.44824
▁질문에	-9.44921
▁만들어	-9.44926
▁부모	-9.44965
으로서	-9.45109
장을	-9.45129
▁제기	-9.4518
▁죽음	-9.45224
▁헌법	-9.45282
▁자체	-9.4537
▁팬들	-9.45377
▁임시	-9.45407
▁비판	-9.45524
▁달러에	-9.45716
▁쇼	-9.4575
▁선정	-9.45765
▁잡	-9.45801
하기도	-9.45818
▁마음	-9.46012
▁소리	-9.4602
▁복귀	-9.4605
▁마련	-9.46233
▁일반	-9.46281
▁끝에	-9.46284
▁위로	-9.46439
▁어떠한	-9.46619
▁물론	-9.46645
▁야	-9.46654
이었	-9.46708
▁기지	-9.46833
▁계획이	-9.46969
▁곳에	-9.47025
▁설명	-9.4706
f	-9.47067
양	-9.47138
▁따라	-9.47155
▁시기	-9.47176
▁사원	-9.47197
▁유로	-9.47198
▁선출	-9.47259
▁마약	-9.47296
ion	-9.47297
인들	-9.47322
▁중앙	-9.47347
▁수요일	-9.47381
▁석	-9.47457
▁여성이	-9.47462
▁진	-9.47505
▁갖	-9.47509
▁섬	-9.47564
▁넘는	-9.47568
▁실시	-9.47692
망	-9.47723
▁받	-9.47756
▁칼	-9.47791
▁직원들	-9.47839
▁시카고	-9.47868
▁삶	-9.47922
▁확대	-9.47922
락	-9.47927
▁외무부	-9.47948
▁사장	-9.48025
▁작업을	-9.4804
▁뿐	-9.48117
▁자리	-9.48193
▁감	-9.48409
▁이수지	-9.48589
▁움직임	-9.48619
거리	-9.48624
▁접촉	-9.4866
▁J	-9.48802
▁해리	-9.49051
▁정부에	-9.49073
▁유명한	-9.49117
▁이란이	-9.49182
▁경제적	-9.49214
▁시민	-9.49227
▁찰스	-9.49261
▁금	-9.49358
▁양측	-9.49376
▁참가	-9.49392
▁문화	-9.49409
▁수행	-9.49557
들에	-9.49559
▁목적	-9.49566
▁추진	-9.49576
▁도착	-9.49621
▁이달	-9.49624
회사	-9.49705
▁당선인	-9.49742
▁종교	-9.49799
▁배치	-9.49806
▁북	-9.49915
▁입고	-9.50059
▁교전	-9.50077
▁제조	-9.50086
▁이라크에	-9.50094
▁심장	-9.50121
▁되	-9.50186
▁발생해	-9.5021
▁선언	-9.50318
되	-9.50494
리자	-9.50562
▁소말리아	-9.5058
▁베컴	-9.50582
▁출마	-9.50599
▁아베	-9.50659
▁내려	-9.50705
▁전력	-9.50714
▁대중	-9.50818
▁존스	-9.50844
▁수익	-9.50888
▁아주	-9.51037
▁교통	-9.5112
▁전문가	-9.51182
▁나가	-9.51183
메	-9.51212
▁일요일	-9.5123
▁FBI	-9.51256
▁긴급	-9.51258
▁어려움	-9.51258
▁추락	-9.51329
▁영어	-9.51343
생	-9.51586
▁샤	-9.5164
▁혼란	-9.51691
▁피해자	-9.51718
▁귀	-9.51823
▁구매	-9.51924
▁외무장관	-9.51936
▁지도자인	-9.51964
림	-9.52054
▁진출	-9.52061
퍼	-9.52079
▁자녀	-9.52091
▁넘	-9.52165
▁사상	-9.52271
▁잠	-9.5233
▁자국	-9.52335
▁사진을	-9.52336
▁사항	-9.5237
▁비슷	-9.52413
▁신원	-9.52501
▁관련해	-9.52596
▁좀	-9.52621
▁시상식	-9.52621
▁미래	-9.52634
tal	-9.52759
▁결의안	-9.52848
▁누구	-9.53008
▁검토	-9.53031
▁상대	-9.53084
▁최고의	-9.53117
▁착륙	-9.53124
각	-9.53204
▁고문	-9.53217
O	-9.53321
▁선두	-9.53329
마다	-9.53359
▁총재	-9.53362
▁전달	-9.53365
▁집중	-9.53394
▁여명이	-9.53406
▁주가	-9.53419
▁충격	-9.53435
▁주민들이	-9.53448
주의	-9.53465
▁경험	-9.53493
▁부분	-9.53575
▁작년	-9.53609
▁교회	-9.53704
만이	-9.53708
▁거주하	-9.53789
▁유권자	-9.53883
▁현장	-9.53947
▁게이츠	-9.54008
▁국제사회	-9.54016
▁병원에	-9.54061
▁정당	-9.54099
▁것인지	-9.54159
▁승객	-9.54224
▁be	-9.54231
▁가질	-9.54318
S	-9.54661
▁그리스	-9.54695
▁로켓	-9.54714
▁절차	-9.54717
▁체포됐다	-9.54758
▁선거에서	-9.54766
▁카운티	-9.54789
▁공군	-9.54839
▁인사	-9.54888
▁유명	-9.55
▁폭력사태	-9.55019
▁엘	-9.55021
▁항의	-9.55065
단체	-9.5524
▁목표로	-9.55356
▁젊은	-9.55376
▁일이	-9.55421
▁빨	-9.55478
▁목요일	-9.55565
▁정상회담	-9.55638
▁위치	-9.55655
▁해제	-9.55665
▁쿠	-9.55694
▁여사	-9.55732
▁이전에	-9.55742
▁위에	-9.55894
▁노조	-9.55896
▁관광	-9.55925
▁크	-9.56054
▁숨진	-9.5615
▁월부터	-9.56248
▁Korean	-9.56369
▁구속	-9.56571
▁수석	-9.56599
▁군인	-9.56653
▁반대하는	-9.56687
시키고	-9.56805
▁표현	-9.56894
▁판	-9.57121
re	-9.57155
▁단지	-9.57446
▁join	-9.57551
▁코소보	-9.57551
▁동결	-9.5756
▁연속	-9.57568
▁모델	-9.5757
▁남북	-9.57597
▁이라크전	-9.57647
▁시행	-9.57685
▁방문한	-9.57703
▁정말	-9.57728
▁대응	-9.57731
▁보여주	-9.57768
쿠	-9.57892
렸다	-9.58186
▁퍼	-9.58233
있다	-9.5828
▁총기	-9.58308
▁가까	-9.58487
협회	-9.58507
초	-9.58593
▁전략	-9.58603
▁연장	-9.5866
▁임명	-9.58678
표	-9.5869
▁올라	-9.5869
▁추정	-9.58694
▁실패	-9.58785
▁가량	-9.58805
▁약간	-9.5885
▁국립	-9.5899
▁잉글랜드	-9.59006
▁나타나	-9.59006
▁몇몇	-9.59006
▁신화통신	-9.59007
▁지지자들	-9.59152
▁있는지	-9.59195
▁들고	-9.59318
정부	-9.5932
▁패배	-9.59373
투	-9.59418
▁변	-9.59469
▁보이는	-9.59474
▁여성들	-9.59526
▁불리	-9.59551
▁당했다	-9.59647
▁사이트	-9.59658
렌	-9.59698
▁판단	-9.59765
▁차기	-9.59812
▁도중	-9.59862
▁매일	-9.59875
▁마일	-9.59977
액	-9.60082
아니라	-9.60148
▁윌리엄	-9.60334
턴	-9.60353
▁작업	-9.60369
▁조건	-9.604
▁BBC	-9.60488
▁고양이	-9.6049
▁유죄	-9.60522
▁밝혀지지	-9.60523
▁감사	-9.60531
▁유세	-9.60532
▁카메라	-9.60566
되었습니다	-9.60571
▁연합군	-9.6066
▁피트	-9.60681
▁회담에서	-9.60734
▁도전	-9.60735
장관	-9.60778
▁약물	-9.60895
했는데	-9.60899
남	-9.60949
▁작성	-9.60955
▁결	-9.60958
▁버지니아	-9.61119
배	-9.6112
▁걱정	-9.61135
▁도쿄	-9.61224
▁블레어	-9.61228
▁소비자	-9.61309
▁나토	-9.61312
▁연구소	-9.61327
▁대형	-9.61362
▁압박	-9.61521
▁휴대폰	-9.61546
센	-9.61637
▁여당	-9.61658
▁세기	-9.61688
▁효과	-9.61835
T	-9.61871
▁다이애나	-9.61941
▁급	-9.6195
▁스스로	-9.61982
▁스포츠	-9.62057
로써	-9.6211
▁군부	-9.62209
▁주의	-9.62255
▁관광객	-9.6229
▁체포했다	-9.62333
▁분기	-9.62563
▁연설에서	-9.62583
▁허용	-9.62588
▁오래	-9.62593
▁전까지	-9.62735
▁오랫동안	-9.62738
▁올메르트	-9.62738
▁탁신	-9.62738
▁노래	-9.62779
▁핵심	-9.62803
N	-9.62845
▁만든	-9.62856
▁자주	-9.62996
집	-9.63004
▁취소	-9.63087
ment	-9.63119
▁병원에서	-9.63235
시키기	-9.63271
▁대비	-9.63486
▁비상사태	-9.63503
지도	-9.63506
▁확실히	-9.63564
▁됐	-9.63618
▁장기	-9.63627
▁공장	-9.63632
▁옷	-9.63636
▁실수	-9.63647
▁분석	-9.63648
자들이	-9.63652
리아	-9.63863
▁한반도	-9.63876
▁내부	-9.63889
▁주에서	-9.63908
▁이와같	-9.63921
▁전통	-9.64147
▁가능	-9.64165
▁아마	-9.64182
▁영국의	-9.64255
▁겪고	-9.6427
▁그렇게	-9.6427
▁빠른	-9.64271
▁직후	-9.64279
▁집회	-9.64295
▁왜	-9.64304
▁탄	-9.64487
회의	-9.64529
하다고	-9.64564
▁뉴	-9.64637
▁참여	-9.64701
▁문서	-9.64767
▁운행	-9.64802
▁보건	-9.6495
l	-9.64957
태	-9.6496
▁할리우드	-9.65046
▁담배	-9.65057
▁수백명	-9.65071
▁마무리	-9.65081
▁구호	-9.65102
▁높이	-9.65256
자인	-9.65282
▁성적	-9.65335
▁극	-9.65345
▁테	-9.65395
링	-9.65458
스러운	-9.65524
▁하며	-9.65716
▁글	-9.65727
▁기억	-9.6579
▁사기	-9.658
▁홍보	-9.65809
▁크리스토퍼	-9.65827
▁감축	-9.65833
▁산불	-9.6584
▁동시	-9.65927
▁노동	-9.65943
▁투입	-9.66021
▁ID	-9.66099
▁대법원	-9.66116
▁굴	-9.66227
▁대책	-9.66251
▁이밖에	-9.66614
▁처벌	-9.66617
▁샤리프	-9.66618
▁오랜	-9.66633
▁없어	-9.66648
▁조작	-9.66664
▁조금	-9.66667
절	-9.66689
▁제출	-9.66706
▁분쟁	-9.66765
▁알게	-9.66818
▁맞아	-9.66827
▁능력	-9.6686
▁실제	-9.66905
▁생	-9.66972
▁소녀	-9.67007
▁집행	-9.67062
▁프로젝트	-9.67074
▁버	-9.67146
▁넣	-9.67188
▁애플	-9.67221
▁여왕	-9.67222
▁실시된	-9.67239
it	-9.67367
▁스피어스	-9.67408
▁우크라이나	-9.67408
▁민병대	-9.67408
▁원자로	-9.67432
▁개봉	-9.67452
▁단계	-9.67473
▁내각	-9.67495
▁빠르	-9.67517
▁증가했다	-9.67545
on	-9.67552
▁수천	-9.67553
▁의심	-9.67559
▁윌리엄스	-9.67567
름	-9.67583
▁끝	-9.67706
▁집에서	-9.67718
▁망명	-9.67849
▁북한과	-9.6786
▁둔	-9.67871
▁사무실	-9.67871
▁완화	-9.67912
▁게	-9.67976
▁만명이	-9.6802
▁고래	-9.68026
매	-9.68038
니다	-9.68078
ic	-9.68107
▁청와대	-9.68114
▁중심	-9.68135
준	-9.68165
▁폭풍	-9.68185
▁IAEA	-9.68208
▁보이고	-9.68214
▁나타냈다	-9.68268
▁보기	-9.68276
▁알려지	-9.68278
▁위기에	-9.68328
▁그러	-9.68331
▁수정	-9.68379
▁목사	-9.68413
하였	-9.68489
▁소장	-9.68491
▁p	-9.6854
▁가족들	-9.68598
ht	-9.68657
▁넘어	-9.68659
▁제거	-9.68695
▁의원이	-9.68703
▁차지했다	-9.68713
▁조정	-9.68719
목	-9.68749
년	-9.68796
▁부인했다	-9.68858
냐	-9.68872
▁속에	-9.68937
▁따	-9.68948
▁난민	-9.68969
▁지배	-9.68974
▁크리스마스	-9.69011
▁cnn	-9.69014
▁높다	-9.69014
▁무가베	-9.69015
▁일어난	-9.69015
▁한국은	-9.69018
▁배럴	-9.6902
▁수백	-9.69056
▁날씨	-9.69069
▁주년	-9.69106
ri	-9.69126
▁받기	-9.69142
▁시작된	-9.69159
▁후보에	-9.69191
▁보장	-9.69269
담	-9.69269
▁발생할	-9.69296
▁보안관	-9.69385
▁상황에서	-9.69385
▁보좌관	-9.69476
승	-9.69497
왔다	-9.69532
페	-9.69615
▁법률	-9.69689
▁이미지	-9.69719
▁말레이시아	-9.69808
▁네덜란드	-9.69827
▁CIA	-9.6983
▁MS	-9.69839
▁스위스	-9.69862
▁영상	-9.69878
▁치안	-9.69892
▁근무	-9.69989
하길	-9.70022
▁환영	-9.70044
▁중이다	-9.70142
인지	-9.70262
입	-9.70287
족	-9.70328
▁월까지	-9.70339
▁그중	-9.70364
▁가수	-9.7038
▁현대	-9.70402
▁블로그에	-9.70413
싼	-9.70434
랑	-9.70493
자가	-9.70501
번	-9.70542
▁말하고	-9.70593
▁세르비아	-9.70631
▁찾기	-9.70647
▁먼저	-9.70651
▁스티브	-9.70652
▁약속했다	-9.70655
▁고려	-9.70699
▁법적	-9.70705
▁미국인들	-9.7083
▁밀	-9.70852
▁중국이	-9.70878
▁않겠다	-9.70997
at	-9.7105
▁확산	-9.71074
▁장소	-9.71125
▁그에게	-9.71143
▁보낸	-9.71193
▁투	-9.71201
▁어려	-9.71231
▁경찰과	-9.71237
현	-9.71262
ly	-9.71288
▁위험한	-9.71374
▁부정	-9.7138
▁등록	-9.71421
▁전문	-9.71473
▁작가	-9.71477
▁하워드	-9.7148
▁cat	-9.7148
▁엄마	-9.7148
tp	-9.71485
▁찬성	-9.71503
▁기후	-9.71524
▁과학	-9.71564
▁고든	-9.71593
▁나무	-9.71594
다른	-9.71621
▁프라이머리	-9.71673
▁허	-9.71699
만한	-9.71718
▁의혹	-9.71737
▁방해	-9.71761
▁없었	-9.71929
▁마감	-9.7193
▁구성된	-9.71942
▁떠나	-9.7204
겠다	-9.72109
▁협의	-9.72212
▁사례	-9.7233
D	-9.72335
▁대표팀	-9.72366
▁마드리드	-9.72431
▁폐	-9.72497
▁시민들	-9.72508
▁최신	-9.72566
▁목소리	-9.72587
▁수가	-9.72597
▁이용해	-9.72645
▁비상	-9.72675
k	-9.72675
▁보이지	-9.72715
▁전자	-9.72739
▁긴	-9.72746
▁수니파	-9.72759
▁사상자	-9.72865
씩	-9.72951
이지만	-9.73017
▁규제	-9.73149
▁노대통령	-9.73152
▁나섰다	-9.73224
▁지급	-9.73247
▁떨어져	-9.73313
▁사용하는	-9.73316
▁대표단	-9.73338
▁다쳤다	-9.734
▁기자회견	-9.73414
▁술	-9.73493
▁크기	-9.73505
빌	-9.7376
▁현장에	-9.738
▁순간	-9.7386
▁re	-9.73925
us	-9.7398
▁머물	-9.73988
▁쿠르드	-9.73989
▁찾는	-9.73994
▁캠프	-9.73994
▁교체	-9.74007
▁남성이	-9.74046
▁후보로	-9.74087
시킨	-9.74118
▁대단	-9.74185
▁홍수	-9.74457
▁대통령에게	-9.74566
▁듯	-9.74647
▁증언	-9.74653
▁소지	-9.74702
▁못할	-9.74778
▁명에	-9.74793
▁모하메드	-9.7485
▁알려져	-9.74853
▁진입	-9.74858
시간	-9.74882
▁최소한	-9.74939
되면서	-9.75014
▁있는데	-9.75016
▁영향력	-9.75025
▁만들	-9.75035
기간	-9.75047
▁연구진	-9.75055
▁태도	-9.75188
▁않기	-9.75472
샤	-9.7553
▁실시한	-9.75561
▁테러로	-9.75577
▁출발	-9.75598
▁한미	-9.75641
▁시작됐다	-9.75646
▁형	-9.75709
▁분위기	-9.75721
▁구글	-9.75726
▁과정	-9.75728
g	-9.75738
▁아바스	-9.75746
▁원조	-9.75793
▁분노	-9.75816
▁인정했다	-9.75835
▁웹사이트에	-9.75919
▁집권	-9.76033
광	-9.76079
▁니콜라	-9.76146
▁얼굴	-9.76265
▁해당	-9.76299
▁하락했다	-9.76369
▁역사적	-9.7649
▁집계	-9.76491
방송	-9.76491
볼	-9.76504
▁체	-9.76523
▁축구	-9.76532
▁의한	-9.7655
▁경계	-9.76573
▁프리	-9.76575
▁c	-9.76576
▁North	-9.76581
▁정확한	-9.76581
▁장난감	-9.76584
▁태풍	-9.76584
▁네팔	-9.76585
▁하다	-9.7666
▁경찰관	-9.76718
▁비자	-9.76725
▁이끌	-9.76784
으면	-9.76793
▁시리즈	-9.76865
ur	-9.76898
▁말한	-9.76928
▁추정되	-9.76932
천	-9.76959
▁나와	-9.76964
▁당선자	-9.76977
▁박물관	-9.77073
▁향	-9.77111
책	-9.77155
▁실제로	-9.77195
은행	-9.77205
▁들었다	-9.7729
▁특사	-9.7732
▁주로	-9.77426
▁저녁	-9.77458
▁FARC	-9.77458
▁피터	-9.7746
▁성인	-9.77495
언	-9.7753
▁is	-9.77585
▁당한	-9.77587
▁임	-9.77634
▁민간	-9.77771
▁슈	-9.77812
열	-9.77945
▁남북한	-9.7824
▁축하	-9.78265
▁송	-9.78285
▁확신	-9.78308
▁돼	-9.78317
▁테이프	-9.78343
ation	-9.78347
▁소년	-9.78368
▁자신들이	-9.78397
▁도착했다	-9.78411
겠다고	-9.7847
▁놀라	-9.78499
▁대체	-9.78517
▁아부	-9.78549
하려고	-9.78619
▁캐	-9.78663
▁가격이	-9.78694
▁얻었다	-9.78771
▁촉구	-9.78826
▁권	-9.78907
당국	-9.79001
I	-9.79062
▁유사	-9.79099
▁부동산	-9.79136
▁강도	-9.79167
▁시대	-9.7919
▁토요일	-9.79236
▁말리키	-9.79236
▁아르헨티나	-9.79236
▁콘돌	-9.79238
것	-9.79241
▁진행되	-9.79269
▁등이	-9.79356
▁중요하다	-9.79396
▁왕	-9.79408
▁후반	-9.79421
▁문제로	-9.79422
▁떨어졌다	-9.79519
▁상황에	-9.79536
▁헤	-9.79749
플	-9.79873
ch	-9.79908
▁한국과	-9.79947
▁미국에	-9.79961
▁연루	-9.80022
▁화성	-9.80085
▁개입	-9.80128
씬	-9.80137
▁타격	-9.80156
범	-9.80166
▁휴가	-9.80179
▁입국	-9.80214
▁총장	-9.80231
▁백만	-9.80257
▁쉽게	-9.80344
▁무사	-9.80361
▁소비	-9.80406
편	-9.80466
▁장치	-9.80476
▁사용할	-9.80517
외	-9.80672
해졌다	-9.8071
▁제시	-9.80779
▁살해한	-9.80795
▁보여	-9.80831
▁운전	-9.80932
추	-9.80988
ational	-9.81025
▁징역	-9.81031
▁김정일	-9.81046
▁침해	-9.81077
▁신속	-9.81087
국가	-9.81106
▁반발	-9.81146
▁웹	-9.81171
▁우주선	-9.81181
▁기타	-9.81191
▁시위자들	-9.81216
술	-9.81238
▁힐튼	-9.81327
▁초기	-9.81343
▁요	-9.81352
▁연결	-9.81379
▁만들었다	-9.81388
▁숨	-9.81415
▁국	-9.81452
▁이곳에서	-9.81511
▁영국에서	-9.81526
▁창	-9.81646
▁일에	-9.81702
▁맺	-9.81772
▁깊	-9.81803
▁오하이오	-9.81837
▁엘리자베스	-9.81963
▁활용	-9.81969
▁연락	-9.81976
▁참석한	-9.82019
▁지출	-9.82047
▁않으면	-9.8212
리스	-9.82184
▁영국군	-9.82186
▁태	-9.82213
▁평	-9.82224
▁아파트	-9.82305
▁복제	-9.82362
▁경기에	-9.82408
먼	-9.82422
▁쉬	-9.82477
▁어린	-9.82482
▁월드컵	-9.82524
말	-9.82534
▁지불	-9.82672
▁승무원	-9.82685
▁요구한	-9.82715
▁대처	-9.82778
▁적용	-9.82831
▁지적	-9.82847
▁토론	-9.82859
▁국장	-9.82883
▁협조	-9.82889
▁페르베	-9.829
▁유럽연합	-9.8291
▁형성	-9.82949
▁결혼식	-9.82992
▁물질	-9.82993
▁영	-9.83133
▁없다는	-9.83188
▁예방	-9.8322
▁해고	-9.83252
렸	-9.83291
▁속에서	-9.83299
▁기구	-9.83301
▁자산	-9.83323
이라	-9.83365
수가	-9.83416
▁민	-9.83428
▁제외	-9.83445
▁수용	-9.83516
했는지	-9.83572
▁요구하는	-9.83578
▁당선	-9.83611
▁재정	-9.83617
살	-9.8366
▁외교부	-9.83797
▁보이	-9.83813
▁긍정적	-9.83824
▁소프트웨어	-9.83824
▁드라마	-9.83825
활동	-9.83832
▁끝난	-9.83845
한다면	-9.83891
▁원유	-9.83897
▁통화	-9.83902
▁들어가	-9.83906
▁대출	-9.83938
시설	-9.84026
▁클럽	-9.84177
졌	-9.84178
▁일환	-9.84181
▁수반	-9.84223
▁동맹	-9.84271
▁인식	-9.84421
달	-9.84444
예	-9.84525
ra	-9.84583
▁일반적	-9.84658
빈	-9.84727
▁현장에서	-9.84754
▁언제	-9.8476
▁싱가포르	-9.84767
▁잭슨	-9.84767
▁매들린	-9.84767
▁벌금	-9.8477
▁결론	-9.8478
▁개정	-9.84784
▁토니	-9.84784
▁갖추	-9.84805
▁귀국	-9.84812
▁협정	-9.84815
▁모른다	-9.84816
▁절반	-9.84841
▁저지	-9.84866
▁승	-9.84874
스타	-9.84942
B	-9.84992
▁체포된	-9.85114
▁임신	-9.85157
령	-9.85212
▁관	-9.85286
▁소유	-9.85331
격	-9.8539
▁울	-9.85411
블	-9.85437
▁공화당의	-9.85527
▁오픈	-9.85537
ter	-9.85619
▁범인	-9.85661
▁방식	-9.85699
▁열린우리당	-9.85719
▁핵실험	-9.85723
▁사이클론	-9.85724
▁신용	-9.85753
▁신경	-9.85764
▁조종사	-9.85854
▁수감	-9.85865
▁방어	-9.85866
m	-9.85953
▁자격	-9.8599
▁선포	-9.85991
▁신뢰	-9.86001
▁총선에서	-9.86003
▁이틀	-9.86045
▁역	-9.8608
▁고속도로	-9.86085
레이	-9.86174
▁심리	-9.86234
▁속도	-9.86578
규	-9.86583
▁자살폭탄테러	-9.86677
▁South	-9.86681
▁페일린	-9.86681
▁CBS	-9.86681
▁뉴질랜드	-9.86681
▁Iraq	-9.86681
▁리버풀	-9.86681
▁CEO	-9.86684
▁론스타	-9.86684
▁케네디	-9.86685
▁루이스	-9.86715
▁걸어	-9.86737
▁트럭	-9.86764
▁공식적으로	-9.86793
▁이것이	-9.86797
▁금리	-9.86804
▁성화	-9.86842
결	-9.86881
▁충분	-9.86885
▁이들이	-9.86959
▁면	-9.86978
▁부패	-9.87182
▁되면	-9.87223
▁왔	-9.87253
▁침체	-9.87323
▁한번	-9.87332
▁조사하고	-9.87342
▁포함되어	-9.875
▁했	-9.8753
▁이해	-9.87576
▁투자자들	-9.87622
▁캠페인	-9.87652
▁빠져	-9.87652
▁FTA	-9.87654
▁뛰어	-9.87655
▁에이즈	-9.87669
▁자연	-9.87676
▁실행	-9.87679
▁나달	-9.87696
▁헤럴드	-9.87716
▁예산	-9.87825
▁길이	-9.87942
▁회사들	-9.87953
▁세트	-9.87967
▁터키군	-9.8805
▁취임	-9.88063
▁이르는	-9.88097
▁재산	-9.881
▁용의자들	-9.8811
▁동의	-9.88182
▁진정	-9.88275
▁동원	-9.88438
춘	-9.88586
▁우라늄	-9.88632
▁포르투갈	-9.88633
▁변경	-9.8865
▁힘든	-9.88667
▁층	-9.88734
▁풀	-9.8874
맨	-9.88766
▁중이라고	-9.88776
▁포드	-9.88841
▁안보리	-9.88923
▁곳으로	-9.88971
▁성공했다	-9.8904
▁대피	-9.89062
▁b	-9.89138
▁엔	-9.89163
▁일어나	-9.8918
▁지지자	-9.89217
▁지진으로	-9.8927
율	-9.89274
▁일본은	-9.89281
▁수십	-9.89505
▁펜실베이니아	-9.89517
▁쥐	-9.89544
▁기자들	-9.89615
▁반기문	-9.89625
▁민주화	-9.89646
▁지지하는	-9.89647
▁육군	-9.89647
▁드러났다	-9.89651
▁중국과	-9.8968
▁압둘라	-9.89689
채	-9.8972
▁행진	-9.89929
▁테러가	-9.89971
▁삼	-9.89994
▁조사에서	-9.90136
ce	-9.90203
▁이혼	-9.90211
▁그린	-9.90297
▁지지율	-9.90301
▁중국에서	-9.90316
▁철회	-9.90323
머	-9.90444
변	-9.90455
▁목	-9.90478
▁근	-9.90491
▁직	-9.90492
▁오르	-9.90552
▁회담에	-9.90558
▁시드	-9.90585
스터	-9.90609
▁PPP	-9.90622
▁믿고	-9.90622
▁좋지	-9.90622
▁휘발유	-9.90622
▁첼시	-9.90624
▁평화적	-9.90626
▁한국군	-9.90629
▁나쁜	-9.90633
▁향후	-9.90635
▁소개	-9.90649
▁리비아	-9.90652
▁주고	-9.90716
▁학대	-9.90719
▁설립	-9.90731
▁가입	-9.90732
▁올렸다	-9.90745
▁본부	-9.90882
▁차관보	-9.90936
▁벨	-9.9094
▁진술	-9.9095
▁총리와	-9.91011
▁점령	-9.91069
v	-9.91273
합	-9.91292
▁아랍	-9.9137
▁당선인은	-9.9141
ers	-9.91439
▁집에	-9.91529
▁kg	-9.91633
▁얘기	-9.91633
▁답변	-9.91636
▁휴전	-9.91638
▁로봇	-9.9164
▁내린	-9.9165
▁입양	-9.91652
▁센트	-9.91661
▁축제	-9.91662
시장	-9.91698
▁해결하기	-9.91756
▁통치	-9.9178
▁개월간	-9.91846
▁만드는	-9.91885
▁목격자들	-9.91887
▁상품	-9.91919
▁전면	-9.91972
▁외부	-9.9209
▁참	-9.92093
▁경선에서	-9.92136
▁협회	-9.92139
습	-9.92184
▁포함해	-9.9228
▁학생들이	-9.92325
▁지도부	-9.92344
만에	-9.92398
▁필	-9.92406
▁워싱턴에서	-9.92587
▁해리포터	-9.92653
훨	-9.92653
▁국제유가	-9.92654
▁불참	-9.92664
▁음모	-9.92666
▁벌어진	-9.92668
▁선거운동	-9.92674
▁반정부	-9.92701
랜드	-9.92704
▁대의	-9.92737
골	-9.92739
▁잔해	-9.92768
대한	-9.92792
▁편지	-9.92902
▁가정	-9.92941
축	-9.93026
▁차지	-9.93075
▁생명	-9.93199
▁격	-9.93377
항	-9.93436
통신	-9.93453
▁장비	-9.93469
▁잡지	-9.93472
▁예정이	-9.93533
▁주일	-9.93576
▁with	-9.93684
▁앨범	-9.93687
▁DNA	-9.93688
▁질환	-9.9369
▁방침	-9.93691
창	-9.93695
▁장식	-9.93704
▁가득	-9.93709
▁아카데미	-9.93712
▁신청	-9.93738
▁체니	-9.93746
▁교황	-9.93749
둔	-9.93782
▁통합	-9.93836
▁손실	-9.93887
▁회담이	-9.93934
▁폐지	-9.93994
▁응	-9.94081
▁향하	-9.94101
▁유리	-9.94141
▁공개했다	-9.94167
▁충분한	-9.94298
▁내에	-9.9441
▁정부군	-9.94445
▁밝혀	-9.94473
▁벌인	-9.94482
▁중에는	-9.9449
▁바다	-9.94611
▁기념	-9.94686
▁맨체스터	-9.94724
▁콘서트	-9.94726
▁화산	-9.94735
▁영토	-9.94751
▁진행된	-9.94772
▁며칠	-9.9481
▁선물	-9.94819
▁레이스	-9.94899
▁요구하고	-9.94924
흐	-9.94929
▁여기	-9.95009
▁수집	-9.95209
▁정신	-9.95215
사건	-9.95384
▁킹	-9.95415
서는	-9.95445
장에서	-9.95503
▁주장하는	-9.95531
▁짐	-9.95565
시키	-9.95569
▁언급하지	-9.9559
▁관광객들	-9.95693
▁무릎	-9.95778
▁학살	-9.95782
▁맨유	-9.95786
▁접	-9.95788
▁폭	-9.9579
▁기능	-9.95794
▁준	-9.95799
▁기업들	-9.95835
불	-9.95848
▁머	-9.95854
▁대북	-9.95909
▁바그다드에서	-9.95956
▁것보다	-9.95981
▁밀란	-9.96002
▁성향	-9.9602
▁의료진	-9.96053
쇼	-9.96079
▁f	-9.96098
▁이익	-9.96177
▁시절	-9.96182
▁보상	-9.96193
▁못했	-9.96273
필드	-9.96373
▁방지	-9.96438
▁바람	-9.96439
▁방문할	-9.96471
▁터	-9.96491
었고	-9.96517
▁니	-9.96555
▁매장	-9.96684
▁죽	-9.96719
▁페더러	-9.96842
▁이메일	-9.96842
▁다르푸르	-9.96843
▁대다수	-9.96845
▁접속	-9.96855
앙	-9.96856
▁회원국	-9.96857
▁강경	-9.96911
▁콜	-9.96989
▁의도	-9.9711
▁대통령에	-9.97146
H	-9.97149
▁랭킹	-9.9717
▁대결	-9.97176
정책	-9.97181
F	-9.97236
▁기도	-9.97262
▁h	-9.97267
▁방법으로	-9.97281
해지	-9.97292
▁행	-9.97296
탈	-9.97338
톤	-9.97341
▁성과	-9.97346
▁이스라엘과	-9.97366
▁파타	-9.97373
▁계획에	-9.97373
자로	-9.97401
▁유가	-9.97428
▁척	-9.97538
▁장군	-9.9754
▁소니	-9.97562
ro	-9.97607
▁레이	-9.97748
때	-9.97787
▁이웃	-9.97809
지에	-9.97853
달하는	-9.97854
▁주는	-9.97887
▁사드르	-9.97915
▁밖으로	-9.97917
▁헤즈볼라	-9.97917
▁영변	-9.97923
▁야생	-9.9793
▁폭우	-9.97943
▁방문했다	-9.97956
▁특정	-9.9798
▁돌아가	-9.9804
▁생각하고	-9.98046
▁다이아몬드	-9.98048
▁크리스	-9.98052
▁혹	-9.98187
▁잃었다	-9.98228
▁존슨	-9.98263
힐	-9.9827
▁생존	-9.98299
▁지하	-9.98342
▁마이크	-9.98461
▁노동자	-9.9853
▁모습이	-9.98733
▁장관이	-9.98808
▁존재	-9.98815
▁지도	-9.98844
▁지키	-9.98958
▁이번주	-9.98973
▁다니	-9.98991
L	-9.98997
▁멸종	-9.99003
▁온난화	-9.99004
▁세계대전	-9.99004
▁폭행	-9.9901
▁리콜	-9.99013
므로	-9.99016
▁진실	-9.9903
▁출시	-9.99036
▁아이들이	-9.99036
▁잠시	-9.99109
▁원하는	-9.99138
▁밖에서	-9.9915
▁협상이	-9.9917
▁생존자	-9.99197
▁취할	-9.99228
▁빅	-9.99235
낼	-9.9927
▁발표된	-9.99274
▁합	-9.99299
▁서명	-9.99309
▁적절한	-9.99348
▁평양	-9.99349
조치	-9.99352
▁힘들	-9.994
레스	-9.99451
▁분야	-9.99463
쯤	-9.99566
클	-9.99635
▁스티븐	-9.99849
▁이스라엘군	-9.99882
▁질병	-9.99959
▁내전	-10.001
▁태평양	-10.001
▁현지시각	-10.001
▁포기	-10.0011
▁NBC	-10.0011
▁마틴	-10.0013
▁웨스트	-10.0014
지르	-10.0019
▁경찰서장	-10.002
▁내용이	-10.0025
▁아일랜드	-10.0028
▁의무	-10.0032
▁바라고	-10.0033
▁심각	-10.0035
▁말합니다	-10.0045
▁모양	-10.0056
원들	-10.0068
▁강조	-10.0074
▁논란	-10.0079
▁차드	-10.0082
▁예상했다	-10.0089
▁고객	-10.0092
▁억류	-10.0102
립	-10.0105
▁제도	-10.0111
▁보면	-10.0114
웰	-10.012
▁기준	-10.012
▁말라	-10.0121
▁쿠데타	-10.0121
▁보였	-10.0125
▁버마	-10.0125
▁우선	-10.0126
▁심문	-10.0127
▁서방	-10.0127
▁목격자	-10.0134
▁가자	-10.0137
▁자기	-10.0143
찬	-10.0149
▁사건과	-10.015
손	-10.016
▁올랐	-10.0195
▁나서	-10.0196
▁전망이	-10.0203
▁둘	-10.0204
▁t	-10.0207
킬	-10.0208
으	-10.0224
▁사건으로	-10.0233
▁찾고	-10.0234
▁일주일	-10.0235
▁핵시설	-10.0238
▁보통	-10.0239
▁경보	-10.0241
▁수백만	-10.0242
▁밑	-10.0243
▁구제	-10.0247
놓고	-10.0252
▁아래	-10.0267
겐	-10.0276
▁입원	-10.0276
▁사실상	-10.0298
▁가까이	-10.03
un	-10.0305
▁공격이	-10.031
▁보고했다	-10.0314
▁음반	-10.0318
▁스테	-10.0324
았	-10.0333
▁현재까지	-10.0339
관리	-10.0346
죠	-10.0347
▁이렇게	-10.0347
▁훌륭	-10.0347
▁파운드	-10.0347
▁갑자	-10.0348
▁복구	-10.0349
▁체결	-10.0349
▁격차	-10.035
▁일리노이주	-10.0354
▁수요	-10.0356
▁베트남	-10.0358
▁달성	-10.037
▁사전	-10.0371
▁브	-10.0377
취	-10.0383
▁화	-10.0384
섬	-10.0394
▁인하	-10.0398
▁교	-10.0403
▁케	-10.0405
▁원한다	-10.0411
▁대부분이	-10.0421
▁처	-10.0421
▁되기	-10.0427
▁톤	-10.0427
▁외교적	-10.0429
et	-10.0435
▁줄어들	-10.0439
슈	-10.044
▁업계	-10.0445
▁나이지리아	-10.0462
▁달라이라마	-10.0462
▁흡연	-10.0462
▁카르자이	-10.0462
▁동반	-10.0465
▁걸릴	-10.0467
▁치러진	-10.047
▁요원	-10.0479
▁심슨	-10.0479
▁노출	-10.0484
▁사용되	-10.0485
▁만날	-10.0492
연합	-10.0494
▁일본에서	-10.0495
▁부문	-10.0496
▁신호	-10.0498
▁벤	-10.05
리는	-10.0501
▁빛	-10.0508
▁된다고	-10.0511
성이	-10.0514
▁가구	-10.0515
▁환자들	-10.0517
▁선박	-10.0518
▁제안했다	-10.0519
il	-10.052
▁대상	-10.0522
R	-10.0526
▁남아	-10.0531
▁교도소	-10.0534
장이	-10.054
▁일본이	-10.0547
el	-10.055
▁실시되	-10.0552
▁입었	-10.0557
▁검색	-10.0573
▁묻	-10.0574
▁다우존스	-10.0579
▁라운드	-10.0579
▁설득	-10.0579
ies	-10.0583
▁시작한	-10.0584
▁조사에	-10.0587
▁느끼	-10.0592
▁원제	-10.0595
▁각국	-10.06
▁전반	-10.0603
▁수감자	-10.0606
▁프로	-10.0607
▁담당자	-10.0612
봉	-10.062
만큼	-10.0628
불어	-10.0637
▁본사	-10.0637
▁다우	-10.064
▁국제적	-10.0653
▁투어	-10.0654
▁근거	-10.0664
▁동물원	-10.0665
▁사인	-10.0669
▁소환	-10.0671
사를	-10.0674
▁영화제	-10.068
▁차전	-10.0681
겠	-10.0685
▁AC	-10.0686
▁광산	-10.0687
들어	-10.0688
희	-10.0694
▁시장에서	-10.0696
▁에드워즈	-10.0696
▁오스트리아	-10.0696
▁덴마크	-10.0696
▁복잡	-10.0696
▁재무장관	-10.0697
▁노력하고	-10.0697
▁교환	-10.0697
▁폭동	-10.0698
▁국왕	-10.0698
▁공공	-10.07
▁커피	-10.07
되면	-10.07
▁공중	-10.0703
▁신임	-10.0703
▁폐기	-10.0715
▁소수	-10.0718
M	-10.072
▁있어서	-10.0744
돌	-10.0745
▁그와	-10.0753
▁감정	-10.0759
까	-10.0759
▁철도	-10.076
▁베이	-10.0763
▁하게	-10.0772
▁목적으로	-10.0775
▁절	-10.0779
▁군인들	-10.0792
▁지진이	-10.0793
독	-10.0796
▁모인	-10.0797
▁증명	-10.0802
▁지휘	-10.0807
했음	-10.0808
▁맞서	-10.0815
라도	-10.0815
▁누군가	-10.0815
▁단순	-10.0816
▁기존	-10.0817
▁최선	-10.0818
▁성관계	-10.0818
▁매각	-10.0818
▁카드	-10.082
▁삼성	-10.0824
▁의식	-10.0824
▁북측	-10.0826
▁차관	-10.0833
시아	-10.0835
▁주인공	-10.0841
▁웃	-10.0843
려는	-10.0851
▁시위에	-10.0859
▁지연	-10.0861
쳤다	-10.0863
엘	-10.0867
▁합동	-10.0871
▁이하	-10.0872
▁대기	-10.0879
▁상점	-10.0895
▁세대	-10.0901
▁깨	-10.0905
있	-10.0909
▁계속되고	-10.0916
관계	-10.0923
사는	-10.0923
후드	-10.0923
▁서울에서	-10.0926
z	-10.0928
▁광	-10.0929
▁티	-10.0931
▁방글라데시	-10.0936
▁고등학교	-10.0936
▁농축	-10.0936
▁마카오	-10.0936
▁cm	-10.0937
▁칠레	-10.0937
▁봄	-10.0937
▁책임자	-10.0938
빠진	-10.0939
▁도입	-10.094
▁소설	-10.0941
려고	-10.0941
스키	-10.0942
▁공산당	-10.0944
▁식	-10.0949
▁팬	-10.0954
칠	-10.0961
▁전투기	-10.0961
▁대답	-10.0978
im	-10.098
▁청소년	-10.0982
▁늘	-10.0989
이어	-10.099
▁부르	-10.0991
▁수용소	-10.1002
▁마르	-10.1004
▁말하는	-10.1007
▁주기	-10.1008
▁즉각적	-10.1027
▁됩니다	-10.1043
▁당신이	-10.1052
셔	-10.1054
▁그것이	-10.1056
▁스웨덴	-10.1058
▁주한미군	-10.1058
▁네트워크	-10.1058
▁순방	-10.1059
▁검거	-10.1059
▁남아공	-10.1059
▁새끼	-10.1059
▁부담	-10.1062
기관	-10.1062
▁해병대	-10.1062
▁어린이들	-10.1063
▁발병	-10.1063
▁상처	-10.1063
▁사담	-10.1063
▁부여	-10.1068
▁예비	-10.1069
▁달라	-10.1069
▁따라서	-10.107
▁상승했다	-10.107
▁보수	-10.1071
들도	-10.1076
▁국회의원	-10.1087
▁내릴	-10.1095
▁조성	-10.1096
순	-10.1102
▁휴	-10.1105
▁세우	-10.1106
▁부근에서	-10.1106
▁건의	-10.1106
▁회원	-10.111
▁악화	-10.1128
▁전날	-10.1129
▁체제	-10.1137
▁벌였	-10.1141
▁그림	-10.1143
▁기반	-10.1147
▁장애	-10.1149
▁추적	-10.1149
▁구입	-10.1158
▁기본	-10.1161
▁지시	-10.1161
▁내놓	-10.1166
▁둘러	-10.1166
▁승리했다	-10.1168
▁공항에서	-10.1173
▁자리에서	-10.1174
ate	-10.1174
랄	-10.1175
자와	-10.1176
▁테러리스트	-10.1177
▁왕세자	-10.1177
▁경기장	-10.118
▁Japan	-10.1181
▁혜택	-10.1181
▁습격	-10.1181
▁카스트로	-10.1181
▁will	-10.1181
▁다니엘	-10.1182
▁덮	-10.1182
▁증가하고	-10.1183
▁극복	-10.1183
▁탐사	-10.1184
▁의지	-10.1185
▁그래서	-10.1185
▁유감	-10.1187
▁불안	-10.1188
▁보관	-10.1189
▁분명히	-10.1192
▁행성	-10.1195
▁점차	-10.1195
▁이뤄지	-10.1195
▁말까지	-10.12
▁복용	-10.1207
▁개방	-10.1208
▁사살	-10.1208
▁시내	-10.1214
▁많다	-10.1226
▁공격에	-10.1236
계획	-10.1247
▁기다리고	-10.1248
▁나갈	-10.1265
▁반군이	-10.1265
▁표시	-10.1267
▁저항	-10.1273
▁주석	-10.1276
▁손상	-10.1283
듯	-10.1287
▁챔피언스리그	-10.1306
북	-10.1306
▁겨울	-10.1307
킨	-10.1308
▁페루	-10.131
▁이중	-10.131
▁가옥	-10.1312
▁구출	-10.1313
▁희생자들	-10.1315
▁무력	-10.1315
▁명단	-10.1316
▁파산	-10.1317
웠다	-10.1319
▁색	-10.1336
▁수감자들	-10.1336
렛	-10.1361
▁펜	-10.1368
▁공원	-10.1374
▁오브	-10.1375
왔	-10.1381
시켰	-10.1383
영화	-10.1387
▁의회에	-10.1389
▁수상자	-10.1399
▁유치	-10.1399
▁그동안	-10.1405
▁잔	-10.1409
했기	-10.1409
▁실종	-10.1423
▁고대	-10.1427
▁의회에서	-10.143
▁붉은	-10.1432
um	-10.1432
▁정확히	-10.1433
▁파예드	-10.1433
▁운송	-10.1433
▁완벽	-10.1433
문제	-10.1436
▁노예	-10.1437
▁소식이	-10.1437
▁권한	-10.1445
▁초점	-10.1447
▁열대	-10.1447
▁가졌	-10.1451
▁올린	-10.1458
ia	-10.1459
▁조원	-10.1462
▁잇	-10.1465
▁운영하	-10.1466
로운	-10.1467
어야	-10.1469
▁주지	-10.1474
▁하면	-10.1476
▁바이	-10.1477
▁못하는	-10.1478
▁사라	-10.1479
▁모여	-10.1494
▁기독교	-10.15
▁무대	-10.1501
▁허락	-10.1506
▁경매	-10.151
▁베이징에서	-10.1512
▁연구원	-10.1521
▁선언했다	-10.1523
▁낸	-10.1528
▁있다면	-10.1544
▁블랙	-10.1561
▁IOC	-10.1561
▁활주로	-10.1561
▁숫자	-10.1561
▁북동부	-10.1561
▁철저	-10.1562
▁알래스카	-10.1563
▁민감	-10.1563
▁거뒀다	-10.1569
▁진화	-10.158
선수	-10.1587
▁고향	-10.1592
▁유전자	-10.1593
▁이사	-10.1594
▁형태	-10.1595
▁고발	-10.1597
▁공화국	-10.1598
▁제공하는	-10.16
▁의사들	-10.1605
▁의회의	-10.1606
▁샌프란시스코	-10.1608
드시	-10.1609
▁체계	-10.1613
▁거부했다	-10.1614
인들이	-10.1618
▁결정에	-10.1623
▁이주	-10.1623
▁지켜	-10.1625
벌	-10.1634
▁수영	-10.1637
숙	-10.1638
ry	-10.1658
항공	-10.166
▁중지	-10.1672
▁스리랑카	-10.1684
▁FRB	-10.1691
▁NATO	-10.1691
▁UEFA	-10.1691
▁마찬가지	-10.1691
▁심지어	-10.1691
▁폴란드	-10.1691
▁곳이	-10.1691
▁레알	-10.1692
▁커플	-10.1692
▁철군	-10.1694
▁자극	-10.1694
▁입증	-10.1694
▁현금	-10.1699
자는	-10.1704
▁보고서에서	-10.1707
▁실패했다	-10.171
행위	-10.1716
들로	-10.1721
▁탈출	-10.1724
▁식품	-10.1725
▁군정	-10.173
▁운항	-10.1733
▁대선에서	-10.1742
드는	-10.1754
▁빙하	-10.1754
악	-10.1762
▁경영	-10.1762
▁한국에서	-10.1762
애	-10.1763
▁PC	-10.1771
▁분명	-10.1771
▁타이	-10.1781
▁곡	-10.1783
▁Ro	-10.1785
▁이양	-10.1801
사가	-10.1802
▁파악	-10.1806
▁방향	-10.1808
▁안에서	-10.181
▁만일	-10.1816
▁중독	-10.1818
▁절대	-10.182
▁사우디아라비아	-10.1822
▁중부	-10.1823
▁크루즈	-10.1823
▁독	-10.1823
▁현상	-10.1826
▁무료	-10.1827
▁분열	-10.1829
▁소요	-10.1829
▁서신	-10.1829
▁공포	-10.183
▁호세	-10.1835
▁뼈	-10.1841
▁사망했	-10.1847
▁늘어	-10.1847
▁싸움	-10.1851
해줄	-10.1858
▁폭탄이	-10.1865
▁만난	-10.1867
▁보인다고	-10.1872
▁보안군	-10.1874
▁혁명	-10.1876
th	-10.1878
▁얻기	-10.1881
▁신체	-10.1883
▁전개	-10.189
▁납치된	-10.1893
▁뉴욕에서	-10.1894
▁이곳에	-10.1905
▁부정적	-10.1907
▁유나이티드	-10.1917
▁폭격	-10.1936
▁챔피언	-10.1942
▁노벨	-10.195
▁태양	-10.1955
▁잃은	-10.1956
▁크라이슬러	-10.1956
▁토마스	-10.1956
▁신발	-10.1964
▁견해	-10.1966
▁실종된	-10.1971
당한	-10.1979
▁린	-10.1983
▁런던에서	-10.1993
환	-10.1995
▁답	-10.1997
▁달간	-10.1997
▁공유	-10.1998
▁고립	-10.2004
▁대회에서	-10.202
▁기대하고	-10.2023
▁수업	-10.203
올	-10.2038
▁시장에	-10.204
딘	-10.2043
▁강요	-10.2044
▁an	-10.2049
▁법정	-10.2051
▁여자친구	-10.2052
▁외교관	-10.2054
▁방송국	-10.2057
▁값	-10.2062
▁경제에	-10.2066
률	-10.2068
▁선거에	-10.2071
▁야기	-10.2076
▁동티모르	-10.2091
▁라스베이거스	-10.2091
▁맞춰	-10.2091
▁타이틀	-10.2091
▁관찰	-10.2091
▁아이디어	-10.2092
▁생긴	-10.2093
▁인생	-10.2096
▁계속되	-10.2097
▁발생하지	-10.21
▁쓰나미	-10.21
▁피해가	-10.2106
▁중순	-10.2107
▁대량	-10.2111
▁발간	-10.2111
▁캘리포니아주	-10.2113
▁살아	-10.2116
▁안전한	-10.2121
▁받아야	-10.2121
상태	-10.2121
ir	-10.2123
▁콩고	-10.2126
▁찬	-10.2126
누	-10.213
도시	-10.2133
▁근처	-10.2134
▁이사회	-10.2135
▁분간	-10.2143
▁하던	-10.2144
▁증권	-10.2149
ity	-10.2151
▁좋아	-10.2156
▁수상했다	-10.2157
시키려	-10.216
▁재단	-10.2164
수록	-10.2171
뿐	-10.2172
례	-10.2174
▁만화	-10.2175
▁오염	-10.2178
▁해변	-10.2186
▁생각하는	-10.219
▁사회적	-10.2207
▁감독이	-10.2214
▁년이	-10.2215
▁거두	-10.2217
▁성화봉송	-10.2218
해주	-10.2223
더라	-10.2223
럽	-10.2226
▁김대중	-10.2228
▁리조트	-10.2228
▁엄격	-10.2228
▁불러	-10.2228
▁논평	-10.2228
▁첫번째	-10.2228
▁은퇴	-10.223
▁하원의원	-10.223
▁보여줬다	-10.2232
▁회동	-10.2232
▁돌아오	-10.2233
▁두바이	-10.2234
▁형제	-10.2234
▁모기지	-10.2234
▁바르셀로나	-10.2234
▁구금	-10.2235
▁세계은행	-10.2238
▁w	-10.2239
▁금요일	-10.2239
▁높아지	-10.224
▁기계	-10.2241
▁총격전	-10.2244
틀	-10.2244
▁무선	-10.225
▁갖게	-10.225
▁난사	-10.2251
▁한때	-10.2252
겨	-10.2253
▁누리	-10.2256
▁보낼	-10.2263
▁성공적	-10.2273
▁표했다	-10.2276
▁클린턴이	-10.228
낸	-10.2284
▁지시했다	-10.2288
▁시청	-10.2288
▁가는	-10.2302
▁명에게	-10.2302
▁세상	-10.2307
▁측근	-10.231
▁승리한	-10.2313
▁이스라엘이	-10.2314
컵	-10.232
▁출석	-10.2321
▁중요	-10.2328
▁끌어	-10.2328
▁과학자	-10.233
▁주제	-10.2337
▁리그	-10.2343
▁넓	-10.2357
운동	-10.2359
▁나누	-10.2359
▁지역으로	-10.2364
▁WHO	-10.2367
▁태어난	-10.2367
▁외환은행	-10.2367
▁데이터	-10.2369
▁디자인	-10.2369
▁책임이	-10.2369
▁채택	-10.2369
▁헨리	-10.237
▁단속	-10.237
▁우리나라	-10.2371
▁본선	-10.2373
▁전역	-10.2373
▁항소	-10.2375
▁예전	-10.2377
▁기상	-10.2386
▁케리	-10.2386
▁사용한	-10.2387
▁위조	-10.2389
▁보유하고	-10.2392
▁중국에	-10.2394
▁하와이	-10.2402
▁회의에서	-10.2406
▁보트	-10.2408
▁얻어	-10.2411
▁앞에	-10.2411
▁주한	-10.2424
▁니콜	-10.2426
▁라이트	-10.2435
우스	-10.2437
▁회견	-10.244
▁빚	-10.2446
▁바라	-10.2448
▁봤다	-10.2453
▁이라크와	-10.2454
▁의미한다	-10.2461
▁도시에서	-10.2462
기가	-10.2464
▁호텔에서	-10.2468
▁거절	-10.2468
▁진전	-10.247
▁인류	-10.2471
▁이송	-10.2475
▁GM	-10.2487
▁추방	-10.249
▁일리노이	-10.2499
▁아이오와	-10.25
▁강타	-10.2503
▁거쳐	-10.2505
▁다수	-10.2505
▁것이고	-10.2505
▁요르단	-10.2507
▁외교통상부	-10.2507
▁상태에	-10.2507
▁앓고	-10.2508
▁휴대전화	-10.2508
▁섹스	-10.2508
▁면담	-10.2509
▁가했다	-10.251
▁해결책	-10.2511
▁몰	-10.2516
▁유력	-10.2516
▁신중	-10.2517
▁마쳤다	-10.2518
▁오늘날	-10.2518
▁케이블	-10.252
▁개표	-10.252
▁여권	-10.2521
▁교사	-10.2522
▁아메리칸	-10.2522
▁만들어진	-10.2531
▁의석	-10.2532
▁여성의	-10.2533
▁불길	-10.2536
▁에도	-10.2536
▁데이	-10.2536
▁예수	-10.254
조차	-10.2543
▁보유	-10.2546
▁천만	-10.2547
▁전쟁에	-10.2548
▁신부	-10.2549
▁대학교	-10.2553
ot	-10.2554
ol	-10.2562
▁확실	-10.2562
▁뿐만	-10.2569
▁경쟁자	-10.2571
▁공간	-10.2572
랜	-10.2584
▁분리	-10.2588
▁이끌어	-10.2588
▁물건	-10.259
▁민주	-10.2591
▁고어	-10.2593
쳤	-10.26
cle	-10.2601
드라	-10.2602
젠	-10.2609
▁죽은	-10.261
A	-10.2613
▁발생하는	-10.2614
▁훼손	-10.2615
지수	-10.2617
뿐만	-10.2623
▁지속	-10.2632
▁주목	-10.2636
켓	-10.2641
혜	-10.2644
▁플레이	-10.2645
▁프로그램에	-10.2649
▁가슴	-10.2651
▁불능화	-10.2651
▁찾을	-10.2651
▁달러로	-10.2651
▁격렬	-10.2651
▁ABC	-10.2652
▁급등	-10.2652
▁떠	-10.2652
▁불편	-10.2653
▁종류	-10.2654
전에	-10.2655
▁무죄	-10.2655
▁참석했다	-10.2658
안에	-10.2659
스와	-10.2661
▁방화	-10.2661
▁간단	-10.2665
▁획득	-10.2666
▁크리스티	-10.2669
▁추정된다	-10.2673
익	-10.2682
▁주장에	-10.2683
극	-10.2692
▁제대	-10.2698
▁부과	-10.27
▁국민들에게	-10.2702
▁아동	-10.2703
▁논란이	-10.2707
▁당수	-10.2709
스톤	-10.2716
▁지속적	-10.272
▁우리당	-10.2729
▁비용이	-10.2733
▁중대	-10.2734
▁주인	-10.2741
▁못한다	-10.275
▁이행	-10.2753
▁혐의에	-10.2758
▁비교	-10.2759
▁미국측	-10.2765
▁이후로	-10.2772
j	-10.2772
▁중재	-10.2776
▁벗어나	-10.2786
닝	-10.2791
▁협박	-10.2795
▁와인하우스	-10.2796
▁송환	-10.2796
▁저지른	-10.2797
▁경영진	-10.28
▁법원에	-10.2801
릭	-10.2804
▁요소	-10.2806
▁펼쳤다	-10.2808
▁물가	-10.281
백	-10.2811
세력	-10.2813
▁폭스	-10.2814
▁방영	-10.2822
ver	-10.2824
▁계	-10.2824
▁업무	-10.2826
▁자원	-10.2832
▁것이었다	-10.2836
▁백인	-10.2844
▁시에	-10.2848
▁이내	-10.2848
▁한국에	-10.2848
▁순찰	-10.2856
▁명예	-10.2864
▁보지	-10.2869
▁얼음	-10.2871
▁악	-10.2874
자들에게	-10.2876
하고자	-10.2877
▁폭발물	-10.2889
▁단체들	-10.2892
▁기금	-10.2895
▁돌아	-10.2895
▁동성애자	-10.29
▁국방	-10.29
▁취	-10.29
▁만개	-10.29
완	-10.2903
▁표명	-10.2905
공격	-10.2906
산업	-10.2908
▁지목	-10.2911
▁끼	-10.2913
▁사용자	-10.2916
자금	-10.2917
▁사망자수	-10.2917
거래	-10.2919
▁제기했다	-10.2932
글	-10.2934
▁리처드	-10.2938
틴	-10.2938
ial	-10.294
▁못해	-10.294
짝	-10.2942
▁곤잘레스	-10.2942
▁블라디미	-10.2942
▁오사마빈라덴	-10.2942
▁일으킨	-10.2942
▁합병	-10.2943
▁임금	-10.2944
▁고위관리	-10.2945
▁나올	-10.2947
▁홀	-10.2948
대학	-10.295
▁낸시	-10.295
▁이루어졌다	-10.2952
▁방법이	-10.2954
▁쓴	-10.2955
주의자	-10.2957
▁발전소	-10.2958
▁순위	-10.2965
▁델	-10.2973
▁답했다	-10.2974
▁적극적	-10.2974
개발	-10.2987
▁세포	-10.2987
▁상어	-10.2991
▁황	-10.2993
▁의문	-10.2993
lo	-10.2993
▁봉쇄	-10.3
▁응답자	-10.3005
▁주문	-10.3005
션	-10.3006
▁후보들	-10.3014
▁수퍼	-10.3019
▁마감했다	-10.3021
총	-10.3026
▁식당	-10.3032
폭	-10.3044
▁초대	-10.3045
덴	-10.3052
트리	-10.3053
▁경찰서	-10.3054
▁불가능	-10.3057
▁나타내	-10.3059
▁몰아	-10.306
▁이라크군	-10.3063
상황	-10.3064
▁에어버스	-10.3068
▁엄청	-10.3078
경제	-10.308
▁푸	-10.3081
없이	-10.3082
▁취재	-10.3089
▁시점	-10.3089
▁개장	-10.3091
▁코미디	-10.3091
▁분석가	-10.3091
▁블라고예비치	-10.3092
▁선거캠프	-10.3092
▁스코틀랜드	-10.3092
▁President	-10.3092
▁plan	-10.3092
▁북서부	-10.3092
▁화장실	-10.3093
▁숀	-10.3093
▁부총리	-10.3094
▁작동	-10.3094
▁테스트	-10.3094
▁nu	-10.3095
▁사막	-10.3095
이기	-10.3097
▁노동당	-10.3098
▁해양	-10.3104
▁시기에	-10.3107
▁홈	-10.3108
▁그리	-10.3112
▁화해	-10.3113
밀	-10.3117
▁at	-10.3127
▁만났다	-10.3127
▁작	-10.3136
▁재건	-10.3143
▁코트	-10.3143
▁병사들	-10.3144
▁전해	-10.3155
▁전원	-10.3163
▁하늘	-10.317
▁발언에	-10.3172
슬	-10.3172
▁비판했다	-10.3176
▁아프가니스탄에서	-10.318
▁윌	-10.3183
▁행복	-10.3186
월	-10.319
막	-10.32
람	-10.3202
▁짓	-10.3206
▁인종	-10.3206
▁자사	-10.3218
▁우주비행사	-10.3218
▁조기	-10.3232
▁목격	-10.3233
▁압둘	-10.3233
▁시티	-10.3237
▁건축	-10.324
▁나스닥	-10.3243
▁샤라포바	-10.3243
▁리차드	-10.3243
▁리히터	-10.3243
▁복무	-10.3243
▁패트릭	-10.3244
▁핵프로그램	-10.3244
▁다윈	-10.3245
▁왕실	-10.3246
▁강풍	-10.3246
▁진영	-10.3246
▁헌	-10.3247
▁언어	-10.325
▁배경	-10.3252
▁자유롭	-10.3257
▁스타일	-10.3261
▁해임	-10.3262
▁들어갔다	-10.3263
▁차단	-10.3266
▁아니었다	-10.3271
달라고	-10.3277
▁정신적	-10.3277
▁록	-10.3277
▁이르	-10.3279
움	-10.328
▁시민들이	-10.3283
▁독도	-10.3285
▁중간	-10.33
▁자제	-10.33
히려	-10.3307
▁스키	-10.3315
▁대상이	-10.3316
▁블	-10.332
▁합류	-10.3321
▁리드	-10.3336
▁세인	-10.3344
P	-10.3346
에만	-10.335
▁환	-10.3353
▁공개된	-10.3365
▁트리	-10.3365
▁생각했다	-10.3366
▁문제들	-10.3368
암	-10.3369
▁맡은	-10.3371
▁골프	-10.3374
▁백악관에서	-10.3376
적이	-10.3378
▁붙	-10.3381
▁그렇지	-10.3389
▁열어	-10.3391
▁디즈니	-10.3397
▁캄보디아	-10.3397
▁남서부	-10.3397
▁받아들일	-10.3397
▁케빈	-10.3398
▁직업	-10.3398
▁수십명	-10.3401
▁보복	-10.3404
▁법무부	-10.3405
▁상공	-10.3407
▁공모	-10.3407
▁전세계적으로	-10.341
▁천명	-10.3411
▁직전	-10.3413
▁유럽의	-10.3415
▁완전한	-10.3415
▁단어	-10.3429
▁논의하기	-10.3429
▁보호하기	-10.3433
▁즉각	-10.3438
▁탐	-10.3442
▁가능하다	-10.345
▁측정	-10.3451
견	-10.3454
▁폭락	-10.3461
▁삭제	-10.3462
▁자신에게	-10.3472
▁청	-10.3481
▁시드니	-10.3482
▁대치	-10.3482
드리	-10.3493
▁진술했다	-10.3494
▁숨졌	-10.3498
▁거리에	-10.35
▁해적	-10.3502
▁시장이	-10.3516
▁공항에	-10.3519
▁의학	-10.3525
▁오바마와	-10.3527
▁보는	-10.3528
▁전역에	-10.3537
▁이루	-10.3538
▁뒤에	-10.3544
펠	-10.3545
▁한국이	-10.3551
텔	-10.3552
▁비타민	-10.3553
▁알코올	-10.3553
▁중앙일보	-10.3553
됨	-10.3553
▁디지털	-10.3553
▁가택연금	-10.3553
▁호랑이	-10.3553
▁둘러싸	-10.3553
▁거듭	-10.3554
▁활약	-10.3554
▁자치정부	-10.3554
▁영웅	-10.3554
▁라이벌	-10.3554
▁다우지수	-10.3554
▁원칙	-10.3554
▁산사태	-10.3555
▁새벽	-10.3555
▁불과	-10.3556
▁축소	-10.3556
▁취임식	-10.3559
▁들여	-10.356
la	-10.3562
▁회사가	-10.3562
▁만들고	-10.3562
▁조류	-10.3563
▁계획은	-10.3565
▁공개적으로	-10.3566
▁맥주	-10.3571
▁유대인	-10.3573
▁떠났다	-10.3573
▁타임스	-10.3574
▁채널	-10.3574
▁전환	-10.3577
▁감염된	-10.3579
▁탈	-10.3588
▁영장	-10.3589
▁장례식	-10.359
짜리	-10.359
▁소문	-10.3591
ist	-10.3592
제를	-10.3603
벨	-10.3605
▁지내	-10.3609
▁전부터	-10.3611
아야	-10.3612
▁잡고	-10.3615
다시	-10.3622
염	-10.3624
▁평가했다	-10.3631
▁동쪽	-10.3635
▁de	-10.364
▁불구	-10.364
▁모스크바	-10.3646
철	-10.3647
▁했었다	-10.3649
ant	-10.3649
▁무엇	-10.3651
▁한국인들	-10.3655
▁주었다	-10.3661
▁워	-10.3673
▁인근에	-10.3678
is	-10.368
▁출동	-10.3683
▁근로자	-10.3684
W	-10.369
▁싶어	-10.3694
▁라이	-10.3695
냈다	-10.3696
▁말해	-10.3702
▁발굴	-10.3707
▁산림	-10.371
▁토네이도	-10.3712
▁마이애미	-10.3712
▁쌍둥이	-10.3712
▁천연가스	-10.3712
▁겨냥	-10.3712
▁법무장관	-10.3712
▁근육	-10.3713
▁수석대표	-10.3713
▁로이터	-10.3713
▁사생활	-10.3714
▁마무	-10.3714
▁위안부	-10.3715
▁폭파	-10.3716
▁벨기에	-10.3716
▁무엇보다	-10.3716
▁법안이	-10.3718
▁선발	-10.3723
▁초반	-10.3725
▁쌀	-10.3729
▁이론	-10.3729
x	-10.3731
▁치열한	-10.3731
▁해산	-10.3733
▁선전	-10.3733
▁북쪽	-10.3734
▁형사	-10.3734
▁달려	-10.3739
▁눈에	-10.3741
▁페이지	-10.3744
▁우리에게	-10.3745
▁연구팀	-10.3746
▁조합	-10.3748
▁상태로	-10.3749
▁직장	-10.3764
▁부서	-10.3767
▁호수	-10.3769
▁노인	-10.3772
▁걸린	-10.3773
▁딕	-10.3773
해질	-10.3775
부대	-10.3783
▁키스	-10.3785
▁로비	-10.3786
▁추산	-10.3787
▁가족과	-10.3792
▁증가한	-10.3793
젤	-10.3796
▁국민들이	-10.38
▁예루살렘	-10.3801
▁투표에서	-10.3806
age	-10.3811
▁감행	-10.3812
녀	-10.3814
▁분석가들	-10.3822
▁연관	-10.383
▁철	-10.3831
▁조약	-10.3834
▁나왔	-10.3838
패	-10.384
왕	-10.3846
▁연주	-10.3846
▁세계적	-10.385
▁부근	-10.3853
카운티	-10.3854
조직	-10.3858
경찰	-10.386
조사	-10.3866
됐었다	-10.3868
욕	-10.3869
▁쇼핑	-10.387
멸	-10.3872
▁패션	-10.3872
▁뿌리	-10.3873
▁쓰촨성	-10.3873
▁아메리카	-10.3873
▁결선투표	-10.3873
▁보스턴	-10.3874
▁다섯	-10.3874
▁파트너	-10.3874
▁은신처	-10.3874
▁황금	-10.3875
▁사찰단	-10.3875
▁에드	-10.3879
▁엔진	-10.388
▁악어	-10.3882
▁수위	-10.3884
▁재난	-10.3884
▁보내는	-10.3884
▁생일	-10.3884
▁하락세	-10.3886
▁카터	-10.3887
▁보험	-10.389
▁들어오	-10.389
▁쓰	-10.389
▁상승세	-10.3891
▁미칠	-10.3893
▁나에게	-10.39
▁조명	-10.3901
▁것인가	-10.3902
▁영국인	-10.3905
▁아프간에서	-10.3913
▁연금	-10.3914
ut	-10.3922
▁연구에	-10.3925
째	-10.3927
▁알카에다와	-10.3927
▁예상되	-10.3933
▁노스캐롤라이나	-10.3933
경기	-10.3944
▁정지	-10.3945
▁이재민	-10.3947
▁파티	-10.3949
▁올리	-10.3954
▁사람에게	-10.3956
웨이	-10.3957
▁프레스	-10.3963
▁움직이	-10.3968
▁현실	-10.3983
▁상징	-10.3993
▁얻을	-10.3994
▁농	-10.3996
ac	-10.3999
향	-10.4001
▁피해자들	-10.4003
▁지점	-10.4004
찰	-10.4009
풍	-10.4012
est	-10.4012
▁든	-10.4017
▁인디애나	-10.4017
되며	-10.4019
걸	-10.402
갑	-10.4027
▁내리	-10.4036
▁참여한	-10.4037
▁PKK	-10.4037
▁늦게	-10.4037
▁마이크로소프트	-10.4037
▁알렉산더	-10.4037
▁왼쪽	-10.4037
▁좋다	-10.4037
▁키바키	-10.4037
▁득점	-10.4037
▁오딩가	-10.4037
▁침몰	-10.4037
▁거짓말	-10.4038
▁슈퍼	-10.4038
▁물이	-10.4038
▁급격	-10.4039
▁영업	-10.4039
▁포경	-10.404
▁체코	-10.4042
▁대립	-10.4046
▁킬로미터	-10.4048
▁분류	-10.405
▁초청	-10.405
▁경력	-10.4055
▁날짜	-10.4058
▁밥	-10.4064
받	-10.4065
▁근로자들	-10.4067
▁원화	-10.407
▁구조대	-10.4072
▁재무부	-10.4074
▁흔들	-10.4081
▁가동	-10.4081
▁숙	-10.4081
돼야	-10.4084
▁공사	-10.4084
▁데에	-10.4085
▁앨	-10.4092
▁장면이	-10.4093
▁차량에	-10.4094
man	-10.4096
▁차량이	-10.4096
▁총상	-10.41
▁제조업체	-10.4105
기에	-10.4108
▁밴드	-10.4112
▁기다리	-10.4114
같은	-10.4116
마자	-10.4117
되어야	-10.412
▁일제	-10.412
▁이란과	-10.4124
▁언론에	-10.4128
▁떨어지	-10.413
▁치러	-10.4135
▁인사들	-10.4139
잔	-10.4153
▁수리	-10.4159
▁경험이	-10.416
▁테러와	-10.4163
▁정의	-10.4163
▁보석	-10.4167
주는	-10.4171
▁그대로	-10.4173
▁시한	-10.4176
▁이식	-10.4186
▁북미	-10.4187
om	-10.4189
▁as	-10.4192
▁최저	-10.4193
치를	-10.4198
슨은	-10.4201
딩	-10.4202
▁천주교	-10.4202
▁비핵화	-10.4204
▁필라델피아	-10.4204
▁인플레이션	-10.4204
▁from	-10.4204
▁택시	-10.4204
닷컴	-10.4204
▁탄압	-10.4205
▁사냥	-10.4206
▁할머니	-10.4206
▁기밀	-10.4207
▁소집	-10.4208
▁체중	-10.4208
▁호소	-10.4212
▁소위	-10.4212
▁다음날	-10.4213
▁이뤄졌다	-10.4223
▁만남	-10.4225
▁양국간	-10.4232
▁노선	-10.4238
▁구조대원들	-10.4242
▁통일부	-10.4245
▁음	-10.4247
▁리치	-10.4251
▁정치인	-10.4257
▁순	-10.4258
▁자본	-10.4259
▁V	-10.426
▁투쟁	-10.4269
▁만들기	-10.4269
▁방식으로	-10.4279
▁것임	-10.4282
se	-10.4282
▁발생했	-10.4285
▁월요일에	-10.4285
▁로한	-10.4292
▁홍수로	-10.4292
▁했습니다	-10.4299
▁분만	-10.4299
▁동기	-10.4304
▁급속	-10.4313
▁남동부	-10.4314
▁미국인들이	-10.4317
▁극장	-10.432
▁월드	-10.4321
▁수상한	-10.4323
▁카페	-10.4328
▁g	-10.4332
▁시각	-10.4332
된다고	-10.4335
▁가족들이	-10.4336
▁관계에	-10.4337
▁출판	-10.4343
착	-10.4344
헌	-10.4348
새	-10.436
▁화학	-10.4362
베나	-10.4369
좌	-10.437
▁옮겨	-10.4372
▁탄핵	-10.4372
▁골키퍼	-10.4373
▁남자친구	-10.4373
▁구멍	-10.4374
▁진행자	-10.4374
▁포럼	-10.4374
▁일간지	-10.4375
▁폭설	-10.4376
▁아이폰	-10.4376
▁주최측	-10.4377
▁단어장	-10.4377
▁성격	-10.4378
▁진단	-10.4379
▁음주	-10.438
▁날개	-10.438
작전	-10.4384
▁화재로	-10.4395
▁공대	-10.4397
▁특수	-10.4401
▁일본과	-10.4401
받았다	-10.4408
한번	-10.4409
▁구간	-10.4411
▁미군과	-10.4414
▁공기	-10.4414
▁예술	-10.4417
▁수사관들	-10.4418
▁예를들	-10.4418
▁사법	-10.442
▁사람들과	-10.442
니아	-10.4425
스가	-10.4426
▁마비	-10.4429
▁사태에	-10.443
▁표명했다	-10.443
▁나오지	-10.4438
▁가상	-10.4442
▁기록한	-10.4444
▁여론조사에서	-10.4451
▁신사	-10.4452
대에	-10.4452
▁군사적	-10.4456
▁학	-10.4464
U	-10.4468
▁바꾸	-10.4469
▁주장한	-10.4471
▁봉사	-10.4472
▁실망	-10.4478
▁세력이	-10.4484
학교	-10.4486
▁기소됐다	-10.4495
사인	-10.4497
▁다이	-10.4499
▁토지	-10.4503
▁친구들	-10.4503
놓	-10.4507
▁내일	-10.4508
▁모르	-10.4509
몬	-10.4512
델	-10.4512
▁먼	-10.4513
▁제작한	-10.4522
장에	-10.4524
▁부상으로	-10.4527
참	-10.453
연맹	-10.4531
ive	-10.4532
▁존중	-10.4533
▁제공할	-10.4537
▁이루어지	-10.4542
▁대륙	-10.4542
사항	-10.4545
▁사우스캐롤라이나	-10.4546
▁이산화탄소	-10.4546
▁코끼리	-10.4546
▁후진타오	-10.4546
립니다	-10.4547
▁종결	-10.4548
▁징역형	-10.4549
▁브랜드	-10.455
▁라덴	-10.4551
지역에서	-10.4562
▁기온	-10.4564
▁비교적	-10.4565
▁정식	-10.4566
▁용기	-10.4566
▁아난	-10.4566
▁성장률	-10.4568
▁보여준다	-10.4568
이드	-10.4568
▁갔다	-10.4571
▁마리아	-10.4578
▁당국자	-10.4579
허	-10.4581
▁확인됐다	-10.4582
G	-10.4583
▁전통적	-10.4583
▁St	-10.4584
베이	-10.4599
▁돼지	-10.4604
▁자신과	-10.4606
▁여행객	-10.4608
▁위협이	-10.461
▁고객들	-10.4613
택	-10.4626
▁조각	-10.4627
▁생기	-10.4628
적이고	-10.4631
▁이에따라	-10.4631
▁초안	-10.4632
▁세워	-10.4638
▁보고서에	-10.4639
▁하나로	-10.4641
▁희생	-10.4644
▁청문회	-10.4662
▁낼	-10.4663
▁받는다	-10.4666
▁이란에	-10.4671
▁폭발이	-10.4676
ma	-10.4681
▁올라가	-10.4681
▁치르	-10.4687
▁중이었다	-10.4689
검	-10.4689
▁마시	-10.4698
력이	-10.47
▁보잉	-10.4701
▁가게	-10.4702
▁방송사	-10.4704
탕	-10.4709
▁거주	-10.471
얼	-10.4711
▁여학생	-10.4711
싱	-10.4715
▁기대한다	-10.4716
▁HIV	-10.4721
▁선관위	-10.4721
▁테일러	-10.4721
▁뭄바이	-10.4721
▁쿠웨이트	-10.4721
▁스트레스	-10.4721
▁계좌	-10.4722
장치	-10.4722
▁균형	-10.4722
▁China	-10.4722
▁남극	-10.4723
▁줄리아니	-10.4724
▁스턴	-10.4725
▁배후	-10.4729
▁벽	-10.4732
▁실적	-10.4733
▁화상	-10.4741
▁문제의	-10.4744
▁일으켰다	-10.4751
▁정전	-10.4755
▁피부	-10.4759
▁보일	-10.4763
▁스톤	-10.477
▁일어났다	-10.4774
op	-10.4779
비치	-10.4782
▁군은	-10.4784
▁출연한	-10.4789
▁파도	-10.4789
▁날아	-10.4793
▁맡고	-10.4793
▁근처에서	-10.4804
▁결과에	-10.4806
버그	-10.4807
▁도착한	-10.4807
▁올려	-10.4817
니스	-10.4828
▁죄	-10.4836
ee	-10.4838
스코	-10.4844
▁자택	-10.4845
▁끝나	-10.4846
그룹	-10.4851
▁콘	-10.4851
▁대피했다	-10.4858
▁입을	-10.4863
▁가족이	-10.4866
▁남부에서	-10.4867
▁물에	-10.4867
▁사용해	-10.487
침	-10.4879
압	-10.4882
▁승려들	-10.4883
▁선포했다	-10.4885
▁토론회	-10.4886
▁하나인	-10.4888
알	-10.4894
▁파손	-10.4895
▁비난하는	-10.4896
▁광범위	-10.49
▁다큐멘터리	-10.49
▁식료품	-10.49
▁에콰도르	-10.49
▁재검토	-10.49
▁탱크	-10.49
▁펠로시	-10.49
▁마라톤	-10.49
▁돌고래	-10.49
▁전당대회	-10.49
연구소	-10.49
▁예멘	-10.49
▁교통사고	-10.4901
▁지붕	-10.4901
▁소규모	-10.4901
▁관영	-10.4901
▁구축	-10.4902
▁보존	-10.4902
▁동생	-10.4903
▁화려	-10.4904
▁관계당국	-10.4906
▁기쁘다	-10.4907
사태	-10.4907
▁감바리	-10.4907
▁미디어	-10.4907
▁범행	-10.4908
▁제목	-10.4909
▁묘사	-10.4909
원이	-10.4915
▁치명적인	-10.4918
▁부산	-10.4922
▁재판관	-10.4925
▁발생하고	-10.4926
▁회원국들	-10.4926
▁과도	-10.4927
▁시체	-10.4935
▁손에	-10.4942
▁국적	-10.4945
▁분에	-10.4948
▁북쪽으로	-10.4948
▁서장	-10.4951
드로	-10.4952
▁사용했다	-10.4954
▁정상들	-10.4955
▁수립	-10.4957
▁필요성	-10.4968
해진	-10.497
▁진행되는	-10.4974
해야만	-10.4974
업자	-10.4976
▁인원	-10.4977
위원장	-10.4979
▁무게	-10.4982
라스	-10.4986
▁참석할	-10.4988
▁중단했다	-10.499
▁쓰고	-10.5
▁총회	-10.5011
▁이용하는	-10.5015
▁최근에	-10.5021
▁세계적으로	-10.5024
▁노동자들	-10.5026
▁론	-10.5028
▁적절	-10.5028
국인	-10.5034
▁다가	-10.5035
▁내렸	-10.5044
▁침입	-10.5045
▁정책에	-10.5045
▁경호원	-10.505
▁제출했다	-10.5052
▁특파원	-10.5058
▁애도	-10.506
▁착수	-10.5063
▁비율	-10.5067
▁북극	-10.5068
닥	-10.5068
▁유럽에서	-10.507
▁일치	-10.5072
켈	-10.5081
▁DVD	-10.5082
▁NBA	-10.5082
▁과반수	-10.5082
▁돕기	-10.5082
▁듣고	-10.5082
▁샌디에이고	-10.5082
▁협약	-10.5082
▁화이트	-10.5082
▁횡령	-10.5082
▁롬니	-10.5082
▁펀드	-10.5082
▁감금	-10.5082
▁봉송	-10.5082
▁일어날	-10.5082
▁가벼	-10.5082
▁침공	-10.5082
▁소련	-10.5083
▁운명	-10.5083
▁레이건	-10.5084
▁케이트	-10.5085
▁신규	-10.5085
▁지상	-10.5086
▁판정	-10.5087
▁뇌물	-10.5089
▁경관	-10.509
▁숲	-10.509
▁자문	-10.5091
▁이륙	-10.5092
▁개정안	-10.5095
▁마친	-10.5097
▁녹	-10.5099
▁늘어나	-10.5101
▁기차	-10.5103
▁반박	-10.5103
▁여성들이	-10.5106
▁충돌이	-10.5108
제도	-10.5109
▁조용	-10.5117
▁일련	-10.512
▁보여주고	-10.5126
▁차지하고	-10.5128
▁해안에서	-10.5131
▁기부	-10.5133
▁지정	-10.5139
▁요리	-10.5144
▁지점에서	-10.5158
▁품	-10.5159
all	-10.5162
▁부모들	-10.5167
량이	-10.5168
▁New	-10.5168
▁근거로	-10.5168
▁수배	-10.5169
▁시작했	-10.517
▁이름이	-10.5171
▁통신이	-10.5177
▁위인	-10.5183
▁예정인	-10.5185
▁연구원들	-10.5187
▁고소	-10.5188
▁신조	-10.5192
▁대로	-10.5203
▁보냈	-10.5208
▁팀이	-10.5215
▁미스	-10.5218
▁개시	-10.5228
▁공약	-10.5229
▁브리	-10.5233
법원	-10.5237
▁그래	-10.5242
▁성직자	-10.5248
▁배출	-10.5248
▁적십자	-10.525
▁무슬림	-10.5253
▁생물	-10.5257
▁유출	-10.5259
▁얼	-10.526
te	-10.5261
갔다	-10.5265
▁국제원자력기구	-10.5267
▁안전보장이사회	-10.5267
▁연쇄	-10.5267
▁캐릭터	-10.5267
▁확장	-10.5267
▁메르켈	-10.5267
▁지하철	-10.5267
▁his	-10.5267
▁발휘	-10.5267
▁특징	-10.5268
▁영화배우	-10.5269
▁부채	-10.5269
▁저희	-10.527
햄	-10.5271
▁당초	-10.5272
▁래리	-10.5275
▁조지아주	-10.5276
▁항구	-10.5276
▁모임	-10.5279
▁붙잡	-10.5279
▁지분	-10.5282
▁처해	-10.5283
비아	-10.5286
▁서울시	-10.5288
▁하미	-10.5289
▁맞추	-10.5291
▁오하이오주	-10.5292
▁운전사	-10.5305
▁생산량	-10.5305
▁MD	-10.5305
▁승무원들	-10.5308
▁냈다	-10.5309
▁선원	-10.5314
해왔	-10.5316
▁운영하고	-10.5316
am	-10.5318
▁나이트	-10.5327
▁최	-10.533
▁누르	-10.5339
▁확정	-10.5339
▁검은	-10.5339
▁요금	-10.5341
▁달린	-10.5344
▁투르	-10.5345
▁달러화	-10.5347
들로부터	-10.535
▁주장한다	-10.5351
▁not	-10.5355
▁발견한	-10.536
▁사용하지	-10.5361
▁펼치	-10.5365
▁있어야	-10.5365
▁주식시장	-10.5367
사의	-10.5374
▁일본에	-10.5379
▁계속될	-10.5379
▁레스토랑	-10.538
▁와인	-10.5383
▁상태에서	-10.5386
▁확신한다	-10.5388
▁행사에	-10.5391
기업	-10.5394
▁망	-10.5396
▁소매	-10.54
▁셀	-10.54
간에	-10.5401
삼	-10.541
▁최고치	-10.5411
▁미치는	-10.5413
▁국가에서	-10.5418
▁합의한	-10.5418
▁주전	-10.5423
▁맞는	-10.5429
▁포로	-10.5438
▁레드	-10.5439
▁수사관	-10.5446
▁데일리	-10.5446
롭	-10.5447
▁중단할	-10.545
넬	-10.5452
▁미시시피	-10.5454
릿	-10.5455
픽	-10.5455
▁마흐디	-10.5456
▁매니저	-10.5456
▁먹이	-10.5456
▁프랭크	-10.5456
▁항공우주국	-10.5456
▁퇴임	-10.5456
▁줄기세포	-10.5456
▁앤드류	-10.5456
▁난민촌	-10.5456
▁귀환	-10.5457
▁녹음	-10.5457
▁빌딩	-10.5457
▁탄생	-10.5457
귀	-10.5459
▁후보자	-10.5461
▁리처드슨	-10.5462
▁침대	-10.5462
▁하이	-10.5463
▁거부권	-10.5463
▁소형	-10.5465
▁추세	-10.5466
▁매체	-10.5467
▁원래	-10.5467
▁밝혀진	-10.5467
▁공산주의	-10.547
뉴스	-10.5472
▁진보	-10.5472
▁후보와	-10.5474
▁메일	-10.5475
▁인민	-10.5476
▁지원할	-10.5481
▁over	-10.5482
▁용	-10.5482
▁동의했다	-10.5487
▁베르	-10.5488
▁낮추	-10.5489
▁구역	-10.5489
▁스타디움에서	-10.549
▁텍사스주	-10.5495
▁정원	-10.5497
▁등급	-10.55
▁무어	-10.5503
▁깊이	-10.5505
▁다르다	-10.5509
▁원숭이	-10.5513
▁영화에	-10.5514
스타인	-10.5514
▁실종자	-10.552
▁동료들	-10.5521
▁흥분	-10.5524
▁직원이	-10.5524
송	-10.5525
ese	-10.5525
▁어렵다	-10.5525
▁없게	-10.5528
▁윤	-10.553
▁건물이	-10.553
▁무리	-10.5534
트라	-10.5542
▁실시할	-10.5544
▁딸이	-10.5552
▁만족	-10.5558
▁작업에	-10.5562
포드	-10.5563
▁가해	-10.5565
▁협상에	-10.5566
▁육	-10.5567
▁않았던	-10.5573
▁동맹국	-10.5588
▁일어났	-10.559
▁전달했다	-10.5592
▁추측	-10.5594
▁화요일에	-10.5604
능	-10.5604
▁옆	-10.5605
▁쉽지	-10.5606
▁Le	-10.5616
▁견	-10.5621
존	-10.5625
▁생각이	-10.5627
▁소식통이	-10.5629
ent	-10.5631
놀	-10.5632
ho	-10.5633
▁경호	-10.5639
li	-10.564
▁애리조나	-10.564
▁말했	-10.5643
▁교도소에	-10.5644
▁운전자	-10.5646
▁침략	-10.5648
▁애완견	-10.5648
▁예비선거	-10.5648
▁샘플	-10.5648
▁어깨	-10.5648
▁옐친	-10.5648
▁롤링	-10.5648
▁득표율	-10.5649
▁복역	-10.5649
▁솔직	-10.5649
▁제정	-10.5649
▁영양	-10.565
▁쿠퍼	-10.565
▁창출	-10.565
치는	-10.565
▁끝날	-10.5651
▁창문	-10.5651
▁다국적군	-10.5652
▁방출	-10.5653
▁졸리	-10.5654
▁결과로	-10.5657
▁수송	-10.5657
▁키우	-10.5658
꺼	-10.5658
정보	-10.5667
▁여지	-10.5672
▁경비	-10.5674
▁신문사	-10.5686
▁인력	-10.5688
▁행정	-10.5688
▁발견되었다	-10.5694
▁증세	-10.5696
▁옆에	-10.5696
포트	-10.57
▁테니스	-10.5701
▁즐	-10.5701
▁상상	-10.5703
▁공개됐다	-10.5703
▁늘리	-10.5705
▁놀	-10.5708
▁겨	-10.5709
▁혼	-10.5711
ush	-10.5712
마리	-10.5715
▁예정이었다	-10.5719
내내	-10.5721
▁치러지	-10.5725
▁청사	-10.5726
▁화물	-10.5726
▁전복	-10.5729
▁던지	-10.5731
▁아르	-10.5732
▁X	-10.5733
▁인근에서	-10.5733
▁촬영한	-10.5737
▁함	-10.5739
▁해상	-10.5741
▁보게	-10.5743
▁조건으로	-10.5758
▁따르	-10.5766
▁모색	-10.5769
▁아들이	-10.5773
▁대항	-10.578
▁승객들	-10.5783
▁카불	-10.5783
▁일으키	-10.5783
▁후보인	-10.5789
▁거절했다	-10.5796
▁문제와	-10.5798
▁권고	-10.5804
▁무고	-10.5806
▁자리에	-10.5812
▁받아들이	-10.5812
군이	-10.5813
▁하락한	-10.5813
▁맨	-10.5813
▁하루에	-10.5815
혈	-10.5817
▁게재	-10.5828
▁통계	-10.5833
▁빈곤	-10.5833
넷	-10.5839
타르	-10.584
소를	-10.584
▁방문하는	-10.5842
니는	-10.5842
▁뮤지컬	-10.5844
▁윔블던	-10.5844
▁일으킬	-10.5844
▁퍼거슨	-10.5844
▁배터리	-10.5844
▁여겨지	-10.5844
▁프리미어리그	-10.5844
▁new	-10.5844
▁노르웨이	-10.5844
▁government	-10.5844
▁유혈사태	-10.5844
▁헌법재판소	-10.5844
▁낙태	-10.5844
▁검증	-10.5844
▁상륙	-10.5844
▁외무성	-10.5845
▁생방송	-10.5845
▁오마르	-10.5846
▁로딕	-10.5846
▁실업률	-10.5848
▁지켜보	-10.5848
▁명인	-10.5848
▁서양	-10.5849
▁테러에	-10.5849
▁백신	-10.585
▁드러냈다	-10.585
▁이뤄진	-10.5851
▁상호	-10.5852
곤	-10.5853
▁본토	-10.5854
▁발포	-10.5855
▁발행	-10.5855
▁최저치	-10.5858
▁환호	-10.5863
▁분량	-10.5864
▁년만	-10.5865
▁알렸다	-10.5869
▁제리	-10.5872
▁정상화	-10.5874
▁싸	-10.5875
▁동일한	-10.5877
보호	-10.5877
▁즐기	-10.5878
▁알지	-10.5885
▁테러범	-10.5885
▁식사	-10.5886
▁잡스	-10.5891
▁소득	-10.5892
별	-10.5896
▁유도	-10.5896
비용	-10.5901
▁자택에서	-10.5909
측이	-10.5909
▁일본인	-10.5915
▁후원	-10.5915
▁정권이	-10.5919
▁심의	-10.593
금지	-10.5933
▁매달	-10.5944
▁래	-10.5945
대표	-10.5946
▁국기	-10.5956
▁전반적	-10.5972
▁학교에	-10.5973
에게서	-10.5974
▁지지한다	-10.5977
▁투표에	-10.5978
▁발표됐다	-10.5988
▁연안	-10.5989
▁물품	-10.6001
줬다	-10.6001
▁교황은	-10.6002
▁실질적	-10.6003
▁이민	-10.6004
▁동물들	-10.6008
▁포기하	-10.6008
어로	-10.6013
▁지지자들이	-10.6014
▁얻고	-10.6018
육	-10.602
푸	-10.6031
옥	-10.6033
시킨다	-10.6033
▁잡아	-10.6037
▁상원의원과	-10.6038
웅	-10.604
▁메이	-10.6041
▁오토바이	-10.6044
▁카트리나	-10.6044
▁파바로티	-10.6044
▁피라미드	-10.6044
▁느낄	-10.6044
▁징계	-10.6044
▁데이빗	-10.6044
▁보이콧	-10.6044
▁정거장	-10.6044
▁여섯	-10.6044
▁암컷	-10.6044
▁MBC	-10.6045
▁라이언	-10.6045
▁응급	-10.6045
▁지원하는	-10.6048
▁오른쪽	-10.6048
▁상대방	-10.6049
▁통증	-10.6049
▁알렉스	-10.605
▁법원에서	-10.605
▁조항	-10.605
▁모금	-10.6052
▁플레이어	-10.6052
▁음성	-10.6052
▁돌파	-10.6053
▁빠지	-10.6055
▁부실	-10.606
▁유산	-10.606
▁취해	-10.606
▁사설	-10.6063
▁산타	-10.6065
혔다	-10.6066
▁버리	-10.6067
▁대표들	-10.6069
차량	-10.6073
▁해병	-10.6074
입어	-10.6078
▁반영	-10.6078
▁플로리다주	-10.6082
▁국가로	-10.6083
▁쓸	-10.6085
총리	-10.6085
▁회의에	-10.6087
▁에어	-10.6089
▁감소했다	-10.6092
▁요인	-10.6092
▁앉아	-10.6096
▁포장	-10.6098
오는	-10.6098
▁소유하고	-10.6098
▁해서	-10.6109
▁레바논군	-10.611
▁외치	-10.6117
▁지대	-10.6119
▁입수	-10.612
▁노리	-10.6126
▁전해지	-10.6126
▁실시했다	-10.6126
▁up	-10.6132
▁국민의	-10.6135
데이	-10.615
▁생각하지	-10.6154
▁약세	-10.6155
세이	-10.6157
▁전부	-10.6165
▁마을에서	-10.617
▁비행사	-10.6172
ke	-10.6172
스럽게	-10.6172
▁웨	-10.6174
▁바라는	-10.6174
▁몰고	-10.6174
리스트	-10.6177
▁코커스	-10.6181
▁무장대원	-10.6182
▁남자들	-10.6185
▁두번째	-10.6193
기록	-10.6196
▁하면서	-10.6204
쪽으로	-10.6206
▁단체인	-10.6207
▁주위	-10.621
▁알아	-10.6216
측에	-10.6218
상의	-10.6221
됐을	-10.6221
▁잠재적	-10.6234
▁온도	-10.6241
▁감지	-10.6243
잉	-10.6244
▁취한	-10.6247
▁IMF	-10.6248
▁Obama	-10.6248
▁관타나모	-10.6248
▁마돈나	-10.6248
▁객실	-10.6248
▁서식지	-10.6248
▁불가리아	-10.6248
▁경기부양책	-10.6248
▁라파엘	-10.6248
▁브리핑	-10.6248
▁FDA	-10.6249
▁화합	-10.6249
▁비틀즈	-10.6249
way	-10.625
사회	-10.6252
▁American	-10.6252
▁테러조직	-10.6253
▁종료	-10.6253
▁접전	-10.6257
▁r	-10.6258
▁차별	-10.6259
▁대학에서	-10.6259
▁멀리	-10.6259
▁전국적으로	-10.626
폰	-10.626
▁보급	-10.6261
▁재임	-10.6261
▁내려졌다	-10.6263
▁개편	-10.6263
▁재직	-10.6263
▁도심	-10.6263
엄	-10.6265
헤	-10.6265
▁범인이	-10.6265
벽	-10.6268
바이	-10.6269
▁없습니다	-10.6271
됩니다	-10.6271
으면서	-10.6275
▁열렸다	-10.6275
▁리비	-10.6277
▁않는다면	-10.6282
리에	-10.6287
▁다음주	-10.6288
▁원인이	-10.6299
로스	-10.6303
▁조지아	-10.6305
국이	-10.6306
▁모건	-10.6308
교육	-10.631
▁포함돼	-10.6314
▁방향으로	-10.6314
기지	-10.6319
▁처한	-10.6321
▁당국에	-10.6322
▁참여할	-10.6329
었는지	-10.6329
▁군인들이	-10.633
▁In	-10.6332
K	-10.6333
▁해주	-10.6337
▁범	-10.6342
▁소식에	-10.6343
네스	-10.6349
ine	-10.6352
본부	-10.6352
▁지불하	-10.6352
▁미터	-10.6353
▁커지	-10.6362
▁계기	-10.637
▁플라	-10.637
▁최대의	-10.6373
▁out	-10.6378
▁제출한	-10.6381
▁중심가	-10.6381
물이	-10.6393
▁Co	-10.6399
▁살해했다	-10.6403
▁프라이머리에서	-10.6406
으려	-10.6417
▁제시했다	-10.6421
검사	-10.6423
▁이용한	-10.6423
▁악화되	-10.6428
이란	-10.6434
▁부당	-10.6436
▁상승한	-10.6437
시대	-10.6438
니까	-10.6443
▁농장	-10.6444
▁콜로라도	-10.6446
▁청구	-10.6447
십	-10.6448
▁뉴욕주	-10.645
▁st	-10.6453
▁급증	-10.6456
▁아름다	-10.6456
▁부딪	-10.6456
▁경기침체	-10.6456
▁끔찍	-10.6456
▁아테네	-10.6456
▁플라스틱	-10.6456
▁히틀러	-10.6456
룸	-10.6456
▁중남미	-10.6456
▁자유무역협정	-10.6456
▁공룡	-10.6457
▁벽돌	-10.6457
▁에이커	-10.6457
▁탈락	-10.6457
▁자선단체	-10.6458
▁거짓	-10.6459
▁금액	-10.6459
▁점검	-10.646
id	-10.6464
▁야구	-10.6465
▁자신감	-10.6466
▁고급	-10.6466
정도	-10.6466
▁이틀간	-10.6467
▁접수	-10.6467
▁아마디	-10.6469
▁실린	-10.647
▁중요성	-10.6471
▁탄소	-10.6472
▁인형	-10.6473
▁우즈	-10.6476
▁존경	-10.6476
▁한국은행	-10.6477
램	-10.6483
▁남용	-10.6483
▁노력이	-10.6486
▁군함	-10.6486
▁여러분	-10.6488
▁불이	-10.6489
▁겸	-10.6489
▁강세	-10.649
▁세웠다	-10.6493
▁포함하여	-10.6493
▁광장	-10.6499
▁라이브	-10.65
없는	-10.6504
▁유발	-10.6505
▁유튜브	-10.6518
▁조사한	-10.6522
▁화면	-10.6526
▁털	-10.6527
▁로스	-10.6528
▁학생이	-10.6533
▁각자	-10.6534
▁개인적	-10.6535
▁손해	-10.6537
▁남편이	-10.6539
▁대학생	-10.6541
주에서	-10.6543
▁설	-10.6545
평	-10.6549
ta	-10.6553
웨	-10.6562
▁약화	-10.6568
▁소비자들	-10.6574
▁당국자들	-10.6575
▁섭취	-10.6578
▁국가들이	-10.658
겠습니다	-10.6581
▁미니	-10.6587
▁크레	-10.659
▁포함됐다	-10.6595
▁맛	-10.66
▁상하이	-10.6601
▁로브	-10.6604
▁사용하고	-10.6605
▁잃었	-10.6608
겼다	-10.6611
대회	-10.6619
속도로	-10.662
▁법안에	-10.6637
▁직면	-10.6645
다란	-10.6646
▁Ch	-10.6647
na	-10.6652
▁매춘	-10.6668
▁OPEC	-10.6669
▁루아얄	-10.6669
▁에넹	-10.6669
▁우주왕복선	-10.6669
▁울포위츠	-10.6669
▁지지선언	-10.6669
▁허커비	-10.6669
▁징후	-10.6669
▁원문기사	-10.6669
▁시라크	-10.6669
▁벌써	-10.6669
▁농업	-10.6669
▁본격적	-10.6669
▁관람	-10.667
▁파나마	-10.667
▁드러내	-10.6671
▁범위	-10.6671
▁탄광	-10.6671
▁술집	-10.6671
▁NK	-10.6671
▁떠날	-10.6671
▁막대한	-10.6672
▁디스크	-10.6672
▁매매	-10.6674
▁통과시켰다	-10.6675
▁서류	-10.6675
▁연계	-10.6676
▁싱	-10.6676
▁경사	-10.6676
▁집권당	-10.6678
▁형식	-10.6678
▁로저	-10.6679
▁준수	-10.668
▁국방성	-10.6681
▁완	-10.6681
▁민족	-10.6683
▁정계	-10.6684
시오	-10.6685
▁중이	-10.6685
▁연간	-10.6686
기자	-10.6689
▁자동	-10.6689
▁촉진	-10.6689
몰	-10.6691
▁얼마전	-10.6691
▁승부	-10.6693
장으로	-10.6695
▁곰	-10.6695
않	-10.6699
▁좋아하는	-10.67
장인	-10.6704
▁표면	-10.6705
▁호소했다	-10.671
▁있을지	-10.6712
전에서	-10.6715
▁내려진	-10.6716
▁관여	-10.6717
업계	-10.6718
▁있었습니다	-10.6734
▁불에	-10.6735
브라	-10.6743
▁이어지	-10.6745
▁르	-10.6746
지역에	-10.6747
▁해소	-10.6748
▁여부에	-10.6751
▁보조	-10.6764
린다	-10.6773
▁승인했다	-10.6779
▁전역에서	-10.6781
▁본다	-10.6793
▁타임	-10.6795
▁여기에	-10.6798
▁부족하다	-10.6801
▁기분	-10.6802
▁어렵	-10.6807
▁촉발	-10.6808
▁베를린	-10.6809
되자	-10.681
ty	-10.6811
▁기소된	-10.6811
▁바스라	-10.6813
▁출산	-10.6816
▁고장	-10.6818
▁바르	-10.682
▁운동가들	-10.6826
▁건강이	-10.6827
▁도달	-10.6827
▁북부에	-10.6828
분께	-10.683
팅	-10.6833
▁대전	-10.6833
▁향상	-10.6835
▁제공한	-10.6849
▁필요로	-10.6858
어서	-10.686
사와	-10.6861
▁용의자로	-10.6861
▁항의하	-10.6862
▁되찾	-10.6862
ore	-10.6866
ish	-10.6867
▁건너	-10.687
▁con	-10.6875
▁소탕	-10.6881
징	-10.6881
▁업체들	-10.6882
▁열고	-10.6883
▁미국으로	-10.6885
▁밴	-10.6885
▁쓰레기	-10.6885
▁World	-10.6887
▁고이즈미	-10.6887
▁디자이너	-10.6887
▁먹는	-10.6887
▁싶지	-10.6887
▁옮기	-10.6887
▁조승희	-10.6887
톨	-10.6887
▁포르노	-10.6887
▁교섭	-10.6887
▁저항세력	-10.6887
▁CDC	-10.6887
▁품목	-10.6887
▁경향	-10.6888
▁함유	-10.6888
▁외곽	-10.6889
▁다룬	-10.6889
▁정착	-10.6889
▁사이클	-10.689
▁계산	-10.689
▁벗어	-10.6891
베르토	-10.6891
▁핵개발	-10.6892
▁신분	-10.6893
▁상담	-10.6893
▁도살	-10.6894
▁소행성	-10.6894
▁소동	-10.6897
▁대대적	-10.6898
▁에릭	-10.6899
▁th	-10.69
▁물체	-10.6901
▁취했다	-10.6901
▁통보	-10.6902
▁몸에	-10.6905
▁일이라고	-10.6909
▁위원	-10.6912
▁만년	-10.6912
▁사체	-10.6914
필	-10.6914
▁내정	-10.6916
▁지위	-10.6917
▁벌어졌다	-10.6917
충	-10.6917
▁뿐이다	-10.692
▁계속된	-10.692
팔	-10.6921
▁나토군	-10.6921
회담	-10.6922
▁희망한다	-10.6925
▁챔피언십	-10.6926
학자	-10.6928
▁서서	-10.6929
▁재미있	-10.6935
이션	-10.6937
▁지휘관	-10.6938
▁대법원장	-10.6939
▁도시인	-10.694
▁멀	-10.694
▁점거	-10.6946
▁슬	-10.6947
리고	-10.6952
▁유전	-10.6954
▁적발	-10.6954
공사	-10.6955
▁고려하고	-10.6956
▁나선	-10.6956
▁지식	-10.6962
▁되며	-10.6962
w	-10.6962
▁세로	-10.6967
▁모르는	-10.6971
▁걸리	-10.6972
▁바위	-10.6973
▁스캔들	-10.6977
▁농민들	-10.6977
▁돌려	-10.6989
▁갖는	-10.6996
버스	-10.6999
▁게리	-10.7001
진다	-10.7001
▁포함된	-10.7003
▁회장이	-10.7003
국장	-10.7004
▁복	-10.7004
▁가족들과	-10.7014
▁맡	-10.7024
러스	-10.7025
▁탑승객	-10.7028
▁하자	-10.7032
▁흔	-10.7044
▁무시	-10.7053
국으로	-10.7057
▁건강에	-10.7066
▁추구하	-10.7069
▁저자	-10.7069
▁모자	-10.707
▁대통령직	-10.7071
▁상영	-10.7072
▁조사할	-10.709
ary	-10.7091
▁뉴햄프셔	-10.7091
▁들어간	-10.7092
▁요원들	-10.7092
대가	-10.7093
▁다루	-10.7095
닌	-10.7101
▁브라이언	-10.7102
▁정보부	-10.7106
랭	-10.7109
▁노트북	-10.7109
▁뉴올리언스	-10.7109
▁두려움	-10.7109
▁베네딕	-10.7109
▁쇠고기	-10.7109
▁아닙니다	-10.7109
▁압바스	-10.7109
▁톰슨	-10.7109
▁대서양	-10.7109
▁무너지	-10.7109
▁따뜻	-10.7109
▁윈도우	-10.7109
▁온실가스	-10.7109
▁부사장	-10.7109
▁글로벌	-10.7109
▁이자율	-10.7109
▁멈추	-10.7109
▁우간다	-10.711
▁연례	-10.711
▁가짜	-10.711
▁우울증	-10.711
▁마이	-10.7111
▁타밀	-10.7112
▁풍부	-10.7112
▁고유가	-10.7112
▁비서실장	-10.7113
▁상자	-10.7114
▁개막	-10.7114
▁지역사회	-10.7115
▁왕세자비	-10.7116
▁공격했다	-10.7116
▁구름	-10.7116
▁오프라	-10.7116
▁are	-10.7117
▁열심	-10.7118
▁휴대	-10.7118
▁발급	-10.7119
▁미첼	-10.7119
▁경비대	-10.7119
▁테러단체	-10.712
▁발발	-10.7121
▁기증	-10.7122
▁선임	-10.7122
▁많아	-10.7124
▁파리에서	-10.7125
▁사용자들	-10.713
▁남측	-10.7135
▁신화	-10.7135
▁참석하지	-10.7137
▁부분이	-10.7139
▁독일인	-10.714
달러	-10.7141
끼	-10.7141
▁보건부	-10.7143
▁강전에서	-10.7145
짐	-10.7146
했었	-10.7153
▁되었	-10.7153
▁확산되고	-10.7156
▁프	-10.7157
▁정치인들	-10.7161
▁완료	-10.7161
▁기상청	-10.7163
▁러드	-10.717
▁착용	-10.7173
▁의상	-10.7186
▁반대로	-10.719
▁은행들	-10.7195
시위	-10.7196
▁달러가	-10.7197
▁진지	-10.72
▁작업이	-10.7209
▁행위에	-10.7215
▁시인	-10.7215
ard	-10.7219
▁당해	-10.7225
▁증상	-10.7229
▁결정적인	-10.7233
스런	-10.7239
▁테리	-10.7248
라드	-10.7251
▁등장	-10.7251
렉	-10.7256
▁국제공항	-10.7259
ang	-10.726
해달라	-10.7262
▁해적들	-10.7263
가격	-10.7264
원들이	-10.7268
▁사진이	-10.7272
로우	-10.7276
▁입지	-10.7277
▁참가자들	-10.728
▁정리	-10.7287
▁반복	-10.729
▁불어	-10.7292
▁십	-10.7293
▁보도에	-10.7293
▁언론과	-10.7298
혼	-10.7299
▁동성애	-10.73
디아	-10.7301
념	-10.7302
▁반지	-10.7305
▁부지	-10.7313
▁경매에	-10.7317
갔	-10.732
ga	-10.7321
스티	-10.7323
ail	-10.7325
▁출입	-10.7333
▁에베레스트	-10.7334
▁그렇다	-10.7336
▁로드리게스	-10.7336
▁심장마비	-10.7336
▁이브라힘	-10.7336
▁찾지	-10.7336
▁최첨단	-10.7336
▁평화유지군	-10.7336
▁플루토늄	-10.7336
▁허드슨	-10.7336
▁빼앗	-10.7336
▁아마디네자드	-10.7336
▁인터폴	-10.7336
▁남아프리카	-10.7336
▁빅토리아	-10.7336
▁야생동물	-10.7336
▁터널	-10.7336
▁의약품	-10.7336
▁금융위기	-10.7337
▁무덤	-10.7337
▁남학생	-10.7337
자르	-10.7338
▁붙여	-10.7338
▁파월	-10.7339
▁들어갈	-10.7339
▁이루어진	-10.734
▁단행	-10.7341
▁관측	-10.7341
▁예약	-10.7341
▁완성	-10.7342
▁채취	-10.7342
▁밀려	-10.7343
▁종이	-10.7344
▁고위급	-10.7345
▁남부에	-10.7347
▁무슨	-10.7348
▁포터	-10.7348
▁양쪽	-10.7348
▁문구	-10.7351
▁배제	-10.7352
▁입법	-10.7353
▁스파이	-10.7356
▁군사력	-10.7356
▁파키스탄군	-10.7356
▁빠졌다	-10.736
뉴	-10.7361
▁임대	-10.7361
▁서안	-10.7363
▁해체	-10.7363
▁준비하고	-10.7364
▁경쟁력	-10.7368
셀	-10.7369
▁회수	-10.7369
ow	-10.737
▁선거법	-10.7371
빙	-10.7373
▁주연	-10.7374
폐	-10.7375
▁경로	-10.7375
ha	-10.7377
▁선수로	-10.7381
has	-10.7381
값	-10.7381
▁반전	-10.7383
시스템	-10.7383
▁결승전에서	-10.7385
▁나타내는	-10.7387
▁벌여	-10.7388
▁코치	-10.7394
▁남성들	-10.7397
▁미래에	-10.7398
▁공무원	-10.7404
▁가중	-10.7409
▁턱	-10.7411
▁사면	-10.7415
▁너무나	-10.7417
▁학교에서	-10.7419
▁센	-10.7419
▁보인	-10.742
▁직접적	-10.7422
▁군이	-10.7422
▁점수	-10.7423
▁Y	-10.7428
▁법정에서	-10.7439
▁쪽	-10.744
▁논	-10.7444
▁시인했다	-10.745
▁Mo	-10.7452
▁제작사	-10.7453
▁넘기	-10.7454
▁위험성	-10.7473
▁정기적	-10.7474
▁연구에서	-10.7477
▁궤도	-10.748
▁관객들	-10.7489
▁변호	-10.7493
▁회전	-10.7499
▁합의에	-10.75
▁연대	-10.7506
겼	-10.7511
혔	-10.7512
per	-10.7513
▁클	-10.7519
▁은행에	-10.7522
리그	-10.7522
▁의존	-10.7528
▁맞고	-10.753
▁명백	-10.7533
▁트	-10.7537
▁인터넷에	-10.7544
▁pro	-10.7547
▁좌절	-10.7549
퇴	-10.755
▁파키스탄에서	-10.756
▁햄	-10.7564
▁뉴욕시	-10.7564
▁Bo	-10.7564
▁간주	-10.7564
▁again	-10.7569
▁나눴다	-10.7569
▁느낌	-10.7569
▁망원경	-10.7569
▁브래드	-10.7569
▁성추행	-10.7569
▁아라비아	-10.7569
▁자르다리	-10.7569
▁토크쇼	-10.7569
▁펼친	-10.7569
▁확률	-10.7569
▁도요타	-10.7569
▁무승부	-10.7569
▁수류탄	-10.7569
▁시나리오	-10.7569
▁삭감	-10.7569
▁Center	-10.7569
▁해수면	-10.7569
▁맥캔	-10.7569
▁에드워드	-10.7569
▁활발	-10.7569
▁남자아이	-10.757
▁긴밀	-10.757
▁하원의장	-10.757
▁교외	-10.757
▁talks	-10.757
▁물고기	-10.7571
▁추격	-10.7571
▁외환	-10.7571
▁체류	-10.7571
▁송금	-10.7571
▁실현	-10.7572
▁갈등	-10.7572
코프	-10.7576
▁포스트	-10.7578
▁유통	-10.7578
▁받아왔다	-10.7579
▁구류	-10.758
▁상금	-10.7581
▁목격했다	-10.7582
▁기본적	-10.7587
▁우세	-10.7587
▁낮아	-10.7587
▁상업	-10.7588
▁당부했다	-10.7588
▁적합한	-10.7588
▁베리	-10.7589
▁저질렀다	-10.7592
▁양보	-10.7593
▁사라졌다	-10.7594
▁착수했다	-10.7596
▁맡았다	-10.7598
▁목록	-10.7601
▁상세	-10.7604
널리	-10.7606
▁증	-10.7608
▁맞이	-10.7611
▁체포됐	-10.7613
▁차질	-10.7616
칸	-10.7618
규모	-10.7618
덕	-10.7619
▁등에	-10.7626
▁신도들	-10.763
ti	-10.763
▁개인적으로	-10.7636
▁다르	-10.7636
▁화가	-10.7638
▁위하여	-10.7638
▁향한	-10.7638
▁새롭	-10.7639
▁달한다	-10.764
▁주최	-10.7644
▁중심지	-10.7644
사업	-10.7645
▁하에	-10.7654
▁부검	-10.7657
▁일어나는	-10.7666
▁해당하	-10.7668
▁제공했다	-10.7675
▁차례의	-10.7676
▁수행할	-10.7676
▁탈레반측	-10.7677
▁행동에	-10.7683
▁촉구하	-10.7685
▁살았	-10.7687
과정	-10.7687
▁압수	-10.7688
▁사실에	-10.7694
ell	-10.7698
▁성공한	-10.7698
▁힘들다	-10.77
▁탈레반이	-10.7707
able	-10.7708
ain	-10.7713
▁분야에서	-10.7714
▁Ma	-10.7715
▁제이	-10.7715
▁칭	-10.7718
▁게릴라	-10.7718
▁주에	-10.7719
버리	-10.772
▁멤버	-10.7721
▁방문해	-10.7722
▁출연했다	-10.7724
▁장관과	-10.7726
▁브로	-10.7726
▁가방	-10.773
▁강진이	-10.7737
객	-10.7737
▁뿐이라	-10.774
키로	-10.7742
▁방콕	-10.7743
▁몰려	-10.7744
리안	-10.7749
▁검문소	-10.775
▁제시한	-10.7754
▁테러리스트들	-10.7758
소리	-10.7767
▁남아있는	-10.7769
▁출생	-10.7769
▁물러나	-10.7774
스케	-10.7774
▁패스	-10.7777
▁암시	-10.7782
▁진전이	-10.7786
어스	-10.7789
▁모른다고	-10.7794
▁블루	-10.7796
▁수면	-10.78
행사	-10.7802
훈	-10.7805
콤	-10.7806
▁visit	-10.7807
▁갤런	-10.7807
▁높게	-10.7807
▁뉴델리	-10.7807
▁메드베데프	-10.7807
▁믿을	-10.7807
▁서브프라임	-10.7807
▁아웅산수치	-10.7807
▁유죄판결	-10.7807
▁최우선	-10.7807
▁스크린	-10.7807
▁출구조사	-10.7807
▁정기	-10.7807
▁국립공원	-10.7807
▁포셋	-10.7807
▁권총	-10.7808
▁증강	-10.7808
▁연패	-10.7808
▁단독	-10.7809
둘	-10.7809
▁중앙은행	-10.7809
▁카를로스	-10.7809
▁연행	-10.781
▁연구결과	-10.781
▁복원	-10.7811
▁연출	-10.7811
▁인권단체	-10.7813
▁여러번	-10.7814
▁묻는	-10.7817
▁부품	-10.7819
▁수색작업	-10.7821
▁총통	-10.7821
▁해저	-10.7822
▁활성화	-10.7823
학생	-10.7823
▁옹호	-10.7824
end	-10.7824
▁고조되	-10.7825
▁유인	-10.7827
▁체포되었다	-10.7833
▁미성년자	-10.7836
▁매케인이	-10.7836
▁카리	-10.7836
▁루니	-10.7837
▁안내	-10.7837
▁두려워	-10.7838
▁도구	-10.784
▁이득	-10.7842
▁도디	-10.7843
기술	-10.7844
화된	-10.7845
▁건물에	-10.7845
▁종교적	-10.7846
▁가난한	-10.7847
▁의견이	-10.7849
▁국가에	-10.7854
▁남아있다	-10.7854
▁말이	-10.7856
▁Z	-10.7859
▁대리인	-10.7859
▁맡았	-10.786
▁업적	-10.7861
▁공정한	-10.7862
짓	-10.7862
콜	-10.7864
폴	-10.7866
▁웨인	-10.7867
감독	-10.787
▁시사	-10.787
▁영국과	-10.7873
▁선고했다	-10.7873
▁미리	-10.7873
확실한	-10.7878
버렸다	-10.7881
▁상당수	-10.7888
▁딘	-10.7892
▁표준	-10.7901
ak	-10.7902
▁주권	-10.7907
▁기분이	-10.7913
▁방송에	-10.7915
▁위원장이	-10.7916
▁도착할	-10.7917
▁홍	-10.792
▁이슈	-10.7922
▁막아	-10.7924
▁기아	-10.7926
▁결심	-10.7927
업자들	-10.7927
▁토대	-10.7929
▁궁	-10.7936
▁신장	-10.7937
결과	-10.7939
ance	-10.794
관련	-10.7945
▁이름으로	-10.7947
▁간에	-10.7965
▁지구에	-10.7968
▁크다	-10.7969
▁공정	-10.7969
▁떨어졌	-10.797
▁판결이	-10.7971
상으로	-10.7976
▁석방됐다	-10.7978
▁윈	-10.7984
▁사무	-10.7991
▁수여	-10.7991
ong	-10.7993
▁예정이었	-10.7996
▁바뀌	-10.7997
▁러	-10.8003
▁재정적	-10.8007
▁기각	-10.8013
▁받아들여	-10.8022
났다	-10.8029
▁성당	-10.8032
넨	-10.8045
▁소년이	-10.8045
▁국가비상사태	-10.805
▁FIFA	-10.8051
▁IBM	-10.8051
▁Seoul	-10.8051
▁똑같	-10.8051
▁먹고	-10.8051
▁선거관리위원회	-10.8051
▁앞섰다	-10.8051
▁하이브리드	-10.8051
▁세속주의	-10.8051
▁상관	-10.8051
▁좌석	-10.8051
▁주유소	-10.8051
▁윈프리	-10.8051
▁티벳	-10.8051
▁최루탄	-10.8051
▁교착	-10.8051
▁AIG	-10.8051
▁부활	-10.8051
▁바꿀	-10.8051
▁사과했다	-10.8051
▁BDA	-10.8052
▁MDC	-10.8052
▁급습	-10.8052
▁이뤄질	-10.8053
▁돌아갈	-10.8053
▁설계	-10.8053
▁앨런	-10.8053
▁독감	-10.8053
▁서식하	-10.8054
▁데리고	-10.8055
▁환율	-10.8056
▁CD	-10.8056
▁재배치	-10.8056
▁통행	-10.8057
쪽	-10.8057
▁사용된	-10.8059
▁its	-10.8059
▁줄이기	-10.8059
▁심판	-10.806
▁뛰	-10.806
▁개체수	-10.8062
▁보증	-10.8062
▁부처	-10.8062
▁던진	-10.8062
▁출장	-10.8065
▁피난	-10.8067
▁전형적	-10.8069
▁인터	-10.8072
▁활동에	-10.8074
▁여파	-10.8076
▁도난	-10.8077
▁탈북자	-10.8078
▁않았습니다	-10.8083
▁셰	-10.8084
▁꽃	-10.8085
▁매력	-10.8085
▁AS	-10.8088
작업	-10.8088
▁아미	-10.809
▁un	-10.809
▁골드	-10.8091
▁발견됐	-10.8091
윈	-10.8091
▁산하	-10.8097
▁아프	-10.8098
▁공개하지	-10.81
▁드레스	-10.8101
▁전격	-10.8104
닉	-10.8104
▁외국인들	-10.8105
접	-10.8105
▁얻게	-10.8106
롱	-10.8109
▁국회에서	-10.8111
▁명백한	-10.8112
▁권고했다	-10.8112
콘	-10.8114
곡	-10.8115
칼	-10.8115
에르	-10.8115
벤	-10.8117
▁원장	-10.8119
▁외상	-10.812
▁AI	-10.812
▁사라지	-10.8122
▁Re	-10.8124
▁공주	-10.8127
▁메리	-10.813
수술	-10.8132
▁김치	-10.8135
▁관객	-10.8136
▁피하기	-10.8136
치고	-10.8141
▁코스	-10.8144
▁생각해	-10.8147
련	-10.8149
▁였다	-10.8149
▁떠난	-10.8153
▁수감된	-10.8158
▁거리에서	-10.816
내용	-10.8161
▁양자	-10.8162
▁그랜드	-10.8166
▁열었다	-10.8173
▁축	-10.8174
▁준다	-10.8175
▁이라크내	-10.8175
▁판매량	-10.8175
▁지역인	-10.8179
▁사안	-10.8186
나무	-10.8187
식이	-10.8192
▁응답	-10.8196
tr	-10.8196
▁발견되지	-10.8196
▁출두	-10.8198
▁공격한	-10.8206
AM	-10.821
▁Be	-10.8215
▁차지하는	-10.8219
▁자라	-10.8221
▁출신으로	-10.8221
▁거부한	-10.8224
데스	-10.8226
▁테러범들	-10.8236
▁BA	-10.8246
▁조언	-10.8251
ne	-10.8256
▁서쪽	-10.8259
▁군과	-10.8264
▁동영상에서	-10.8265
▁제작자	-10.8276
▁가리	-10.8277
▁An	-10.8281
▁고안	-10.8281
▁현상이	-10.8282
▁점이	-10.8284
▁담고	-10.8284
▁이씨	-10.8284
▁후임	-10.8287
▁네바다	-10.8291
▁의원들이	-10.8292
▁폴리	-10.8293
룰	-10.8297
둥	-10.8298
▁데이비스	-10.83
냉	-10.83
▁Show	-10.8301
▁troop	-10.8301
▁맨해튼	-10.8301
▁무렵	-10.8301
▁바티칸	-10.8301
▁스탈린	-10.8301
▁유람선	-10.8301
▁호나우두	-10.8301
▁국제우주정거장	-10.8301
▁스타벅스	-10.8301
▁깨끗	-10.8301
▁섹시	-10.8301
▁자전거	-10.8301
▁퇴진	-10.8301
▁언덕	-10.8301
▁켈리	-10.8301
▁행렬	-10.8301
▁요즘	-10.8301
▁시티그룹	-10.8301
▁아스날	-10.8301
▁왜곡	-10.8301
▁유괴	-10.8302
▁국민투표	-10.8302
▁보조금	-10.8302
▁동참	-10.8302
▁자발적	-10.8303
▁절약	-10.8303
▁행동이	-10.8303
▁Minister	-10.8303
▁존스턴	-10.8303
▁연승	-10.8303
▁개성	-10.8304
▁창설	-10.8304
▁추모	-10.8304
▁불안정	-10.8304
▁가끔	-10.8305
▁역임	-10.8305
▁모집	-10.8307
▁연방정부	-10.8307
▁by	-10.8309
됐는지	-10.831
▁휴일	-10.8311
▁아기들	-10.8312
▁제치	-10.8312
▁피랍된	-10.8314
▁윌슨	-10.8314
▁혼자	-10.8315
▁서브	-10.8316
▁합의문	-10.8316
▁My	-10.8316
▁상병	-10.8317
▁위생	-10.8317
der	-10.8317
▁수컷	-10.8318
▁부속	-10.8318
▁해석	-10.8318
▁도청	-10.8318
▁지원금	-10.8319
▁준장	-10.8325
라데	-10.8331
대사	-10.8332
▁지나가	-10.8332
▁화장	-10.8332
▁퀸	-10.8336
▁젊은이들	-10.8336
co	-10.8341
▁유물	-10.8342
▁유럽과	-10.8342
▁발매	-10.8344
▁편의	-10.8345
황	-10.8351
▁경주	-10.8353
▁안으로	-10.8355
▁매수	-10.8357
▁불가능하다	-10.836
▁공개한	-10.836
▁조선	-10.8361
국의	-10.8362
▁돌아와	-10.8366
▁아프간에	-10.8367
동맹	-10.8368
Y	-10.8368
ure	-10.8376
▁칼리	-10.8377
▁전용	-10.838
▁변화에	-10.8387
▁병력이	-10.8387
노조	-10.8392
▁호주에서	-10.8394
▁영화에서	-10.8394
▁단장	-10.8401
쟁	-10.8402
▁취하고	-10.8402
▁충	-10.8408
▁분석했다	-10.8409
▁본드	-10.8411
aid	-10.8412
▁내지	-10.8413
카르	-10.842
▁방법에	-10.8422
▁이후에	-10.8425
▁유해	-10.8429
▁초에	-10.844
IC	-10.8453
이라면	-10.8456
▁판다	-10.8457
ss	-10.846
▁갔	-10.8461
▁별도	-10.8464
위원	-10.8471
▁이적	-10.8475
▁참가한	-10.8476
웠	-10.8482
▁명성	-10.8493
병원	-10.85
▁모두에게	-10.8501
▁지방에서	-10.8502
학과	-10.8505
TV	-10.8511
▁인정하지	-10.8519
▁회사에	-10.852
▁이스라엘에	-10.8522
▁의제	-10.8525
▁남겨	-10.8531
▁미라	-10.8533
▁모아	-10.8541
▁뉴저지	-10.8547
▁용납	-10.8549
촌	-10.8551
▁민주당이	-10.8553
렐	-10.8554
▁광부	-10.8557
▁Day	-10.8557
▁가즈프롬	-10.8557
▁내무장관	-10.8557
▁디트로이트	-10.8557
▁럼스펠드	-10.8557
▁마이스페이스	-10.8557
▁믿는다	-10.8557
▁박격포	-10.8557
▁인명피해	-10.8557
▁저렴	-10.8557
▁창기라이	-10.8557
닛	-10.8557
▁음주운전	-10.8557
▁후지모리	-10.8557
▁라호르	-10.8557
▁피츠버그	-10.8557
▁코카인	-10.8557
▁국무총리	-10.8557
▁가져올	-10.8557
▁알제리	-10.8557
▁아빠	-10.8558
▁방송에서	-10.8558
▁미셸	-10.8558
▁APEC	-10.8558
▁머레이	-10.8558
▁LG	-10.8559
▁참배	-10.8559
▁산맥	-10.8559
▁자동차업계	-10.856
▁굿	-10.856
▁것들	-10.856
▁클라크	-10.856
▁치매	-10.8561
▁발령	-10.8562
▁매입	-10.8563
▁로켓포	-10.8563
▁부결	-10.8564
▁의심되는	-10.8565
▁파커	-10.8565
▁회계	-10.8566
▁시민권	-10.8566
▁억제	-10.8572
▁시골	-10.8572
▁구조작업	-10.8574
▁약탈	-10.8579
▁걸렸다	-10.858
ve	-10.8581
분야	-10.8582
▁재활용	-10.8582
▁아는	-10.8583
▁던졌다	-10.8583
▁열리	-10.8585
▁분경	-10.8585
▁해방	-10.8588
▁눈물	-10.8588
▁돌아왔다	-10.8589
▁프레	-10.8592
▁않습니다	-10.8593
▁투표율	-10.8595
▁납치한	-10.8597
▁실패한	-10.8599
▁전사	-10.8601
▁업무를	-10.8602
▁진행될	-10.8605
▁출전하지	-10.8606
▁하비	-10.8607
▁인치	-10.8609
▁한달	-10.861
▁덜	-10.8613
▁진행중	-10.8613
▁불과하다	-10.8614
느	-10.8617
▁강간	-10.8618
▁클린턴과	-10.8618
▁평화상	-10.862
균	-10.8625
▁자치	-10.863
맥	-10.8632
홀	-10.8634
▁빌리	-10.8636
▁부리	-10.8636
▁휘	-10.864
▁호텔에	-10.8642
▁해안에	-10.8644
▁민간인들	-10.8644
조약	-10.8645
▁You	-10.8648
▁나치	-10.865
▁출	-10.8654
▁것이기	-10.8656
▁포트	-10.8661
스크	-10.8663
▁시작됐	-10.8664
▁인공	-10.8665
▁북부에서	-10.8668
▁재고	-10.8668
▁학생들에게	-10.8669
▁느	-10.867
▁롤	-10.867
▁틀	-10.8675
돼있다	-10.8678
라면	-10.8681
▁찾아내	-10.8684
▁파크	-10.8687
▁유기	-10.8687
▁세운	-10.869
▁교도소에서	-10.8697
▁수락	-10.8698
▁계속할	-10.8704
▁연말	-10.8709
담당	-10.8711
▁가르	-10.8713
용으로	-10.8715
▁출신인	-10.8726
▁수사에	-10.8727
지원	-10.8728
▁프랑스에서	-10.873
하러	-10.8733
▁부상자들	-10.8736
▁상사	-10.8741
▁이슬라마바드	-10.8744
어질	-10.8748
▁벌어지	-10.8751
군의	-10.8763
▁맞은	-10.8769
▁재무	-10.8771
더스	-10.8782
▁베어	-10.8785
▁군중들	-10.8788
▁가즈니	-10.8798
▁에티오피아	-10.8799
호가	-10.88
제품	-10.8806
소한	-10.8808
▁아시아에서	-10.8809
핑	-10.8809
▁위치해	-10.881
▁중점	-10.8814
▁때문이라	-10.8815
▁잇따	-10.8816
냥	-10.8816
▁석방된	-10.8818
무라	-10.882
▁금메달	-10.882
▁억만장자	-10.882
▁최고경영자	-10.882
껏	-10.882
넌	-10.882
▁러닝메이트	-10.882
▁북극곰	-10.882
▁라모스	-10.882
▁남아프리카공화국	-10.882
▁넬슨	-10.882
▁부양책	-10.882
▁돌아올	-10.8821
▁포획	-10.8821
▁재배	-10.8821
▁워렌	-10.8821
▁결합	-10.8822
▁설정	-10.8823
▁예선	-10.8823
▁처형	-10.8824
▁진료	-10.8824
▁이들에게	-10.8824
▁대테러	-10.8825
▁마찰	-10.8825
▁한명	-10.8825
▁실무	-10.8826
▁파편	-10.8826
▁Mar	-10.8826
▁포경선	-10.8826
▁밀러	-10.8827
▁다가오	-10.8832
▁던져	-10.8833
▁환수	-10.8833
▁사이버	-10.8835
▁전쟁이	-10.8835
▁반등	-10.8836
▁배포	-10.8839
▁소유주	-10.8841
▁거친	-10.8843
▁사회당	-10.8843
▁난민들	-10.8844
▁사라진	-10.8847
▁찾았다	-10.8848
▁넣었다	-10.8849
▁쉬운	-10.8849
▁사살했다	-10.8852
냈	-10.8856
▁맞았다	-10.8857
안토니오	-10.8858
▁전체가	-10.886
▁그곳에서	-10.8863
자리	-10.8866
▁대비해	-10.8869
▁당일	-10.8871
▁기원	-10.8872
▁캔	-10.8873
▁여단	-10.8876
▁전파	-10.8877
▁시간에	-10.8877
률이	-10.8879
원인	-10.8883
궁	-10.889
ick	-10.8892
ig	-10.8903
▁써	-10.8905
신문	-10.8914
▁독재자	-10.8923
인데	-10.8926
▁확인하기	-10.8926
▁전시회	-10.8929
하겠	-10.893
▁수년	-10.8931
▁것일	-10.8932
▁선택했다	-10.8932
▁열기	-10.8933
▁정부군과	-10.8938
▁기울	-10.8943
▁월스트리트	-10.8943
▁간부	-10.8946
▁남쪽	-10.8952
▁배가	-10.8952
자료	-10.8954
▁부위	-10.8955
▁표시했다	-10.8956
성에	-10.8957
ab	-10.8961
▁폭로	-10.8963
▁Al	-10.8965
▁대원들	-10.8968
▁보유한	-10.8978
돼있	-10.8981
보드	-10.8981
po	-10.8982
점으로	-10.8983
▁약속한	-10.8983
▁이른	-10.8985
▁피랍	-10.8985
▁유지할	-10.8986
시장에서	-10.8987
▁모리	-10.8988
▁일시적	-10.8989
▁과격	-10.8999
▁바지	-10.9008
▁페리	-10.9027
▁서한	-10.9028
룬	-10.9032
▁클린턴에	-10.9033
▁만났	-10.9042
▁차지한	-10.9042
▁회원들	-10.9043
▁보좌관들	-10.9045
▁년형	-10.9045
▁웨이	-10.9051
▁당황	-10.9051
▁치를	-10.9055
▁수요일에	-10.9056
버트	-10.9061
ts	-10.9062
▁위협에	-10.9068
스탄	-10.9071
▁소유한	-10.9071
▁중상	-10.9071
▁일단	-10.9072
탁	-10.9075
▁그들에게	-10.9076
▁벗	-10.9076
▁사진들	-10.9083
▁풀어	-10.9083
▁오스카	-10.9088
▁휩쓸	-10.9088
▁투명	-10.909
▁굉장	-10.909
▁브루니	-10.909
▁그린피스	-10.909
▁크레이그	-10.909
▁흘러	-10.909
▁애완동물	-10.909
▁대한민국	-10.909
▁카지노	-10.909
▁take	-10.9091
▁돌아다니	-10.9091
▁좌파	-10.9091
▁브레이크	-10.9091
▁스콧	-10.9091
▁면접	-10.9091
▁동굴	-10.9091
▁밝혀냈다	-10.9091
▁슈퍼볼	-10.9091
▁오늘밤	-10.9092
▁낭비	-10.9092
▁장벽	-10.9093
▁소총	-10.9093
▁텐트	-10.9094
▁절감	-10.9094
▁돌아온	-10.9094
▁풍	-10.9094
▁정밀	-10.9094
▁배심원단	-10.9094
▁할지	-10.9094
▁외쳤다	-10.9094
▁생명체	-10.9095
▁유골	-10.9095
▁승점	-10.9095
▁소비자들이	-10.9096
▁금속	-10.9096
▁교내	-10.9096
os	-10.9096
▁반환	-10.9097
▁보수당	-10.9098
▁펄	-10.9098
▁매출	-10.91
▁휴식	-10.91
▁병사들이	-10.91
▁네바다주	-10.91
▁기념식	-10.9101
▁위축	-10.9102
▁느낀다	-10.9103
▁인도분	-10.9103
▁단식	-10.9105
▁미셀	-10.9108
▁김씨	-10.9109
▁분야에	-10.9109
▁밀어	-10.911
스테	-10.9111
▁아민	-10.9114
▁남미	-10.9114
▁무산	-10.9117
▁화제	-10.9118
▁제보	-10.9119
▁소화	-10.912
▁공안	-10.9122
▁케이시	-10.9124
▁구단	-10.9125
▁받아들이지	-10.9128
▁나체	-10.9129
▁버지니아주	-10.9131
▁경찰청	-10.9132
▁먼지	-10.9134
▁남쪽으로	-10.9135
▁이라크인	-10.9137
시티	-10.9146
▁장성	-10.9148
▁로드	-10.915
▁d	-10.9152
▁지지자들에게	-10.9153
▁이어졌다	-10.9154
▁근처에	-10.9154
칭	-10.9158
연구	-10.9163
안전	-10.9165
▁거래됐다	-10.9167
BC	-10.9167
▁알라	-10.9168
▁성분	-10.9174
킹	-10.9175
멜	-10.9176
▁컵	-10.9178
▁피어	-10.9178
척	-10.9179
▁과제	-10.918
타운	-10.9182
캐	-10.9184
앤	-10.9184
김	-10.9185
때까지	-10.9187
▁국경지역	-10.9188
▁일대	-10.9194
▁언급한	-10.9199
▁강타한	-10.9203
되었는데	-10.9206
▁비치	-10.9208
▁위장	-10.9211
타임	-10.9211
▁go	-10.9213
▁내리는	-10.9217
▁입어	-10.9218
▁러시아와	-10.922
▁입수한	-10.922
▁위안	-10.9221
▁탄도	-10.9221
▁걸려	-10.923
▁받으	-10.9231
▁해왔다	-10.9235
▁재해	-10.924
▁최고위	-10.9244
▁폭력사태로	-10.9244
▁성명서	-10.9248
▁인정받	-10.9251
▁방문에	-10.9252
▁신원이	-10.9255
▁법적으로	-10.9261
▁시일	-10.9262
▁축출	-10.9265
▁명단에	-10.9267
▁유지하	-10.9273
▁세트에서	-10.9276
▁대안	-10.9276
▁결정이	-10.9283
▁상원에서	-10.9288
▁리오	-10.9288
하에	-10.929
▁종식	-10.9291
▁시청자들	-10.9292
▁조국	-10.9294
▁목적이	-10.9304
▁목요일에	-10.9306
▁자녀들	-10.931
▁취소했다	-10.9312
▁장소에서	-10.9313
▁안나	-10.9313
▁즐기는	-10.9316
마르	-10.932
▁압	-10.9323
me	-10.933
▁밝히기	-10.9331
▁장교	-10.9332
▁활동이	-10.9339
▁비극	-10.9339
▁발이	-10.934
▁피고인	-10.9343
▁전쟁에서	-10.9352
▁원주민	-10.9353
▁우승자	-10.9353
▁이민자들	-10.9354
▁쳐	-10.9354
▁편집	-10.9355
사고	-10.9358
▁못하다	-10.9362
▁얻었	-10.9366
▁감바	-10.9368
▁Associat	-10.9368
▁듣지	-10.9368
▁머리카락	-10.9368
▁버냉키	-10.9368
▁슬픔	-10.9368
▁시애틀	-10.9368
▁원자바오	-10.9368
▁크로아티아	-10.9368
▁텔레비전	-10.9368
▁헬리콥터	-10.9368
▁호날두	-10.9368
▁규칙	-10.9368
▁유수프	-10.9368
▁침묵	-10.9368
▁바하마	-10.9368
▁스튜디오	-10.9368
▁바바라	-10.9368
▁고등법원	-10.9368
▁휴스턴	-10.9368
▁Intern	-10.9368
▁신용카드	-10.9369
▁국방위원장	-10.9369
▁놀랄	-10.9369
▁처방	-10.9369
▁숨겨	-10.9369
▁모험	-10.9369
▁논문	-10.937
▁대선주자	-10.937
▁불황	-10.937
▁알려	-10.937
▁요르단강	-10.937
축구연맹	-10.9371
▁반체제	-10.9371
▁추천	-10.9371
▁도핑	-10.9371
▁구호품	-10.9372
▁금융시장	-10.9373
▁치른	-10.9374
▁창조	-10.9374
▁다행히	-10.9375
▁세가	-10.9378
▁대기업	-10.9379
▁입력	-10.938
▁느끼는	-10.938
▁일어나지	-10.9381
▁가택	-10.9383
▁코피	-10.9383
▁졸업	-10.9386
▁지나치	-10.9386
▁헐	-10.9387
▁개발한	-10.9388
▁작용	-10.9389
까요	-10.939
▁시카고에서	-10.9392
▁첫날	-10.9393
▁끝났다	-10.9393
▁폴슨	-10.9394
▁라울	-10.9399
▁Pa	-10.9399
▁경비원	-10.9401
▁조씨	-10.9401
▁복지	-10.9402
▁날이	-10.9406
▁출연해	-10.9407
▁이르기	-10.9409
▁장기적	-10.9414
▁계속하고	-10.9414
▁개설	-10.9416
▁유명하다	-10.9416
장비	-10.9416
▁중단됐다	-10.9421
▁카르	-10.9422
▁탈레반과	-10.9427
▁결함	-10.9429
▁선원들	-10.9431
▁통해서	-10.9431
▁군중	-10.9432
▁원치	-10.9435
업체들	-10.9436
▁가족들에게	-10.9438
▁번지	-10.9441
▁절도	-10.9444
▁이른다	-10.9446
▁선적	-10.9447
▁처분	-10.9453
day	-10.9453
▁세부	-10.9453
▁시작될	-10.9461
투표	-10.9464
▁살아남	-10.9464
▁워터	-10.9465
시에서	-10.9467
▁제공하기	-10.9469
▁과정에	-10.947
▁중반	-10.947
서비스	-10.947
▁투기	-10.9471
구조	-10.9475
▁개최된	-10.9475
세계	-10.9477
▁확인되	-10.9481
▁전하고	-10.9485
▁민주적	-10.9486
▁제일	-10.9489
▁총리직	-10.949
▁복장	-10.9491
베스	-10.9494
▁멜	-10.9498
▁쓰는	-10.9503
▁강화할	-10.9505
▁변호인	-10.9505
▁배심원	-10.9506
▁바닥에	-10.951
▁선박이	-10.9511
▁참여했다	-10.9515
▁집회에	-10.9515
▁강에	-10.9516
▁움직임이	-10.952
▁탐험	-10.9521
▁연구가	-10.9522
▁대선에	-10.9522
▁조직원	-10.9523
부를	-10.9533
▁플	-10.9536
▁농민	-10.9539
▁오바마에	-10.9541
▁남아있	-10.9544
▁내고	-10.955
▁다수의	-10.9554
▁들어와	-10.9554
▁선출된	-10.9555
바르	-10.9556
▁피살	-10.9561
세포	-10.9563
▁공무원들	-10.9569
텐	-10.9569
▁취하지	-10.9578
▁형태로	-10.958
카드	-10.9582
▁자카르타	-10.9587
▁조치로	-10.9589
▁지수가	-10.9603
럴	-10.9603
▁급락	-10.9604
사이트	-10.961
▁추락한	-10.9611
ap	-10.9611
▁물어	-10.9614
어요	-10.9629
▁재선	-10.9629
▁넘겨	-10.9642
치료	-10.9642
벨트	-10.9642
▁구제금융	-10.9643
▁음료	-10.9647
▁알바니아	-10.9652
▁기준금리	-10.9654
▁산타클로스	-10.9654
▁애틀랜타	-10.9654
▁엘리베이터	-10.9654
▁칸다하르	-10.9654
▁맥케인	-10.9654
▁식민지	-10.9654
▁브루스	-10.9654
▁military	-10.9654
▁마사지	-10.9654
▁멸종위기	-10.9654
▁히드로	-10.9654
▁무소속	-10.9655
▁State	-10.9655
▁Part	-10.9655
▁적응	-10.9655
▁기획	-10.9656
▁남녀	-10.9656
ING	-10.9656
▁레이저	-10.9656
▁집필	-10.9656
▁군사작전	-10.9657
▁금년	-10.9657
▁출국	-10.9658
▁가죽	-10.9658
▁마침	-10.9659
▁권위	-10.9659
▁새겨	-10.9659
▁추문	-10.9662
▁장거리	-10.9663
▁탐사선	-10.9663
▁역대	-10.9665
▁복수	-10.9665
▁나와즈	-10.9666
▁대폭	-10.9666
▁불교	-10.9666
▁편안	-10.9667
▁주주들	-10.9669
▁모으	-10.967
▁받아들였다	-10.967
▁대령	-10.9672
▁번역	-10.9673
▁모았다	-10.9673
▁구경	-10.9673
▁교육부	-10.9673
▁예선전	-10.9676
▁헬	-10.9677
같이	-10.9686
▁상관없	-10.9686
▁프로그램이	-10.9687
▁자정	-10.9691
▁장기간	-10.9692
▁예정되어	-10.9693
▁인명	-10.9694
▁태우고	-10.9695
▁여기서	-10.9696
▁폭격기	-10.9698
▁녹화	-10.97
▁여아	-10.97
▁변호사들	-10.9701
▁참사	-10.9702
▁주소	-10.9702
▁약품	-10.9705
▁남성과	-10.9709
▁시계	-10.9711
▁여야	-10.9713
▁차원에서	-10.9713
▁발달	-10.9715
▁증언했다	-10.9721
▁그곳에	-10.9722
▁인도주의적	-10.9723
▁하더라	-10.9724
▁레이더	-10.9727
▁데비	-10.9728
받은	-10.9729
슬리	-10.973
안보	-10.9731
▁클로	-10.9733
▁조절	-10.9733
▁제외하고	-10.9734
▁fir	-10.9735
▁대우	-10.9742
▁칼라	-10.9743
▁주말에	-10.9743
▁구호단체	-10.9744
▁입원했다	-10.9747
▁특별히	-10.9747
▁무시하	-10.9763
▁결승전	-10.9771
▁대회에	-10.9774
베르	-10.9775
▁중심부	-10.9775
▁프라	-10.9779
▁확인된	-10.9781
디스	-10.9783
out	-10.9788
▁중계	-10.979
▁생존자들	-10.9792
▁판결에	-10.9793
▁투자자	-10.9794
▁이송됐다	-10.9795
▁기울이	-10.9802
스카	-10.9806
▁sh	-10.9807
▁들었	-10.9815
▁정치적으로	-10.9819
▁내리고	-10.9827
▁예술가	-10.983
▁내용에	-10.9831
▁평양에서	-10.9831
▁Ha	-10.9832
▁줄리	-10.9834
▁내게	-10.9835
▁선장	-10.9836
▁경제학자들	-10.9837
만으로	-10.9838
▁돌입	-10.9843
기때문에	-10.9847
▁없애	-10.9848
▁어린이들이	-10.9848
기금	-10.985
▁대답했다	-10.9851
▁강화하고	-10.9851
son	-10.9856
▁있었기	-10.9856
▁원하지	-10.986
▁분쟁이	-10.986
▁장악	-10.9869
▁명령했다	-10.987
▁있으	-10.9875
▁교전이	-10.9889
▁국회의원들	-10.9889
▁제작된	-10.9897
ice	-10.9899
▁소속의	-10.99
▁일으키는	-10.9901
부가	-10.9904
▁자랑	-10.9906
▁묵	-10.9909
베리	-10.9916
라인	-10.9918
▁재활	-10.992
▁열렸	-10.9922
▁금연	-10.9924
▁필립	-10.9925
▁한다면	-10.9926
▁실업	-10.9928
▁AT	-10.9929
▁이슬람교	-10.993
▁강행	-10.9934
▁엘리	-10.9941
▁빼	-10.9943
▁주당	-10.9945
▁세탁	-10.9947
▁끊임없	-10.9948
▁땅에	-10.9948
▁떨어질	-10.9948
▁마케팅	-10.9948
▁베어스턴스	-10.9948
▁베탕쿠르	-10.9948
▁부적절	-10.9948
▁브리트니	-10.9948
▁비즈니스	-10.9948
▁아칸소	-10.9948
▁에르도간	-10.9948
▁에스토니아	-10.9948
▁오케스트라	-10.9948
▁타협	-10.9948
▁테러지원국	-10.9948
▁캔자스	-10.9948
▁오렌지	-10.9948
▁맥도날드	-10.9948
▁소탕작전	-10.9948
▁고릴라	-10.9949
▁사회에	-10.9949
▁영광	-10.995
▁수만명	-10.995
▁호송	-10.995
▁만여명	-10.9951
▁USA	-10.9951
▁저택	-10.9951
▁남기	-10.9952
▁조짐	-10.9952
▁영감	-10.9953
▁요청한	-10.9953
▁타결	-10.9954
▁소유권	-10.9955
▁서약	-10.9957
▁들어온	-10.9957
▁적자	-10.9958
▁평소	-10.9959
▁모래	-10.9959
▁줄이는	-10.996
▁포위	-10.9962
▁적극	-10.9962
▁풀려났다	-10.9962
▁식수	-10.9963
▁줬다	-10.9963
▁다이애나비	-10.9963
▁파문	-10.9965
▁여유	-10.9965
▁공조	-10.9966
▁연방준비제도이사회	-10.9968
▁가져다	-10.9968
▁지역이	-10.9969
▁갈라	-10.9969
▁지속되	-10.997
▁알렌	-10.9972
▁겪었다	-10.9975
da	-10.9976
▁버전	-10.9976
▁있겠	-10.9976
▁관점에서	-10.9979
▁저지르	-10.9979
▁유용	-10.998
▁미치지	-10.998
▁잡았다	-10.998
▁하산	-10.9981
▁앞선	-10.9981
▁가자지구에서	-10.9984
air	-10.9989
▁슛	-10.999
▁괴한	-10.9996
▁대통령으로	-11.0002
▁좋아한다	-11.0002
▁파키스탄에	-11.0004
▁갖기	-11.0005
▁해명	-11.0006
▁파일	-11.0009
▁방문객들	-11.0015
▁붕괴된	-11.0016
▁효율적	-11.0017
▁인도네시아에서	-11.0023
▁전년	-11.0025
▁말에	-11.0028
농	-11.0028
▁싶어한다	-11.0035
▁나아가	-11.0036
▁주차	-11.004
▁성지	-11.0041
▁재판에	-11.005
▁세관	-11.0051
▁청년	-11.0052
▁기적	-11.0053
▁도주	-11.0054
▁미만	-11.0055
▁펼쳐	-11.0056
▁국회에	-11.0057
▁킨	-11.0061
얀	-11.0061
▁중심에	-11.0061
협정	-11.0064
▁손자	-11.0065
홍	-11.0065
▁살이	-11.0065
▁확신했다	-11.0066
▁재판이	-11.0071
▁건수	-11.0071
▁심사	-11.0074
▁보호하고	-11.0075
▁프랑스와	-11.008
▁개발에	-11.0084
▁유지하기	-11.0093
▁지원하기	-11.0095
▁파손됐다	-11.0098
▁자금이	-11.0102
있었다	-11.0105
▁통신사	-11.0111
▁동맹국들	-11.0111
▁여사와	-11.0113
▁생산하는	-11.0115
▁오리	-11.0117
▁비만	-11.0119
▁죽었다	-11.012
▁관광지	-11.0131
어진	-11.0134
▁독재	-11.0137
▁제공하고	-11.0138
▁앙	-11.0145
▁사람과	-11.0153
▁쏟아	-11.0158
▁부르는	-11.016
▁바닥	-11.0168
▁논의했다	-11.0174
▁사임했다	-11.0177
▁물었다	-11.0177
워드	-11.0179
▁공판	-11.0184
스에서	-11.0187
한국	-11.0187
▁높아	-11.0192
▁근무하	-11.0194
▁의장이	-11.0197
▁가족에게	-11.0197
▁초래	-11.0198
▁추락했다	-11.0202
▁For	-11.0204
받고	-11.0212
▁dis	-11.0215
▁요청할	-11.0218
▁인접	-11.0218
mi	-11.022
▁기술이	-11.0221
▁자행	-11.0231
사이	-11.0234
널	-11.0235
당했다	-11.0236
해준	-11.0237
지대	-11.0238
▁고무	-11.0242
나갈	-11.0242
▁오클라호마	-11.0243
렘	-11.0244
▁안된다	-11.0244
▁안전에	-11.0245
▁득표	-11.025
▁종합	-11.0251
딜	-11.0251
겔	-11.0251
눌	-11.0251
▁House	-11.0251
▁WTO	-11.0251
▁say	-11.0251
▁골든글로브	-11.0251
▁구호물품	-11.0251
▁뉴욕타임스	-11.0251
▁느꼈다	-11.0251
▁뮌헨	-11.0251
▁썼다	-11.0251
▁애니메이션	-11.0251
▁야스쿠니	-11.0251
▁유니세프	-11.0251
▁일으켜	-11.0251
▁침팬지	-11.0251
▁펭귄	-11.0251
▁포괄적	-11.0251
▁항생제	-11.0251
▁황우석	-11.0251
▁흰색	-11.0251
렁	-11.0251
▁유조선	-11.0251
▁다운로드	-11.0251
▁크로커	-11.0251
▁되돌아	-11.0251
▁첩보	-11.0251
▁유적지	-11.0251
▁Time	-11.0251
▁모로코	-11.0251
▁착취	-11.0251
▁혈액	-11.0252
▁출범	-11.0252
▁트로피	-11.0252
▁양키스	-11.0252
▁요새	-11.0252
▁몸값	-11.0252
▁운반	-11.0252
▁폭등	-11.0254
▁하얀	-11.0254
▁패리스	-11.0254
▁버튼	-11.0254
▁근교	-11.0255
▁대략	-11.0255
▁어두운	-11.0255
▁현지경찰	-11.0255
▁풍선	-11.0255
▁클라	-11.0257
▁지도자들과	-11.0257
▁아이돌	-11.0258
▁차원	-11.026
▁개념	-11.026
▁거둔	-11.026
▁상반기	-11.0261
▁볼튼	-11.0261
▁영원	-11.0261
▁엘바	-11.0262
▁설문	-11.0262
▁소란	-11.0265
▁신병	-11.0265
▁명칭	-11.0267
장과	-11.0267
▁쏘	-11.0267
▁알려주	-11.0268
▁뒤집	-11.0271
▁국가인	-11.0271
▁제프리	-11.0272
▁부유	-11.0274
▁타이어	-11.0274
▁모르겠다	-11.0275
▁조속	-11.0276
▁묘지	-11.0278
▁적십자사	-11.0278
▁예상보다	-11.0282
▁의자	-11.0284
▁분실	-11.0287
▁전염	-11.029
▁기권	-11.0291
▁트레	-11.0292
▁제방	-11.0294
▁주장했지만	-11.0294
▁채권	-11.0295
▁미시간	-11.0295
▁명에서	-11.0295
▁De	-11.0297
YO	-11.0297
▁중령	-11.0298
▁시위자	-11.0298
▁지구에서	-11.0299
▁실어	-11.0299
▁주류	-11.03
▁양성	-11.0302
후보	-11.0305
▁투표할	-11.031
▁과시	-11.0317
레나	-11.0318
▁추구	-11.032
▁입학	-11.0322
▁지낸	-11.0326
▁사용하기	-11.0326
▁have	-11.0328
▁마을에	-11.033
▁개최되	-11.0331
▁착용하	-11.0339
▁보도한	-11.0341
▁En	-11.0346
▁사랑하는	-11.0349
▁보내기	-11.0358
워진	-11.0359
▁행사에서	-11.0362
▁보낸다	-11.0362
▁기리	-11.0363
▁일원	-11.0364
▁기자들이	-11.0365
▁당의	-11.0367
생활	-11.037
▁끄	-11.037
납	-11.0373
▁말하면서	-11.0377
사령관	-11.0378
떼	-11.0378
▁아시	-11.038
▁과장	-11.0385
IS	-11.0387
생산	-11.0388
▁몽	-11.0388
▁장착	-11.0393
사진	-11.0394
▁제트	-11.0397
의원	-11.0411
▁장악하	-11.0412
▁흥미	-11.0415
▁납	-11.0424
우드	-11.0424
▁올리고	-11.0425
▁증인	-11.0427
▁친척	-11.0431
차이	-11.0432
▁부문에서	-11.0432
▁서울에	-11.0438
부분	-11.0444
▁참가하	-11.0446
▁있거	-11.045
연대	-11.0451
▁가기	-11.0455
▁나타난	-11.0471
▁라인	-11.0473
▁렌	-11.0473
선거	-11.0476
one	-11.0477
▁사용한다	-11.0478
받아	-11.0484
▁전설	-11.0489
회의에서	-11.0493
▁이해할	-11.0496
▁클레	-11.0498
▁명시	-11.0509
▁자신에	-11.051
▁우주인	-11.0513
▁국무장관이	-11.0517
느냐	-11.0519
▁전체에	-11.0524
ie	-11.0524
▁나타났	-11.0525
▁수명	-11.0527
▁시까지	-11.0527
▁통일	-11.0527
land	-11.0529
▁부장	-11.0532
이기도	-11.0534
▁나섰	-11.0535
▁사육	-11.0535
▁파파라치	-11.0539
▁지방의	-11.0542
▁아바	-11.0542
잡	-11.0549
ian	-11.0553
리오	-11.0554
▁죽이	-11.0554
▁벌어졌	-11.0556
▁표결	-11.0557
▁피닉스	-11.0559
왈	-11.0559
▁기술자	-11.0561
▁물러	-11.0561
▁아랍에미리트	-11.0563
밍	-11.0564
▁AFP	-11.0564
▁NFL	-11.0564
▁WFP	-11.0564
▁걷는	-11.0564
▁국회의사당	-11.0564
▁동유럽	-11.0564
▁로스앤젤레스	-11.0564
▁베이루트	-11.0564
▁불렀다	-11.0564
▁스튜어트	-11.0564
▁좋게	-11.0564
▁클루니	-11.0564
▁트라볼타	-11.0564
▁티셔츠	-11.0564
▁평화협상	-11.0564
▁덕분에	-11.0564
▁되풀이	-11.0564
▁마라도나	-11.0564
▁모바일	-11.0564
▁제니퍼	-11.0564
▁니케이	-11.0564
▁셰이크	-11.0564
▁잔혹	-11.0564
▁election	-11.0564
▁정해지지	-11.0564
▁취득	-11.0564
▁여자아이	-11.0564
▁진흙	-11.0564
▁페이스북	-11.0564
▁LPGA	-11.0564
▁Secretary	-11.0564
▁칭찬	-11.0564
▁바꿔	-11.0564
▁닉슨	-11.0565
▁학년	-11.0565
▁호킹	-11.0565
▁연극	-11.0566
▁워너	-11.0566
▁스카이	-11.0566
▁불평	-11.0566
▁같습니다	-11.0566
▁학위	-11.0567
▁연임	-11.0568
▁AU	-11.0569
▁모터	-11.0569
▁추출	-11.057
▁병역	-11.057
▁지르	-11.0571
▁솔	-11.0572
▁현행	-11.0572
▁뚫	-11.0572
▁기습	-11.0573
▁극단주의자들	-11.0573
▁유행	-11.0574
▁정교	-11.0576
▁전대통령	-11.0577
▁우방	-11.0577
▁세인트	-11.0579
▁가자지구에	-11.0579
▁광부들	-11.0581
▁지연되	-11.0581
▁줄이고	-11.0582
▁보호하는	-11.0582
▁전략적	-11.0584
line	-11.0584
▁기후변화	-11.0585
▁동전	-11.0585
▁회부	-11.0587
▁참여하는	-11.0588
▁격리	-11.0588
▁친환경	-11.059
▁줄여	-11.0591
▁가축	-11.0591
해져	-11.0592
▁정오	-11.0593
▁참여하지	-11.0596
▁머리에	-11.0596
▁비유	-11.0598
▁호화	-11.0598
▁불화	-11.0603
▁우리베	-11.0605
▁아이티	-11.0607
▁참석해	-11.0608
▁시판	-11.0608
▁이룩	-11.0608
▁열정	-11.0609
▁봉	-11.0609
▁감시단	-11.0611
▁시달리고	-11.0614
▁위협하	-11.0615
▁거주지	-11.0616
▁성공회	-11.0616
▁반미	-11.0617
▁do	-11.0623
▁돈이	-11.0625
▁실력	-11.063
▁비교해	-11.0635
▁자크	-11.064
▁개조	-11.0641
▁뉴욕에	-11.065
▁만여	-11.065
▁노력에	-11.0651
▁바다로	-11.0651
롤	-11.0652
▁파이	-11.0655
시켜야	-11.0658
▁당했	-11.0661
▁이어질	-11.0663
▁무장대원들	-11.0666
▁사제	-11.0666
▁프레드	-11.0669
▁수용할	-11.0669
았던	-11.0672
▁끝나는	-11.0672
▁선정됐다	-11.0675
▁단기	-11.0676
▁부자	-11.0676
RK	-11.068
▁닐	-11.068
버릴	-11.0683
투어	-11.0684
▁서명했다	-11.0685
▁들어가는	-11.0688
▁전범	-11.069
▁정신과	-11.069
▁해외에서	-11.069
▁주교	-11.0691
▁인기가	-11.0695
J	-11.0697
개혁	-11.0705
▁하도록	-11.0707
▁설치된	-11.0715
▁되었습니다	-11.0721
wa	-11.0724
▁정보국	-11.0728
▁의원들에게	-11.0728
▁적당	-11.0732
AR	-11.074
ub	-11.074
em	-11.0741
▁독자	-11.0745
▁신도	-11.0746
아나	-11.0747
▁떼	-11.0747
▁IT	-11.0748
▁염려	-11.0749
▁특이	-11.0756
▁파손되	-11.0758
▁아내와	-11.076
▁환경에	-11.076
▁청소년들	-11.0763
요원	-11.0767
버린	-11.0769
▁리버	-11.0776
군은	-11.0778
▁모스	-11.0781
▁관리자	-11.0781
▁선언한	-11.0782
▁취급	-11.0783
▁헤어	-11.0784
▁일상적	-11.0788
레이크	-11.0788
▁힐튼이	-11.0792
▁어머니와	-11.0795
여부	-11.0795
▁혼란에	-11.0796
▁학생들과	-11.0797
▁단계에	-11.0798
▁참가했다	-11.0806
▁확보했다	-11.0808
▁유대	-11.0816
ner	-11.0823
▁지니	-11.0826
▁중단하고	-11.0829
럼	-11.0831
▁본국	-11.0835
▁이뤄	-11.0835
▁년전	-11.0838
리어	-11.0838
▁참석하기	-11.0843
PA	-11.0848
▁남편과	-11.085
▁비가	-11.0851
▁처음에	-11.0853
전쟁	-11.0855
▁주장이	-11.0856
기위해	-11.0859
▁소방관	-11.0871
▁살아가	-11.0872
▁확고	-11.0874
▁국민이	-11.0874
퀴	-11.0875
▁루이지애나	-11.0875
▁지지도	-11.0876
꾼	-11.0879
▁당원	-11.088
팩	-11.0886
▁Foreign	-11.0886
▁광우병	-11.0886
▁뉴캐슬	-11.0886
▁당나귀	-11.0886
▁매머드	-11.0886
▁무너져	-11.0886
▁싶은	-11.0886
▁이르렀다	-11.0886
▁재확인	-11.0886
▁집무실	-11.0886
▁카자흐스탄	-11.0886
▁국가주석	-11.0886
▁몸무게	-11.0886
마누엘	-11.0886
NEW	-11.0886
▁대주교	-11.0886
▁무너진	-11.0886
▁중산층	-11.0886
▁글래스고	-11.0886
▁예언자	-11.0886
▁영부인	-11.0886
▁교과서	-11.0886
▁린제이	-11.0886
▁지중해	-11.0886
▁세비야	-11.0886
▁효력	-11.0886
▁흐름	-11.0887
▁수십억	-11.0887
▁침범	-11.0887
▁기간에	-11.0887
▁쇼핑몰	-11.0887
▁맞붙	-11.0887
▁아마존	-11.0887
▁둘째	-11.0887
▁왕복선	-11.0887
▁높아졌다	-11.0887
▁농담	-11.0887
▁공군기지	-11.0888
▁레논	-11.0888
▁예배	-11.0888
▁가속화	-11.0888
▁취약	-11.0888
▁허블	-11.0888
▁유혈	-11.0889
국들	-11.0889
▁할아버지	-11.0889
▁선데이	-11.0889
▁밤새	-11.089
▁공백	-11.089
▁피닉스호	-11.0892
▁식물	-11.0892
▁제안한	-11.0892
▁종양	-11.0893
▁mm	-11.0893
▁제패	-11.0895
▁천문학자들	-11.0895
▁폐기물	-11.0896
▁우연	-11.0896
문화	-11.0896
▁Con	-11.0896
▁감량	-11.0897
▁확실하지	-11.0897
▁계열사	-11.0897
▁코너	-11.0898
▁책정	-11.0898
▁기름	-11.0898
▁사법부	-11.0898
▁난동	-11.0898
to	-11.0898
▁이례적	-11.09
▁부른	-11.0901
▁정체	-11.0902
▁때로	-11.0902
▁지속될	-11.0902
▁청소	-11.0904
▁버진	-11.0904
▁입구	-11.0905
▁강연	-11.0907
▁재발	-11.0907
▁패한	-11.0907
▁성경	-11.0908
▁페르	-11.0908
점에서	-11.0908
▁부통령이	-11.0909
▁상위	-11.0909
▁감원	-11.0909
▁비난한	-11.091
보고	-11.0912
RA	-11.0912
▁있었는지	-11.0913
▁인계	-11.0914
▁방치	-11.0914
▁가결	-11.0917
▁정상회의	-11.0918
▁공세	-11.0919
▁그라운드	-11.092
▁넣어	-11.0922
▁시경	-11.0922
▁전송	-11.0922
▁고수	-11.0923
▁나란	-11.0925
▁결의안에	-11.0927
▁mo	-11.093
▁전례	-11.0936
▁원자력	-11.0938
▁채우	-11.0938
▁연방수사국	-11.0939
논	-11.0941
▁라이프	-11.0942
▁한쪽	-11.0943
▁지키기	-11.0944
▁디스	-11.0945
▁주가가	-11.0948
베키	-11.0949
▁제약	-11.095
▁공부	-11.0951
▁광대	-11.0952
▁면적	-11.0953
▁꾸	-11.0958
▁시작되었다	-11.0959
tic	-11.0963
▁리서치	-11.0963
학회	-11.0965
▁가서	-11.0966
▁요구에	-11.0967
려진	-11.0969
▁현안	-11.097
▁발리	-11.0971
▁Gr	-11.0971
▁사업가	-11.0974
▁비행기에	-11.0982
▁구상	-11.0984
▁it	-11.0986
▁조사하기	-11.0987
▁가정에	-11.099
▁하트	-11.0991
달라	-11.0991
▁빙	-11.0991
▁벌어들	-11.0993
지구	-11.0994
▁기소했다	-11.0996
▁돌리	-11.0996
▁위협했다	-11.0997
르게	-11.0998
▁생성	-11.1002
▁걸었다	-11.1005
▁경영자	-11.1014
▁상의	-11.1014
▁노스	-11.1018
▁조사단	-11.1021
▁에스	-11.1022
▁모스크바에서	-11.1024
▁증진	-11.1034
▁시점에서	-11.1035
▁경제의	-11.1035
시즌	-11.1038
▁문자	-11.1039
▁공격수	-11.1039
져야	-11.1042
회견에서	-11.1044
▁수비	-11.105
나라	-11.1058
▁적대	-11.106
총장	-11.1063
▁연기했다	-11.1063
▁총격으로	-11.1063
유지	-11.1064
▁발의	-11.1067
ML	-11.1071
바로	-11.1071
머리	-11.1074
▁출전한	-11.1076
ah	-11.1078
▁연이	-11.1087
▁싸우	-11.109
▁오픈에서	-11.1091
▁여자들	-11.1091
미국	-11.1093
ical	-11.1096
직에서	-11.11
전선	-11.1103
▁당국과	-11.1105
▁균	-11.1118
▁선거전	-11.1119
▁중에서	-11.1119
▁시작되는	-11.112
▁가져	-11.1121
▁만료	-11.1122
▁포기했다	-11.1122
▁새해	-11.1125
▁노동부	-11.1127
▁총선에	-11.1132
▁안드레	-11.1135
▁탈출했다	-11.1136
▁관리인	-11.1138
▁시스템이	-11.114
▁모술	-11.114
▁금지하고	-11.1141
어졌다	-11.1143
▁만명에	-11.1143
첼	-11.1146
▁협상단	-11.1148
▁주인이	-11.1159
▁war	-11.1161
▁선고받	-11.1165
SA	-11.1167
▁꺼	-11.1167
▁산책	-11.117
▁자회담에	-11.1173
▁짜	-11.1174
▁엄	-11.1176
▁런던에	-11.1179
▁판결했다	-11.118
▁산악	-11.1182
▁인도에서	-11.1182
▁공학	-11.1183
▁불가피	-11.1188
바리	-11.1189
▁펜실베니아	-11.1201
▁위스콘신	-11.1202
법안	-11.1203
▁켄터키	-11.1204
▁가고	-11.1204
▁Vi	-11.1205
커스	-11.1206
▁동영상에	-11.1207
▁측에서	-11.1207
▁독일에서	-11.121
▁플래	-11.1214
▁메릴랜드	-11.1214
틸	-11.1215
융	-11.1217
▁승객들이	-11.1219
▁도널드	-11.1219
▁마흐무드	-11.1219
▁상파울루	-11.1219
▁세계보건기구	-11.1219
▁잃지	-11.1219
▁커뮤니티	-11.1219
▁그루지아	-11.1219
▁우주정거장	-11.1219
▁피아노	-11.1219
▁김선일	-11.122
▁부작용	-11.122
▁안락사	-11.122
▁닥터	-11.122
▁불쾌	-11.122
▁호르몬	-11.122
▁퇴장	-11.122
▁침투	-11.122
▁연휴	-11.122
▁타이완	-11.122
▁양육권	-11.1221
▁조셉	-11.1221
▁풍경	-11.1221
▁녹색	-11.1221
▁국회의	-11.1222
▁몰래	-11.1222
▁쿠르드족	-11.1222
▁연방법원	-11.1223
▁복권	-11.1223
▁인디아나	-11.1223
▁국가안보	-11.1224
▁경기도	-11.1224
▁침수	-11.1224
▁재벌	-11.1225
▁토양	-11.1225
▁언제든	-11.1225
▁승자	-11.1225
▁수비수	-11.1225
▁유예	-11.1226
▁지닌	-11.1226
▁임박	-11.1227
▁언	-11.1227
▁정보기관	-11.1227
▁토론토	-11.1228
▁나가는	-11.1229
▁조종	-11.123
▁시설에	-11.123
▁구단주	-11.1231
▁후퇴	-11.1232
▁약혼	-11.1233
개의	-11.1234
▁닷	-11.1235
▁필리스	-11.1235
▁문신	-11.1235
▁닭	-11.1235
▁착	-11.1235
▁교량	-11.1236
▁비준	-11.1236
▁off	-11.1236
▁활기	-11.1239
▁차림	-11.1239
▁군복	-11.124
데르	-11.124
▁일축했다	-11.1242
께	-11.1243
▁요트	-11.1245
▁구형	-11.1246
▁지하드	-11.1247
▁감면	-11.125
▁군데	-11.1254
▁팜	-11.1255
▁상원의원에	-11.1259
▁에디	-11.1262
▁그럼	-11.1269
▁범죄에	-11.1269
▁확실하다	-11.127
▁발부	-11.1271
▁군부대	-11.1273
▁Me	-11.1275
▁산소	-11.1279
mon	-11.1281
▁우드	-11.129
▁낙	-11.1292
▁비평	-11.1295
▁경찰서에	-11.1298
▁자선	-11.1302
ess	-11.1303
▁숨기	-11.1309
ll	-11.131
▁거론	-11.131
종일	-11.1311
▁엠	-11.1312
▁끈	-11.1313
ber	-11.1315
▁사회주의	-11.1317
▁도시로	-11.1317
일라	-11.1318
▁알았다	-11.1329
▁부장관	-11.1331
▁이베이	-11.1331
▁아이들과	-11.1331
▁벌어지고	-11.1337
▁취임한	-11.1337
▁기반으로	-11.1337
▁제공해	-11.1338
▁경우에	-11.1342
▁장려	-11.1344
ag	-11.1344
▁추진하고	-11.1351
▁신문에	-11.1364
답	-11.1367
▁액	-11.1368
웬	-11.1373
쓰	-11.1373
솔	-11.1375
▁이브	-11.1377
▁관계자들과	-11.138
힘	-11.1381
▁과학적	-11.1381
▁미소	-11.1381
▁포함된다	-11.1382
▁표현했다	-11.139
ER	-11.1391
▁관중	-11.1394
▁강진	-11.1396
율이	-11.1397
▁시작해	-11.1397
▁물리치	-11.1399
▁카라	-11.1399
▁들리	-11.1401
▁부상당	-11.1402
▁판사들	-11.1404
be	-11.141
▁향했다	-11.1412
▁La	-11.1417
AG	-11.1419
▁no	-11.1432
두고	-11.1433
▁강사	-11.144
▁북부지역	-11.1454
▁의혹에	-11.1458
▁기다려	-11.146
▁사이트에	-11.1463
▁취소됐다	-11.1464
▁No	-11.1465
▁감옥	-11.1472
하르	-11.1487
구역	-11.1487
▁내장	-11.1488
▁구하기	-11.1489
▁얻는	-11.1491
sh	-11.1496
디는	-11.1501
▁벽에	-11.1502
▁문제점	-11.1502
▁아이들에게	-11.1506
체제	-11.1512
▁유입	-11.152
▁났다	-11.1525
▁보호할	-11.1526
▁제공한다	-11.1527
렌스	-11.1531
▁소식통들	-11.1536
▁곤	-11.1536
▁콩	-11.1537
▁안되	-11.1537
▁지냈	-11.1539
▁측면	-11.1539
▁동일	-11.1542
▁배급	-11.1543
부의	-11.1547
▁오해	-11.1551
스틴	-11.1552
일정	-11.1555
효	-11.1556
▁매사추세츠	-11.1558
▁국왕이	-11.1559
▁인자	-11.1561
튜	-11.1562
▁치솟	-11.1564
▁모니터	-11.1564
즘	-11.1564
▁냄새	-11.1564
▁매코맥	-11.1564
▁맥코맥	-11.1564
▁메사추세츠	-11.1564
▁미드필더	-11.1564
▁박테리아	-11.1564
▁뱅크	-11.1564
▁벤자민	-11.1564
▁블룸버그	-11.1564
▁슈워제네거	-11.1564
▁스피처	-11.1564
▁악영향	-11.1564
▁알자와히리	-11.1564
▁암스트롱	-11.1564
▁오징어	-11.1564
▁오키나와	-11.1564
▁이스탄불	-11.1564
▁촛불	-11.1564
▁친선경기	-11.1564
▁캠벨	-11.1564
▁케르비엘	-11.1564
▁프로듀서	-11.1564
▁그루지야	-11.1564
▁바쿠바	-11.1564
▁흥행	-11.1564
▁동계올림픽	-11.1564
▁아스널	-11.1564
▁자서전	-11.1564
▁도덕적	-11.1564
▁중서부	-11.1565
▁침착	-11.1565
▁무하메드	-11.1565
▁속옷	-11.1565
▁계곡	-11.1565
▁종신형	-11.1565
▁탔다	-11.1565
▁지뢰	-11.1566
▁생겨	-11.1566
▁면밀	-11.1566
▁두뇌	-11.1566
▁태양열	-11.1566
▁여배우	-11.1566
▁대피령	-11.1566
▁환경보호	-11.1566
▁블록	-11.1566
▁요격	-11.1566
▁아닐	-11.1567
▁아담	-11.1567
▁맹세	-11.1567
▁화석	-11.1568
▁불안감	-11.1568
▁몸집	-11.1569
▁해킹	-11.1569
▁AK	-11.1569
▁SK	-11.1569
▁아끼	-11.1569
▁품질	-11.1569
▁총알	-11.157
▁소령	-11.157
▁피셔	-11.157
▁외교관계	-11.1571
port	-11.1571
▁교토	-11.1571
▁성행위	-11.1572
▁존드로	-11.1572
▁수백만명	-11.1573
▁항복	-11.1573
▁지침	-11.1573
▁여년	-11.1573
▁반대한다	-11.1574
▁도망	-11.1574
▁곡물	-11.1574
▁대학살	-11.1574
▁참전	-11.1575
▁원격	-11.1575
▁사원에서	-11.1576
▁배제하지	-11.1576
▁용서	-11.1577
▁홈페이지에	-11.1577
▁같았다	-11.1578
ca	-11.1578
▁정통	-11.1581
▁얼리	-11.1581
몬드	-11.1583
▁아카데미상	-11.1584
▁인정한	-11.1585
▁지표	-11.1586
▁하버드	-11.1586
▁후보들이	-11.1586
▁산악지역	-11.1587
▁결장	-11.1587
▁시범	-11.1588
▁댄	-11.159
▁가르치	-11.1591
▁필립스	-11.1592
▁만찬	-11.1594
▁크리스티나	-11.1598
▁아프가니스탄에	-11.1599
▁붐	-11.1601
▁빵	-11.1601
▁운하	-11.1601
▁진행됐다	-11.1601
직원	-11.1602
▁시위대와	-11.1605
▁혼다	-11.1606
▁만나기	-11.1608
▁비방	-11.1609
▁지문	-11.161
▁시장과	-11.1614
▁염	-11.1614
mar	-11.1615
▁내정자	-11.1617
▁미술	-11.1618
▁미치	-11.1619
ight	-11.1619
▁단서	-11.162
▁가난	-11.1621
▁지속된	-11.1622
▁생겼다	-11.1625
▁윤리	-11.163
▁상아	-11.1632
▁장악한	-11.1632
▁모욕	-11.1635
지오	-11.1636
▁캐리	-11.1639
▁성전	-11.1639
▁일방적	-11.1641
공항	-11.1642
▁부진	-11.1645
▁팬들에게	-11.1647
▁확인해	-11.1647
▁포기하지	-11.165
ill	-11.1652
▁춤	-11.1653
▁ex	-11.1657
▁감옥에	-11.1659
▁도시에	-11.1661
▁확인하는	-11.1661
▁기한	-11.1662
▁칼로	-11.1664
▁돌보	-11.1669
▁고려해	-11.1673
아누	-11.1675
을때	-11.1675
조정	-11.1676
▁일째	-11.1677
▁급진	-11.1677
▁강조하고	-11.168
pp	-11.1682
▁드는	-11.1689
▁말로	-11.1689
▁중국인	-11.169
▁반군과	-11.1695
▁말했지만	-11.1703
▁통로	-11.1704
▁밝혀내	-11.1707
▁미친	-11.1708
▁검토하	-11.1709
▁우리들	-11.1709
비오	-11.1709
▁임명된	-11.1718
▁환영했다	-11.1723
굴	-11.1731
찌	-11.1732
빛	-11.1735
테러	-11.174
▁금지하는	-11.1744
▁공원에서	-11.1745
▁헤이	-11.1749
▁모의	-11.1755
▁임원	-11.176
해진다	-11.1764
▁조치에	-11.1768
동물	-11.1772
리언	-11.1775
▁반대했다	-11.1782
▁란	-11.1786
▁내년에	-11.1786
▁그레	-11.1786
▁후보에게	-11.1787
▁News	-11.1792
▁실직	-11.1795
▁목격한	-11.1796
▁미군측	-11.1804
중이다	-11.1807
▁듯한	-11.1808
▁제품에	-11.181
▁경제와	-11.181
▁장소로	-11.1816
▁로라	-11.1825
▁같	-11.1827
arm	-11.1838
▁광장에	-11.1838
▁제작자들	-11.184
▁부근에	-11.1841
야만	-11.1847
▁고고학자들	-11.1847
▁쌍	-11.1852
ting	-11.1853
▁폰	-11.1858
▁주거	-11.1858
▁기숙사	-11.1861
▁일으켰	-11.1862
▁사무실에서	-11.1866
오르	-11.1868
▁납치범들	-11.1872
▁건물에서	-11.1873
▁면에서	-11.1875
▁법정에	-11.1885
▁그때	-11.1888
파르	-11.1889
▁국무	-11.1904
▁손님	-11.1906
▁스탠	-11.191
▁국정원	-11.191
픈	-11.1916
▁천억	-11.1919
▁중국인들	-11.1921
틱	-11.1921
▁캐롤	-11.1921
▁BMW	-11.1921
▁구스마오	-11.1921
▁뉴멕시코	-11.1921
▁만장일치	-11.1921
▁모하마드	-11.1921
▁브리티시	-11.1921
▁사형집행	-11.1921
▁승용차	-11.1921
▁실업수당	-11.1921
▁애틀란타	-11.1921
▁자메이카	-11.1921
▁캠퍼스	-11.1921
▁캥거루	-11.1921
▁크누트	-11.1921
▁클리블랜드	-11.1921
▁탈라바니	-11.1921
▁펼칠	-11.1921
▁피추시킨	-11.1921
긋	-11.1921
▁김계관	-11.1921
▁세실리아	-11.1921
▁수하르토	-11.1921
▁재정경제부	-11.1921
▁깃발	-11.1921
▁비영리	-11.1921
▁냉동	-11.1921
▁빈민가	-11.1922
▁퍼트레이어스	-11.1922
▁벨몬트	-11.1922
▁방사능	-11.1922
▁러셀	-11.1922
▁미망인	-11.1922
▁ETA	-11.1922
▁노왁	-11.1922
▁염두	-11.1922
▁공략	-11.1923
▁구조조정	-11.1923
▁펠리	-11.1923
▁전염병	-11.1923
▁메뉴	-11.1923
▁무엇인지	-11.1923
▁유효	-11.1923
▁격추	-11.1923
▁편집자	-11.1924
▁검찰총장	-11.1924
▁평범	-11.1924
▁완공	-11.1924
▁간섭	-11.1924
▁멈	-11.1924
▁사마라	-11.1925
▁뜨거	-11.1925
▁감추	-11.1925
▁밀림	-11.1925
▁악재	-11.1925
▁보상금	-11.1925
▁페리노	-11.1925
▁건립	-11.1925
▁국영방송	-11.1926
▁교황청	-11.1926
▁탄약	-11.1926
▁제이미	-11.1926
▁다짐	-11.1926
▁저가	-11.1926
▁주치의	-11.1927
▁십대	-11.1927
▁행방	-11.1927
▁머피	-11.1927
▁제라드	-11.1928
▁북동쪽	-11.1929
▁발목	-11.1929
▁안겨	-11.1929
▁지질	-11.193
▁타입	-11.1931
건물	-11.1931
▁나라들	-11.1932
▁세균	-11.1932
▁악성	-11.1933
▁폭풍우	-11.1933
▁월마트	-11.1933
▁구타	-11.1933
▁왔습니다	-11.1934
▁브라	-11.1934
▁막고	-11.1934
놨다	-11.1935
▁북서쪽	-11.1935
▁기초	-11.1936
▁중단하라	-11.1936
▁순찰대	-11.1937
▁대피소	-11.1939
▁종파	-11.1941
부문	-11.1941
▁유포	-11.1943
▁안건	-11.1944
▁제트기	-11.1944
▁터미널	-11.1945
▁것이냐	-11.1947
▁안심	-11.1948
▁최상	-11.1951
▁대도시	-11.1954
▁통상	-11.1956
▁공개되지	-11.1957
▁남았다	-11.1958
▁구제안	-11.196
▁관료	-11.1962
▁만든다	-11.1962
▁정책이	-11.1963
▁기내	-11.1968
▁속한	-11.197
▁맹	-11.197
▁제인	-11.197
▁달아	-11.1971
▁유아	-11.1971
ster	-11.1972
▁자리잡고	-11.1972
▁큐	-11.1976
▁메달	-11.1977
▁갖는다	-11.1981
▁아버지와	-11.1983
▁결의	-11.1985
▁당장	-11.1985
▁바퀴	-11.1987
디어	-11.1987
▁듀	-11.1989
▁신고했다	-11.1991
▁비극적	-11.1994
▁범죄자들	-11.1994
▁pre	-11.1996
▁흐르	-11.1996
▁연관된	-11.1999
▁차가	-11.2006
▁전반적으로	-11.201
▁릭	-11.2017
▁중장	-11.2019
▁칩	-11.2021
▁지도자로	-11.2021
▁환영한다	-11.2027
▁배로	-11.2029
▁카페인	-11.203
▁소유자	-11.2031
▁만들었	-11.2037
▁집안	-11.2038
시기	-11.2039
▁포착	-11.204
▁둔화	-11.2041
▁전달한	-11.2042
▁신의	-11.2045
▁이끌었	-11.2046
▁보여주기	-11.2048
▁묘	-11.2049
▁링	-11.2051
▁하나이다	-11.2051
▁했을	-11.2053
▁든다	-11.2055
국민	-11.2058
▁일정이	-11.2061
▁그쳤다	-11.2067
▁전당	-11.2069
▁가려	-11.2069
▁움직임에	-11.2071
▁반도	-11.2074
▁방한	-11.2076
▁지났	-11.2079
▁떨어지는	-11.2083
단이	-11.2089
▁영국으로	-11.2089
최	-11.2091
▁불안한	-11.2093
▁양상	-11.2094
▁미국에서는	-11.2095
▁페이스	-11.2097
▁피해지역	-11.21
▁얼음이	-11.21
섭	-11.2101
뜨	-11.2103
멘	-11.2103
시키지	-11.2104
셰	-11.2104
▁핀	-11.2104
▁무장괴한	-11.2105
핀	-11.2105
펜	-11.2106
▁들어있는	-11.2108
▁물리	-11.2111
▁개최지	-11.2112
리노	-11.2116
▁기자들과	-11.2116
주택	-11.2119
월드	-11.212
▁걸려있	-11.2122
▁제조사	-11.2126
▁주지사와	-11.2128
▁국민에게	-11.2141
▁다음과	-11.2144
▁거치	-11.2147
▁기어	-11.2152
▁거부하	-11.2152
light	-11.2156
▁시리아와	-11.2157
▁이라크전에	-11.2158
▁흔적	-11.2165
▁목소리로	-11.2167
▁발견되	-11.2168
▁인정하	-11.2169
병력	-11.217
wo	-11.2172
▁Sc	-11.2172
▁철수시키	-11.2174
▁대변	-11.2176
▁하는데	-11.2176
▁갑작스	-11.2179
▁미트	-11.218
▁백악관에	-11.2183
▁시도한	-11.2184
▁영국에	-11.2199
▁전설적	-11.2204
ds	-11.2211
득	-11.2212
▁진행할	-11.2213
▁오지	-11.2221
자들과	-11.2222
▁국가들과	-11.2226
ear	-11.2228
▁줄기	-11.223
프레	-11.2237
죄로	-11.2241
▁부탁	-11.2242
▁박탈	-11.2258
▁봤	-11.226
▁클리	-11.2262
하자는	-11.227
▁케이	-11.2271
ast	-11.2272
▁암호	-11.2275
▁n	-11.2277
줘	-11.2279
혐의로	-11.2281
▁당연	-11.2281
▁고속	-11.2284
▁델타	-11.2285
▁덧붙	-11.2286
▁미화	-11.2287
▁Ge	-11.2289
▁연령	-11.229
잡이	-11.2291
삭	-11.2291
▁머무	-11.2292
▁내셔널	-11.2292
▁화염	-11.2292
믹	-11.2292
▁넘어섰다	-11.2292
▁놀랐다	-11.2292
▁돕고	-11.2292
▁무책임	-11.2292
▁브로드웨이	-11.2292
▁색깔	-11.2292
▁에탄올	-11.2292
▁여동생	-11.2292
▁올바른	-11.2292
▁웨스트버지니아	-11.2292
▁저작권	-11.2292
▁초등학교	-11.2292
▁Court	-11.2292
▁꿈이	-11.2292
▁댈러스	-11.2292
▁따돌리	-11.2292
▁흡수	-11.2292
▁이벤트	-11.2292
▁하반기	-11.2292
▁도메인	-11.2292
▁셔츠	-11.2292
▁하리리	-11.2292
▁습관	-11.2292
▁다뤄	-11.2292
▁앙겔	-11.2292
▁월드시리즈	-11.2292
▁ISS	-11.2292
▁수하물	-11.2292
▁겁니다	-11.2292
▁투데이	-11.2293
▁비평가들	-11.2293
▁압승	-11.2293
▁빨간색	-11.2293
▁유혹	-11.2293
▁후계자	-11.2293
▁디스커버리호	-11.2293
▁이루어	-11.2294
▁결백	-11.2294
▁도쿄에서	-11.2294
▁부회장	-11.2294
▁평결	-11.2294
▁코스피	-11.2294
▁보석금	-11.2294
▁영입	-11.2294
▁외교정책	-11.2295
▁글렌	-11.2295
▁이른바	-11.2295
▁자치구	-11.2295
▁홈런	-11.2295
▁방북	-11.2296
▁제재조치	-11.2296
▁천억원	-11.2296
▁스위	-11.2296
▁영역	-11.2297
▁에이미	-11.2297
▁자회담에서	-11.2298
▁전미	-11.2298
▁벌금형	-11.2298
▁허위	-11.2299
▁데니스	-11.2299
▁야심	-11.23
▁사업에	-11.23
▁피플	-11.2301
▁독점	-11.2302
▁개헌	-11.2302
▁경위	-11.2304
▁담겨있다	-11.2305
▁외출	-11.2305
▁공통	-11.2306
▁자매	-11.2308
▁교회에서	-11.2308
▁소감	-11.2309
▁퇴직	-11.2309
▁호흡기	-11.231
▁오락	-11.2312
세스	-11.2312
▁공방	-11.2312
▁걸프	-11.2313
▁늘어났다	-11.2313
▁악화될	-11.2314
▁실내	-11.2314
▁국정	-11.2314
▁번영	-11.2315
▁올리는	-11.2316
▁리더	-11.2317
▁올릴	-11.2317
▁노동력	-11.2318
▁업	-11.2319
▁어려워	-11.2319
▁자회사	-11.2319
▁대담	-11.232
▁동성	-11.2321
▁분출	-11.2324
▁투표권	-11.2326
▁도왔다	-11.2326
▁불가피하다	-11.2327
▁상원의원직	-11.2327
▁놓았다	-11.2328
▁자유당	-11.2328
▁상정	-11.2328
▁초래할	-11.2329
트릭	-11.2332
▁우파	-11.2334
▁리타	-11.2335
▁장착된	-11.2336
▁딜러	-11.2338
cent	-11.2342
▁조카	-11.2345
▁박수	-11.2345
▁사이즈	-11.2347
▁방사	-11.2353
▁보았다	-11.2353
▁정비	-11.2355
티스	-11.2355
▁위법	-11.2355
우주	-11.2356
다소	-11.2356
▁후임자	-11.2357
▁여개	-11.2358
▁상태였다	-11.2358
▁게이	-11.2361
▁부인과	-11.2365
▁납치됐다	-11.2372
ix	-11.2372
▁수잔	-11.2373
▁위기로	-11.2375
▁지미	-11.2376
ors	-11.2376
▁운동가	-11.2383
▁암살된	-11.2387
▁하려	-11.2387
▁북한에서	-11.2389
▁관해서	-11.2391
▁지목했다	-11.2394
▁고백	-11.2396
제로	-11.2396
▁블로그	-11.24
▁확인한	-11.2401
▁매트	-11.2402
▁time	-11.2403
ost	-11.2403
▁폐쇄했다	-11.2403
▁감독상	-11.2404
▁민주당과	-11.2409
▁용인	-11.2413
▁발생했던	-11.2418
이라도	-11.2421
▁잃어버	-11.2422
▁무엇이	-11.2423
▁정당이	-11.2423
▁우주에서	-11.2437
▁내리기	-11.2444
▁이겨	-11.2444
▁중유	-11.2445
▁톱	-11.2446
공장	-11.2447
▁여진이	-11.245
관계자	-11.2452
▁맡아	-11.2453
▁웹사이트에서	-11.2454
▁오를	-11.2455
▁내로	-11.2455
▁측에	-11.2459
tion	-11.2461
▁복합	-11.2461
▁여행객들	-11.2465
▁경찰들	-11.2467
▁살해하겠다	-11.2467
작업을	-11.2469
어져	-11.247
ew	-11.2471
▁펼치고	-11.2475
▁알리기	-11.248
▁인적	-11.248
▁여러분들	-11.2483
▁이탈	-11.2486
억	-11.2487
▁정한	-11.2488
▁피신	-11.2489
탑	-11.249
▁모르고	-11.2492
▁전인	-11.2492
환경	-11.2496
▁에이	-11.2498
하우스	-11.2499
▁내주	-11.25
푸르	-11.2502
▁주민이	-11.251
대책	-11.2513
▁적대적	-11.2514
▁개발도상국	-11.2517
▁시도했다	-11.2517
▁임신한	-11.2525
▁괜찮	-11.2528
▁각료	-11.2532
ect	-11.2536
▁악의	-11.2536
▁일년	-11.2537
연구원	-11.2538
▁다음으로	-11.2538
▁공격할	-11.2543
▁예상되는	-11.2554
▁선보	-11.2567
▁끝내	-11.2569
▁치고	-11.2572
라니	-11.2583
▁정부에서	-11.2589
▁공개할	-11.259
▁거래가	-11.259
▁덕	-11.259
과정에서	-11.2592
▁많지	-11.2599
전략	-11.26
▁방문이	-11.2601
▁녹아	-11.2602
▁조달	-11.2605
▁부부의	-11.2612
▁열려	-11.2614
시키는데	-11.2616
룩	-11.2621
▁마련하기	-11.2621
▁고려할	-11.2622
▁없기	-11.2633
▁최대한	-11.2638
▁상업적	-11.2642
▁펼쳤	-11.2643
▁영구	-11.2644
▁올렸	-11.2644
▁납치했다	-11.2645
▁참가자	-11.2654
▁상원의	-11.2656
▁데뷔	-11.2665
▁국세청	-11.2665
▁파키스탄이	-11.2666
▁흉	-11.267
▁콜린	-11.2672
▁성사	-11.2672
쁜	-11.2672
흘	-11.2672
렬	-11.2675
쇠	-11.2675
ife	-11.2676
▁끌려	-11.2676
▁터뜨	-11.2676
덩	-11.2676
▁BBK	-11.2676
▁Pakistan	-11.2676
▁SUV	-11.2676
▁UFO	-11.2676
▁United	-11.2676
▁과테말라	-11.2676
▁국가보안법	-11.2676
▁높였다	-11.2676
▁두개골	-11.2676
▁리얼리티	-11.2676
▁마호메트	-11.2676
▁보건복지부	-11.2676
▁엔터테인먼트	-11.2676
▁정동영	-11.2676
▁조선중앙통신	-11.2676
▁조코비치	-11.2676
▁집행유예	-11.2676
▁토마토	-11.2676
▁당분간	-11.2676
▁열렬한	-11.2676
▁퍼레이드	-11.2676
겹	-11.2676
무장혁명군	-11.2676
▁싱가폴	-11.2676
▁의구심	-11.2676
▁제네바	-11.2676
▁좌익	-11.2676
▁최우수	-11.2676
▁콜레라	-11.2676
▁뉴욕증시	-11.2676
▁수족관	-11.2676
▁링컨	-11.2677
▁원내대표	-11.2677
▁규명	-11.2677
▁가볍	-11.2677
▁대지진	-11.2677
▁의료보험	-11.2677
▁신용위기	-11.2677
▁힌두교	-11.2677
▁결렬	-11.2677
▁꾸준	-11.2677
▁검출	-11.2677
▁삼엄	-11.2677
▁혼합	-11.2677
▁참패	-11.2678
▁티켓	-11.2678
▁홀랜드	-11.2678
▁빠질	-11.2678
▁코미디언	-11.2678
▁열쇠	-11.2678
▁비공개	-11.2678
▁배럭	-11.2678
▁워커	-11.2679
▁설교	-11.2679
▁영예	-11.2679
▁연합뉴스	-11.2679
▁호주오픈	-11.2679
▁Star	-11.2679
▁삼림	-11.2679
▁노리에가	-11.2679
▁신념	-11.268
▁과잉	-11.268
▁검진	-11.268
▁격분	-11.268
▁초대형	-11.268
▁이정인	-11.268
▁사찰	-11.2681
▁응원	-11.2681
▁깜	-11.2681
▁광경	-11.2681
▁관행	-11.2681
▁태양계	-11.2681
시스	-11.2682
▁포스터	-11.2682
▁HD	-11.2683
▁권유	-11.2683
▁계단	-11.2683
▁지폐	-11.2684
▁보수파	-11.2684
▁저격	-11.2684
▁순회	-11.2685
▁매춘부	-11.2686
▁DC	-11.2687
▁재생	-11.2688
▁섞	-11.2688
▁후보자들	-11.2689
▁발작	-11.2689
▁여성에게	-11.269
▁밀수	-11.269
▁체인	-11.2691
▁차량은	-11.2691
▁비자금	-11.2692
▁나라에서	-11.2692
▁시사회	-11.2693
▁더이상	-11.2693
▁보류	-11.2693
▁돌아갔다	-11.2694
▁맡게	-11.2695
▁기념일	-11.2696
▁사우스	-11.2696
▁소방관들	-11.2696
▁빨간	-11.27
▁통신과	-11.27
▁장관들	-11.2702
▁인플루엔자	-11.2702
▁시술	-11.2703
▁장난	-11.2703
▁국면	-11.2703
▁서있	-11.2705
▁야간	-11.2706
▁발견돼	-11.2706
▁호우	-11.2708
▁정상적으로	-11.2708
▁세라	-11.2709
▁단백질	-11.271
▁오고	-11.2711
자들에	-11.2712
▁가격에	-11.2713
세요	-11.2714
▁애쓰고	-11.2714
▁현직	-11.2716
▁제프	-11.2717
▁후보작	-11.2719
▁입장권	-11.2719
▁작곡가	-11.2726
▁석상	-11.2728
▁하마스와	-11.2729
▁미사	-11.2731
▁시작되	-11.2736
▁정보가	-11.2739
▁결승에서	-11.274
▁취해야	-11.2744
▁년째	-11.2744
▁심정	-11.2748
▁계층	-11.2749
졌습니다	-11.275
▁붙이	-11.275
▁잡혀있	-11.2751
▁봐	-11.2751
위기	-11.2756
▁범죄자	-11.2758
▁찬사	-11.276
▁람	-11.2761
▁was	-11.2763
▁지명자	-11.2763
▁논의하고	-11.2764
▁이끌었다	-11.2766
▁페이	-11.2779
▁입원한	-11.278
▁친구들과	-11.2787
▁흔들리	-11.2788
▁하원에서	-11.2788
▁될지	-11.2789
▁헤르	-11.2789
V	-11.2791
▁부수	-11.2791
▁결정된	-11.2796
프리	-11.2797
▁와서	-11.2798
▁리사	-11.2803
▁어디에	-11.2805
▁코커스에서	-11.2808
▁팔려	-11.281
▁그날	-11.2811
▁보아	-11.2811
▁나르	-11.2813
▁진행하는	-11.2815
▁베를린에서	-11.2816
▁조사했다	-11.2819
▁돌입했다	-11.2822
▁사무소	-11.2823
▁러시아에서	-11.2829
▁마련했다	-11.2829
▁감자	-11.2831
min	-11.2833
▁식으로	-11.2833
▁홀에서	-11.2835
▁나갔다	-11.2838
▁강화했다	-11.284
▁문화적	-11.2841
▁언론인	-11.2842
▁제기한	-11.2842
▁수의사	-11.2847
ns	-11.285
▁살아있는	-11.285
▁수반과	-11.2853
▁재판소	-11.2857
▁개국이	-11.2859
▁가두	-11.2864
▁길에	-11.2866
▁파고	-11.2874
▁분기에	-11.2875
응	-11.2876
▁칠	-11.2879
전문	-11.288
▁몬	-11.2881
컴	-11.2886
▁앤더슨	-11.2887
교회	-11.2887
컨	-11.2889
묘	-11.289
방법	-11.289
첨	-11.2891
돈	-11.2893
떨어진	-11.2893
▁미수	-11.2895
▁정치범	-11.2895
▁에바	-11.2895
▁여행사	-11.2898
▁유지하는	-11.29
피크	-11.2905
mo	-11.2914
▁어디	-11.2917
▁참모	-11.2917
▁개헌안	-11.2927
▁헌신	-11.2931
▁기관들	-11.2932
하일	-11.2933
▁요한	-11.2934
▁계획한	-11.2937
▁one	-11.2937
▁폭발했다	-11.2939
▁파르	-11.2941
▁공격하는	-11.2943
▁동원해	-11.2944
수준	-11.2944
▁사태로	-11.2946
▁가담	-11.2953
▁초과	-11.2954
▁판매되	-11.2958
▁갇혀	-11.2969
ame	-11.2971
ile	-11.2971
▁관심사	-11.2977
▁시작하는	-11.298
수사	-11.2987
▁기념하기	-11.2988
▁방문객	-11.2991
▁대리	-11.2993
수단	-11.3
▁개막식	-11.3002
▁의견에	-11.3004
▁덴버	-11.3007
▁버렸다	-11.3007
▁대원	-11.3008
▁루스	-11.3009
▁양곤	-11.3009
▁주문했다	-11.3011
▁공장에서	-11.3013
▁위반한	-11.3013
발전	-11.3018
▁정치에	-11.302
▁방문했	-11.3021
▁윤리적	-11.3021
클리	-11.3025
모어	-11.3025
데일	-11.3026
▁직면한	-11.3032
▁시작하기	-11.3032
줘야	-11.3035
북한	-11.3037
▁구조대원	-11.3038
▁도움으로	-11.3041
텍	-11.3043
니에	-11.3047
▁바탕	-11.3048
▁사진에	-11.3054
▁호흡	-11.3057
▁홈페이지	-11.3061
님	-11.3061
▁하겠다	-11.3062
티드	-11.3064
▁맞이하	-11.3067
롬	-11.3067
▁America	-11.3068
▁선택한	-11.3069
▁중동평화	-11.3071
▁연예인	-11.3073
▁주사	-11.3075
▁Human	-11.3076
▁issue	-11.3076
▁갤럭시	-11.3076
▁곤돌라	-11.3076
▁농작물	-11.3076
▁닌텐도	-11.3076
▁동남아시아	-11.3076
▁라왈핀디	-11.3076
▁로맨틱	-11.3076
▁루마니아	-11.3076
▁마닐라	-11.3076
▁베테랑	-11.3076
▁아웅산수지	-11.3076
▁얀코비치	-11.3076
▁엉덩이	-11.3076
▁엔데버호	-11.3076
▁짝짓기	-11.3076
▁추수감사절	-11.3076
▁치렀	-11.3076
▁카라카스	-11.3076
▁카톨릭	-11.3076
▁타블로이드	-11.3076
▁횟수	-11.3076
룽	-11.3076
▁FTSE	-11.3076
▁high	-11.3076
▁내비쳤다	-11.3076
▁백화점	-11.3076
▁카리스마	-11.3076
▁페널티킥	-11.3076
▁로페즈	-11.3076
▁페르난도	-11.3076
▁테이블	-11.3076
▁뮤직	-11.3076
▁유태인	-11.3077
▁party	-11.3077
▁Brit	-11.3077
▁살모넬라균	-11.3077
▁평론가들	-11.3077
▁보스니아	-11.3077
▁대중교통	-11.3077
▁동점골	-11.3077
▁소수민족	-11.3077
▁소아과	-11.3077
▁대통합민주신당	-11.3077
▁결승골	-11.3077
▁범람	-11.3077
▁가자시티	-11.3077
▁부정선거	-11.3077
▁나중에	-11.3077
▁밀접	-11.3077
▁Chin	-11.3078
▁패널	-11.3078
▁Press	-11.3078
디오	-11.3078
▁관광산업	-11.3078
ext	-11.3079
▁울머	-11.3079
▁평생	-11.308
▁세번째	-11.308
▁오스틴	-11.308
▁표적이	-11.3081
▁기둥	-11.3081
▁결별	-11.3082
▁온천	-11.3083
▁극심	-11.3083
▁경제성장률	-11.3083
▁지칭	-11.3083
▁Ri	-11.3084
▁연구조사	-11.3084
▁심장병	-11.3084
▁매사추세츠주	-11.3084
▁도착했을	-11.3085
▁면허	-11.3085
▁바이오	-11.3085
▁동행	-11.3085
▁억압	-11.3085
▁페퍼	-11.3086
▁숨지게	-11.3086
▁히트	-11.3086
▁바스크	-11.3087
▁면제	-11.3087
▁외각	-11.3087
▁세레나	-11.3087
▁레저	-11.3087
▁책임감	-11.3088
▁필수	-11.309
▁관세	-11.309
대사관	-11.3091
▁단호	-11.3092
▁남겼다	-11.3092
▁무너졌다	-11.3092
▁PA	-11.3093
느라	-11.3093
▁과실	-11.3095
▁풍자	-11.3095
▁버크	-11.3095
▁삼았다	-11.3096
▁조업	-11.3097
▁신비	-11.3099
▁줄어	-11.3103
▁PF	-11.3104
▁전선	-11.3106
▁반란	-11.3106
▁대승	-11.3107
▁프린스	-11.3109
▁여정	-11.3109
준다	-11.3109
▁국민당	-11.3109
▁이끈	-11.311
군과	-11.3111
▁행운	-11.3115
▁누드	-11.312
▁낙관적	-11.312
▁투수	-11.312
▁질서	-11.3123
▁많았다	-11.3124
▁어선	-11.3125
▁하는지	-11.3126
▁샘	-11.3126
▁down	-11.3127
▁넘어서	-11.3128
▁비율이	-11.313
▁빗	-11.314
▁덩어리	-11.3142
▁후임으로	-11.3146
▁state	-11.3148
▁움직	-11.315
▁모닝	-11.3155
▁Q	-11.3156
전문가	-11.3157
▁번식	-11.3157
▁이룬	-11.3159
▁의뢰인	-11.3163
▁대처하기	-11.3165
▁살해됐다	-11.3166
▁행동으로	-11.317
▁걸스	-11.3171
되게	-11.3172
▁취하	-11.3175
▁무혐의	-11.3176
▁유명인사	-11.3178
▁시민단체	-11.3178
▁편이	-11.318
▁달에	-11.318
▁괴	-11.3181
▁별로	-11.3181
▁방콕에서	-11.3186
비행	-11.3186
▁포기할	-11.3189
▁야당의	-11.3191
▁경선이	-11.3197
▁감기	-11.3201
▁줄어들었다	-11.3202
▁가할	-11.3205
ai	-11.3205
▁안다	-11.3205
▁감행했다	-11.3209
▁도로에	-11.321
▁지정된	-11.3211
▁바스라에서	-11.3214
▁퇴원	-11.3215
▁이란에서	-11.3218
▁동남	-11.3219
▁용의	-11.322
red	-11.3223
노프	-11.3224
▁지사	-11.3224
▁잡기	-11.3226
▁당원들	-11.3227
▁제안에	-11.3227
▁발생하기	-11.3231
▁주자	-11.3233
▁맡기	-11.3234
라이트	-11.3238
▁거라고	-11.3239
▁배정	-11.324
성과	-11.3241
▁까	-11.3243
헤드	-11.3243
코르	-11.3244
▁물질이	-11.3244
▁험	-11.325
윤	-11.3251
▁행한	-11.3256
▁분명한	-11.3259
▁첸	-11.3259
▁말하지	-11.3264
▁구입한	-11.3268
▁국경지역에	-11.3269
▁수감됐다	-11.327
▁해변에서	-11.3272
▁탑	-11.3272
▁퍼지	-11.3276
게이트	-11.3277
▁소방	-11.3277
▁지구로	-11.3277
▁심화	-11.3278
ern	-11.3283
▁관광객이	-11.3288
▁태국에서	-11.3289
▁도시들	-11.3291
▁결승	-11.3296
▁선보였	-11.3301
덤	-11.3302
▁위치에	-11.3302
▁발표하지	-11.3302
▁정직	-11.3302
첸	-11.3303
휴	-11.3304
몽	-11.3304
▁협정에	-11.3304
▁단체에	-11.3305
X	-11.3308
▁죽을	-11.3309
론자들	-11.3317
▁파괴됐다	-11.3318
보고서	-11.332
스텐	-11.3321
▁하락했	-11.3325
사람	-11.3325
노동	-11.3335
▁겐	-11.3335
어지고	-11.3336
▁남지	-11.3338
통제	-11.3338
▁이어진	-11.3343
▁후안	-11.3348
▁비리	-11.3353
빌리	-11.3354
▁발생한다	-11.3356
▁이목	-11.3356
▁직면해	-11.3361
코스	-11.3366
주재	-11.3367
▁강전	-11.3369
lin	-11.3379
▁방송과	-11.3382
▁다쳤	-11.3386
처리	-11.3387
▁제어	-11.3388
old	-11.3393
▁민주당원들	-11.3398
▁통근	-11.3405
세르	-11.3407
▁의뢰	-11.3407
sk	-11.3408
회에서	-11.3415
▁놓여	-11.3418
▁복용한	-11.3419
ef	-11.3421
▁석방했다	-11.3426
▁선호	-11.3434
▁게임에서	-11.3439
▁재미	-11.3439
▁보여준	-11.3442
▁획득했다	-11.3446
▁맞았	-11.3446
로프	-11.3448
▁관료들	-11.345
자에	-11.345
▁한반도에서	-11.3451
▁정부로부터	-11.3459
▁침	-11.346
tor	-11.3463
▁감염자	-11.3463
라기	-11.3463
▁무기한	-11.3465
것을	-11.3468
▁사정	-11.347
▁쇼에	-11.3471
▁법무	-11.3477
▁정찰	-11.3478
▁섬에	-11.3483
▁버몬트	-11.3483
▁승리하는	-11.3485
▁다국적	-11.3485
▁괴한들	-11.3486
▁나눠	-11.3486
▁경제성장	-11.3487
▁자연적	-11.3489
쾌	-11.349
이면	-11.3492
윗	-11.3493
▁OECD	-11.3493
▁WWF	-11.3493
▁가톨릭	-11.3493
▁레젭	-11.3493
▁로널드	-11.3493
▁몬타나	-11.3493
▁무크타다	-11.3493
▁버시바우	-11.3493
▁브뤼셀	-11.3493
▁사카쉬빌리	-11.3493
▁이데올로기	-11.3493
▁쫓겨	-11.3493
▁컨퍼런스	-11.3493
▁콘크리트	-11.3493
▁콜레스테롤	-11.3493
▁폴라로이드	-11.3493
▁프리메라리가	-11.3493
▁합참의장	-11.3493
돋	-11.3493
쿤	-11.3493
▁금융제재	-11.3493
▁임산부	-11.3493
▁기번스	-11.3493
▁오마바	-11.3493
▁팔루자	-11.3493
▁휴양지	-11.3493
▁힉스	-11.3493
▁자이툰	-11.3493
▁횡단	-11.3493
▁태어나	-11.3493
▁쟁점	-11.3493
▁공습이	-11.3493
▁뒤덮	-11.3493
▁이소연	-11.3493
▁주니어	-11.3493
▁아지즈	-11.3493
▁크리켓	-11.3493
▁페인트	-11.3493
▁Bank	-11.3493
▁농촌	-11.3494
▁주장해	-11.3494
▁근접	-11.3494
▁소요사태	-11.3494
▁번호판	-11.3494
▁와중에	-11.3494
▁여객선	-11.3494
▁호르타	-11.3495
▁동북아	-11.3495
▁간첩	-11.3495
▁평창	-11.3495
▁엄중	-11.3495
▁최후	-11.3496
▁통계청	-11.3496
▁Ex	-11.3496
▁싸울	-11.3496
▁연애	-11.3496
▁이루어질	-11.3497
▁난폭	-11.3497
▁총격사건	-11.3497
▁연습	-11.3497
▁활력	-11.3498
▁피델	-11.3498
▁단절	-11.3499
모토	-11.3499
▁말라위	-11.3499
▁정글	-11.3499
스테이트	-11.35
▁금지령	-11.35
▁포격	-11.35
▁예금	-11.3501
▁평방	-11.3501
▁테네시주	-11.3501
돌프	-11.3502
▁변동	-11.3502
▁황제	-11.3503
▁본래	-11.3503
▁지나친	-11.3503
▁수년간	-11.3503
▁감동	-11.3503
▁인도와	-11.3503
▁테러공격	-11.3504
▁즐거	-11.3504
▁완수	-11.3504
▁울프	-11.3506
▁철거	-11.3507
▁스탠리	-11.3507
▁수성	-11.3507
▁급파	-11.3508
▁반격	-11.3509
▁테마	-11.3509
▁뉴저지주	-11.3509
▁천연	-11.3509
▁사절	-11.3509
▁감안	-11.351
▁일요일에	-11.351
▁액수	-11.351
▁사격	-11.351
▁뒤에서	-11.351
▁터진	-11.3511
▁태아	-11.3511
▁건조	-11.3512
▁질식	-11.3513
▁구분	-11.3513
▁신종	-11.3515
▁데이트	-11.3515
▁앙리	-11.3517
▁지도력	-11.3517
▁발사된	-11.3519
▁경찰청장	-11.352
▁안개	-11.352
▁스노	-11.352
▁분양	-11.3521
받을	-11.3521
▁휩싸였다	-11.3522
▁상실	-11.3523
▁가한	-11.3524
▁외모	-11.3524
ki	-11.3525
▁분명하다	-11.3526
▁루이	-11.3527
▁가즈니주	-11.3528
▁살리	-11.3528
▁상징적인	-11.3529
▁만톤	-11.353
▁조그	-11.3531
▁문학	-11.3531
▁열린다	-11.3533
▁반감	-11.3533
▁두목	-11.3533
▁한국정부	-11.3535
지도자	-11.3535
▁도와	-11.3536
up	-11.3536
▁압도	-11.3537
▁도박	-11.3538
▁일본인들	-11.3538
▁작용할	-11.3539
▁허리	-11.3541
▁핵문제	-11.3541
▁피고인들	-11.3541
▁은행이	-11.3541
▁앤드	-11.3544
▁보수적인	-11.3546
▁미쳤다	-11.3546
▁양당	-11.3547
▁인파	-11.3548
▁억류된	-11.3548
mer	-11.355
▁열리기	-11.3551
▁접근할	-11.3555
▁선박에	-11.3555
▁이건	-11.3556
▁차고	-11.3557
▁이상으로	-11.3558
▁독일과	-11.3559
▁발사한	-11.3561
▁배아	-11.3563
▁높이고	-11.3563
▁흉기	-11.3564
▁과일	-11.3565
▁당선된	-11.3566
▁내기	-11.3568
▁중년	-11.357
법에	-11.3571
▁영화로	-11.3576
▁만행	-11.3577
▁쉐	-11.3578
▁캄	-11.3578
▁우주비행사들	-11.3578
▁심각하다	-11.3579
레즈	-11.3586
치기	-11.3587
▁켄	-11.3587
▁가하고	-11.3588
▁노동자들이	-11.3588
▁개혁안	-11.3589
▁거물	-11.3591
▁전술	-11.3591
▁군의	-11.3592
▁파악하	-11.3592
▁끝내고	-11.3593
ld	-11.3593
▁di	-11.3594
▁되면서	-11.3595
롭게	-11.3595
▁맺었다	-11.3595
▁아랍어	-11.3599
MA	-11.3604
▁만족한다	-11.3606
▁동해	-11.3607
▁불과했다	-11.3611
▁조사는	-11.3611
주기	-11.3615
▁전통적으로	-11.3617
▁외교관들	-11.3619
▁일반인들	-11.3621
▁차지할	-11.3622
▁방위	-11.3626
▁교도	-11.3627
▁워싱턴에	-11.3627
ence	-11.3628
▁이용자들	-11.3628
▁이동했다	-11.3628
▁경쟁에서	-11.3631
아웃	-11.3632
죄	-11.3635
▁Di	-11.3635
▁피로	-11.3636
코트	-11.3642
GB	-11.3643
▁수습	-11.3643
▁여객기에	-11.3644
간다	-11.3644
▁이견	-11.3645
▁열리고	-11.3647
▁충고	-11.3648
험	-11.3663
▁로한이	-11.3665
▁시대에	-11.3667
NA	-11.3673
into	-11.3674
▁전임	-11.3677
▁결정될	-11.368
장소	-11.3682
셨	-11.3683
물질	-11.3688
▁등장하	-11.369
▁빚어	-11.3692
▁앤더슨은	-11.3695
▁표기	-11.3696
▁해치	-11.3697
▁관대	-11.37
▁발사했다	-11.3702
▁들어가기	-11.3705
▁고정	-11.3708
▁마르코	-11.371
▁공격하기	-11.3712
▁Wi	-11.3714
▁극적	-11.3715
▁마이크로	-11.3716
▁참가국들	-11.3718
▁고집	-11.372
▁반군에	-11.3726
▁지지율로	-11.3732
▁파괴된	-11.3733
촉	-11.3738
▁플로	-11.3741
즐	-11.3743
▁공직	-11.3744
오픈	-11.3744
사실	-11.3746
▁메가	-11.3751
▁합의안	-11.3751
▁중재자	-11.3752
▁실려	-11.3755
여행	-11.3756
머스	-11.3762
▁클럽에서	-11.3763
증권	-11.3763
▁하에서	-11.3768
▁특파원이	-11.377
▁난자	-11.3771
▁수퍼대의원	-11.3775
더미	-11.3776
▁지원한	-11.3776
나마	-11.3777
▁대학생들	-11.3781
마른	-11.3783
학자인	-11.3784
▁통과한	-11.3785
문서	-11.3785
▁노력으로	-11.379
▁시스템에	-11.3791
▁내용이다	-11.3798
▁지점에	-11.3803
▁판매하는	-11.3804
안이	-11.3807
▁이외	-11.3814
킨스	-11.3815
▁이라크로	-11.3815
ni	-11.3815
▁명명	-11.3818
▁의원들과	-11.382
중국	-11.3822
▁증가시키	-11.3828
▁장례식에	-11.383
ress	-11.3842
▁미국내	-11.3842
▁Po	-11.3844
▁교착상태	-11.3845
해졌	-11.3845
▁CO	-11.3848
▁or	-11.3852
▁치르는	-11.3853
▁정상에	-11.3855
▁인정하고	-11.3858
▁만대	-11.3865
▁곳곳	-11.3865
emb	-11.3866
▁고전	-11.387
▁미군에	-11.3872
▁램	-11.3872
▁쓰이	-11.3874
▁들어갔	-11.3875
▁비전	-11.3878
▁나갔	-11.3878
▁경의	-11.388
▁게임에	-11.388
▁겪었	-11.3887
▁토로	-11.3889
▁저널	-11.3894
▁강화하기	-11.3896
▁So	-11.3897
게임	-11.3904
▁매케인과	-11.3908
▁도달했다	-11.3911
럭	-11.3918
▁테네시	-11.3919
롯	-11.3924
▁간다	-11.3926
▁풀려	-11.3927
▁페트로	-11.3928
▁냉전	-11.3928
셜	-11.3928
▁England	-11.3928
▁그린스펀	-11.3928
▁낙하산	-11.3928
▁농산물	-11.3928
▁대량살상무기	-11.3928
▁디얄라	-11.3928
▁라우터바흐	-11.3928
▁롱고리아	-11.3928
▁부정부패	-11.3928
▁선거캠페인	-11.3928
▁슈나이더	-11.3928
▁앨라배마	-11.3928
▁언색호	-11.3928
▁오차범위	-11.3928
▁지구온난화	-11.3928
▁카메론	-11.3928
▁급상승	-11.3928
▁테헤란	-11.3928
▁올랜도	-11.3928
▁유시프	-11.3928
▁저녁식사	-11.3928
▁퇴역	-11.3928
▁클레이코트	-11.3928
▁may	-11.3928
▁정부청사	-11.3928
▁퇴치	-11.3928
▁리더십	-11.3928
▁괴롭	-11.3928
▁황교수	-11.3928
▁졸릭	-11.3928
▁사냥꾼	-11.3928
▁떠오르	-11.3928
▁검열	-11.3928
▁싱글	-11.3929
▁자살폭탄	-11.3929
▁get	-11.3929
▁검시관	-11.3929
▁아르빌	-11.3929
▁줄어든	-11.393
▁호킨스	-11.393
▁안젤리	-11.393
▁불쾌감	-11.393
▁무엇인가	-11.393
▁우편	-11.393
▁토끼	-11.393
▁동맹관계	-11.393
▁반도체	-11.393
▁그린랜드	-11.393
▁자본주의	-11.393
▁def	-11.393
▁친밀	-11.3931
▁선거일	-11.3932
▁부상당했다	-11.3932
▁보도자료	-11.3932
▁발송	-11.3932
▁아바타	-11.3932
▁기념품	-11.3932
▁평등	-11.3932
▁재능	-11.3932
▁증산	-11.3933
▁교역	-11.3933
▁학자들	-11.3933
▁불경기	-11.3933
▁증오	-11.3933
▁자유로운	-11.3933
▁납부	-11.3934
▁친절	-11.3934
▁늘어난	-11.3934
▁내다봤	-11.3934
▁팔렸다	-11.3935
▁샤론	-11.3935
▁살짜리	-11.3936
▁서열	-11.3936
▁주머니	-11.3936
▁악명	-11.3936
▁회색	-11.3936
▁교차	-11.3936
▁탈세	-11.3937
▁Air	-11.3937
▁섬유	-11.3938
▁선거자금	-11.3938
▁잔디	-11.3938
▁한국전쟁	-11.3938
▁출간	-11.3938
▁추모식	-11.3938
▁누설	-11.3939
▁오만	-11.3939
▁베스트	-11.394
▁라틴	-11.394
▁미시간주	-11.3941
▁인천	-11.3941
▁총살	-11.3941
▁지난밤	-11.3941
▁동요	-11.3942
▁린다	-11.3942
▁호위	-11.3943
▁베이비	-11.3943
▁죄수	-11.3943
▁십만	-11.3943
▁상표	-11.3943
▁시몬	-11.3944
▁없음	-11.3944
▁온실	-11.3945
▁울리	-11.3946
▁태어났다	-11.3948
▁신설	-11.3949
▁점에서	-11.3949
▁생선	-11.3949
▁스파이스	-11.395
▁들어보	-11.395
▁충돌했다	-11.395
▁참수	-11.3951
▁정유	-11.3954
▁탈당	-11.3954
▁노벨상	-11.3954
▁타운	-11.3956
▁진정시키	-11.3956
▁끌어들이	-11.3956
▁양호	-11.3958
▁피터슨	-11.3959
런스	-11.3959
▁루디	-11.3959
ZA	-11.396
▁유타	-11.3961
▁본즈	-11.3962
▁어미	-11.3963
▁제조회사	-11.3963
▁물리적	-11.3963
▁전문의	-11.3964
▁국토안보부	-11.3966
▁프로그램과	-11.3966
▁받았습니다	-11.3967
▁진상	-11.3971
▁모였다	-11.3972
▁놀이	-11.3972
▁단일	-11.3972
▁연예	-11.3972
▁총리로	-11.3973
▁비행선	-11.3974
▁피우	-11.3975
▁설립자	-11.3976
단계	-11.3978
▁보호소	-11.3979
▁자루	-11.3979
▁못하면	-11.398
▁졸	-11.3982
▁경상	-11.3983
센터에서	-11.3984
▁막는	-11.3984
▁주정부	-11.3984
▁허용하는	-11.3986
▁의사당	-11.3989
▁끝나지	-11.3989
▁중국정부	-11.3989
▁이민법	-11.399
▁만들어내	-11.3991
▁경유	-11.3991
▁아카	-11.3991
▁기여	-11.3994
벨리	-11.3995
▁들어서	-11.3996
파인	-11.3997
▁되려	-11.3998
▁작품상	-11.3998
▁주둔군	-11.4
▁신성	-11.4
▁파업이	-11.4001
form	-11.4002
▁토로했다	-11.4003
▁기대된다	-11.4004
▁활	-11.4004
▁성능	-11.4005
▁서쪽으로	-11.4007
▁나아	-11.4009
▁제기되	-11.401
▁외계인	-11.4011
▁불거	-11.4012
▁한가지	-11.4013
▁내리지	-11.4017
▁밝혀지	-11.4017
▁샤프	-11.4018
▁적군	-11.4018
▁실종됐다고	-11.4018
NU	-11.4023
▁효과적인	-11.4027
▁줄었다	-11.403
▁의미하는	-11.4034
▁대신해	-11.4036
▁통과할	-11.4037
rd	-11.4038
▁돌아가는	-11.404
▁무서	-11.404
▁알려졌	-11.4041
▁의원과	-11.4042
▁격려	-11.4042
▁서부지역	-11.4043
▁이라크인들	-11.4043
▁작전에	-11.4043
▁Com	-11.4046
길에	-11.4047
여금	-11.4048
▁말했었다	-11.4053
▁근거지	-11.4054
▁해준다	-11.4054
▁팔레스타인과	-11.4063
▁외곽에서	-11.4064
▁생각된다	-11.4067
▁살상	-11.4072
▁항해	-11.4074
▁맞지	-11.4075
▁지불할	-11.4076
▁금지된	-11.4077
▁해결하는	-11.4082
것이	-11.4089
▁치료제	-11.4093
마저	-11.4101
▁관여하	-11.4103
▁요구해	-11.4104
▁수만	-11.4105
▁결승전에	-11.4105
▁KT	-11.4107
▁로즈	-11.4116
▁all	-11.4116
▁정국	-11.4117
▁연인	-11.4119
▁식당에서	-11.4121
마드	-11.4121
났	-11.4123
▁실시됐다	-11.4127
▁증거로	-11.4128
▁시선	-11.4128
▁공급받	-11.4129
▁되어야	-11.4133
▁건물들	-11.4133
▁일종	-11.4134
▁가사	-11.4137
▁설립한	-11.4139
▁아나	-11.414
▁공해	-11.4141
▁바비	-11.4148
라트	-11.415
▁멘	-11.4153
our	-11.4156
▁투자가들	-11.4164
▁마련된	-11.4167
▁년대에	-11.417
▁제품들	-11.417
팀이	-11.4171
▁전경	-11.4171
켜	-11.4172
▁사고에	-11.4175
▁국내에서	-11.4177
▁일이었다	-11.4177
▁행위로	-11.4185
▁작년에	-11.4186
▁장소에	-11.4187
사이드	-11.4188
▁시작한다	-11.4189
바니	-11.4191
괴	-11.4192
러운	-11.4192
▁수행했다	-11.4193
재단	-11.4193
톱	-11.4195
▁박물관에	-11.4196
팬	-11.4198
보좌관	-11.4199
head	-11.4199
혁명	-11.42
번호	-11.4205
퍼스	-11.4208
▁주도하고	-11.4213
지점	-11.4214
▁작고	-11.4215
▁아파트에서	-11.4216
▁보도된	-11.4218
▁브레	-11.4221
▁적지	-11.4226
략	-11.4227
마이어	-11.4229
▁수행한	-11.4232
▁배달	-11.4233
▁다스	-11.4234
▁파기	-11.4234
▁fe	-11.4238
워크	-11.4241
스트라	-11.4243
▁지배하	-11.4248
범죄	-11.425
▁검찰에	-11.4252
▁오르는	-11.4257
글리	-11.4264
▁요인이	-11.4265
지스	-11.427
▁여진	-11.427
▁성공할	-11.427
▁정말로	-11.428
화물	-11.428
예프	-11.4281
▁바그다드에	-11.4283
▁발표에	-11.4286
▁나비	-11.4288
▁영화화	-11.4292
정권	-11.4292
▁후송	-11.4294
▁지어	-11.4297
▁결함이	-11.4298
▁Un	-11.4301
▁카라치	-11.4302
▁간부들	-11.4302
▁진출에	-11.4305
별로	-11.4306
▁연기됐다	-11.4306
▁Do	-11.4307
▁랜드	-11.4308
▁내야	-11.4311
▁대조	-11.4314
▁선포한	-11.4315
▁최근까지	-11.4318
▁모여들	-11.4321
tive	-11.4323
▁떠났	-11.4325
▁하스	-11.433
DM	-11.4333
▁Dis	-11.4341
mp	-11.4345
▁도착해	-11.4346
▁일본군	-11.4347
▁선박들	-11.4348
▁너	-11.435
▁닉	-11.435
▁압도적	-11.435
▁중단된	-11.4354
▁운전자들	-11.4358
▁피의자	-11.4361
▁수행하는	-11.4364
ease	-11.4365
▁위반했다	-11.4366
▁산업이	-11.4366
▁우주비행	-11.4368
▁구조됐다	-11.4369
▁효과적	-11.437
▁중태라	-11.437
▁우려하는	-11.4373
▁파견했다	-11.4373
▁휩싸	-11.4375
▁낙찰	-11.4377
므	-11.4378
탔	-11.4381
▁시민이	-11.4381
▁총기난사	-11.4382
▁공항으로	-11.4382
▁땅콩	-11.4382
넥	-11.4382
헴	-11.4382
▁Australia	-11.4382
▁GPS	-11.4382
▁HSBC	-11.4382
▁가라앉	-11.4382
▁국제사면위원회	-11.4382
▁김경준	-11.4382
▁돈세탁	-11.4382
▁몰디브	-11.4382
▁베스트셀러	-11.4382
▁손해배상	-11.4382
▁아라파트	-11.4382
▁아이슬란드	-11.4382
▁애널리스트	-11.4382
▁우비넨	-11.4382
▁자이언트	-11.4382
▁전화통화	-11.4382
▁찍었다	-11.4382
▁콘텐트	-11.4382
▁페르난데스	-11.4382
▁폭넓	-11.4382
▁푸에르토리코	-11.4382
▁해리왕자	-11.4382
밭	-11.4382
▁가금류	-11.4382
▁가석방	-11.4382
▁갱신	-11.4382
▁무중력	-11.4382
▁자부심	-11.4382
▁황박사	-11.4382
▁마스터스	-11.4382
▁발레리	-11.4382
▁오페라	-11.4382
▁획기적	-11.4382
▁프리킥	-11.4382
ough	-11.4382
▁진원지	-11.4383
▁president	-11.4383
▁Wild	-11.4383
▁후쿠다	-11.4383
▁놀랍	-11.4383
▁플레이오프	-11.4383
▁라시드	-11.4383
▁남서쪽	-11.4383
▁브라더스	-11.4383
▁딜리	-11.4383
▁강아지	-11.4383
▁프레슬리	-11.4383
TON	-11.4383
▁설문조사	-11.4383
▁선제골	-11.4383
▁아이팟	-11.4383
▁왕궁	-11.4383
▁공동성명	-11.4383
▁화폐	-11.4383
▁make	-11.4383
▁다툼	-11.4384
▁푸켓	-11.4384
▁삼성그룹	-11.4384
▁포옹	-11.4384
▁이틀째	-11.4384
▁탑재	-11.4384
▁call	-11.4384
▁지방선거	-11.4384
▁침실	-11.4384
▁인디언	-11.4384
▁메이저	-11.4384
▁기부금	-11.4385
▁물러난	-11.4385
▁프라임	-11.4385
▁투항	-11.4385
▁기차역	-11.4385
▁미술관	-11.4385
▁지저스	-11.4386
▁보건당국	-11.4386
▁웃음	-11.4386
▁우익	-11.4387
▁단축	-11.4387
▁않으려	-11.4387
▁맞춘	-11.4387
▁터너	-11.4388
▁감각	-11.4388
▁헌터	-11.4388
▁다룰	-11.4388
▁해산물	-11.4388
▁빈번	-11.4388
▁무패	-11.4389
▁정교회	-11.4389
book	-11.4389
▁데이브	-11.439
▁선진국	-11.439
▁직위	-11.439
▁동등	-11.439
▁SG	-11.439
▁왕위	-11.4391
▁교정	-11.4391
▁시께	-11.4391
▁대기권	-11.4391
▁북경	-11.4392
▁방위군	-11.4392
▁변형	-11.4392
▁선언문	-11.4393
▁디에고	-11.4393
▁프로디	-11.4393
▁공범	-11.4393
▁복부	-11.4393
▁공표	-11.4393
▁사이먼	-11.4393
▁동부에	-11.4393
▁나이키	-11.4394
▁국토	-11.4395
▁랜	-11.4395
▁콜린스	-11.4398
▁연정	-11.4399
▁판명	-11.4401
▁서버	-11.4401
▁파워	-11.4401
▁능력이	-11.4402
▁영아	-11.4402
▁린치	-11.4404
▁나온다	-11.4404
▁보리스	-11.4404
▁솜	-11.4405
▁펴	-11.4405
▁골든	-11.4405
▁조각상	-11.4405
▁콜로라도주	-11.4405
▁선동	-11.4406
▁비정부	-11.4407
▁호박	-11.4409
▁레노	-11.441
▁시합	-11.4411
▁역전	-11.4411
▁결성	-11.4411
▁실바	-11.4412
▁좋았다	-11.4412
▁딴	-11.4413
▁채무	-11.4413
▁풀어주	-11.4414
▁폐허	-11.4414
▁세르	-11.4415
▁리터	-11.4416
▁툴	-11.4416
▁하위	-11.4418
▁조직원들	-11.4419
▁선제	-11.442
▁종전	-11.442
▁주립	-11.4421
▁포도	-11.4422
▁제작진	-11.4422
▁상임	-11.4422
▁근본주의	-11.4423
▁장관급	-11.4423
마라	-11.4426
▁설치한	-11.4427
▁내려오	-11.4428
▁주차장에서	-11.4429
▁게시	-11.443
▁저명	-11.4431
슬러	-11.4433
▁연어	-11.4433
▁주입	-11.4436
▁감독과	-11.4436
적이지	-11.4437
▁승려	-11.4437
링턴	-11.444
▁잔인	-11.4441
▁주식시장이	-11.4441
대상	-11.4442
▁돌아간	-11.4442
▁FA	-11.4443
교수	-11.4445
▁싶어하	-11.4446
▁정부기관	-11.4446
단체인	-11.4446
▁배에	-11.4446
블리	-11.4446
▁비중	-11.4447
▁목표물	-11.4448
▁보험사	-11.4449
▁결정한	-11.4449
▁곳곳에서	-11.445
▁접어들	-11.4452
부장	-11.4453
▁본부장	-11.4455
▁영해	-11.4456
▁겁	-11.4457
▁다루는	-11.4458
▁친구인	-11.4459
▁쓰지	-11.446
▁의류	-11.446
▁그럴	-11.446
▁비공식	-11.4461
▁서울시장	-11.4465
▁소행	-11.4468
조건	-11.4469
▁순간에	-11.4469
▁남부지역에서	-11.4471
▁시사했다	-11.4471
▁템	-11.4472
▁매케인에	-11.4474
▁재료	-11.4476
ite	-11.4477
▁발표하면서	-11.4478
▁경제학자	-11.4481
▁아크	-11.4482
▁주목할	-11.4482
▁병이	-11.4483
▁후속	-11.4485
▁하퍼	-11.4487
▁낮게	-11.4488
▁버스에	-11.4491
▁움직이는	-11.4491
▁한국계	-11.4492
▁기르	-11.4492
▁확인하지	-11.4494
▁자란	-11.4494
▁영화들	-11.4494
▁배상	-11.4497
▁하사	-11.4498
▁인터넷에서	-11.4499
▁경호원들	-11.4504
▁간호사	-11.4505
▁갇혀있	-11.4507
▁관여한	-11.4507
허가	-11.4508
▁타이거	-11.4509
▁우주로	-11.451
▁일부분	-11.4511
▁일삼	-11.4512
▁젠	-11.4519
▁가계	-11.452
▁노력했다	-11.4526
▁위크	-11.4527
▁이유에	-11.4529
▁유럽에	-11.4532
CA	-11.4534
▁Tr	-11.4537
▁희생자들이	-11.4544
▁생각할	-11.4545
▁투자가	-11.4547
▁숨지	-11.4551
▁사건에서	-11.4553
▁이스트	-11.4554
▁설립된	-11.4556
해줬다	-11.4559
▁무장세력들	-11.456
▁교통부	-11.4563
▁류	-11.4564
ung	-11.4568
▁담겨	-11.457
▁바람에	-11.4571
▁토론회에서	-11.4571
▁알바	-11.4577
▁프로젝트에	-11.4579
▁완화하기	-11.4585
▁단계적	-11.4585
▁신자	-11.4585
▁계속됐다	-11.4586
▁이용자	-11.4589
▁사항이	-11.4593
티아	-11.4597
ck	-11.4602
▁여성으로	-11.4605
other	-11.4608
▁팔리	-11.4617
▁결정하기	-11.4621
과학	-11.4622
▁압수했다	-11.4625
▁법에	-11.464
대통령	-11.4643
▁개들	-11.465
▁목록에	-11.4652
시에	-11.4653
▁파키스탄과	-11.466
특	-11.4661
▁가정에서	-11.4663
▁폭락했다	-11.4663
mb	-11.4665
▁신체적	-11.4666
▁아프리카에서	-11.4667
▁진도	-11.4667
▁한국측	-11.4668
딕	-11.4668
풀	-11.467
물리학	-11.4671
끄	-11.4671
▁한반도에	-11.4671
▁드리	-11.4672
배우	-11.4675
책임자	-11.4675
밴드	-11.4675
투쟁	-11.4675
분쟁	-11.4677
▁베이징에	-11.4678
ism	-11.4683
리코	-11.4686
▁이혼했다	-11.4688
모양	-11.469
요금	-11.469
웠던	-11.4695
▁지아	-11.4699
체계	-11.47
방안	-11.4701
하기위해	-11.4702
▁지명에	-11.4707
ey	-11.4708
▁지원했다	-11.4709
▁그곳	-11.4711
▁앉아있	-11.472
됐기	-11.472
▁돼있다	-11.4721
▁작가들	-11.4723
io	-11.4725
▁뒤지	-11.4728
▁방송이	-11.4733
▁홍콩에서	-11.4742
실적	-11.4744
▁블리	-11.4745
▁aid	-11.4745
리야	-11.4751
▁레바논에서	-11.4751
바인	-11.4753
▁내부에	-11.4753
▁시점에	-11.4754
▁집회에서	-11.4758
▁부분에	-11.4759
▁차지했	-11.476
스러워	-11.4763
▁여인	-11.4766
▁캘리포니아에서	-11.4771
▁잡혀	-11.4777
▁소방대원	-11.4778
▁중단시키	-11.4779
학자들	-11.478
▁근본	-11.4781
▁지방에	-11.4786
▁고리	-11.4787
▁선정했다	-11.479
▁방문하고	-11.4797
▁해결에	-11.48
▁돌아왔	-11.4802
▁친구와	-11.4803
▁항의했다	-11.4804
▁미얀마에서	-11.4807
▁일조	-11.4807
▁실종됐다	-11.4807
▁치열	-11.4807
▁찾았	-11.4808
▁이행하	-11.481
▁느껴	-11.4812
▁젊은이들이	-11.4813
▁로이	-11.4814
▁불행	-11.482
▁실험에	-11.482
민들	-11.4821
케르	-11.4822
▁유대인들	-11.4822
▁대표와	-11.4831
▁방안에	-11.4832
▁주장했	-11.4838
▁반군들	-11.4843
▁사람으로	-11.4847
▁촉구하고	-11.4847
▁미네소타	-11.4849
끔	-11.485
▁중력	-11.485
▁미주리	-11.4852
▁올림픽에	-11.4852
dom	-11.4853
리트	-11.4853
흥	-11.4854
▁있을까	-11.4855
셋	-11.4857
▁더미	-11.4858
▁얼룩	-11.4858
벡	-11.4859
윙	-11.4859
world	-11.4859
▁NYMEX	-11.4859
▁Russia	-11.4859
▁minister	-11.4859
▁가로질러	-11.4859
▁그랜드슬램	-11.4859
▁라스무센	-11.4859
▁레드삭스	-11.4859
▁매릴랜드	-11.4859
▁믿음	-11.4859
▁믿지	-11.4859
▁불필요	-11.4859
▁비아그라	-11.4859
▁빈라덴	-11.4859
▁생태계	-11.4859
▁소렌스탐	-11.4859
▁스콜세지	-11.4859
▁스탤론	-11.4859
▁식이요법	-11.4859
▁신용경색	-11.4859
▁싫어하	-11.4859
▁얼어붙	-11.4859
▁와지리스탄	-11.4859
▁유네스코	-11.4859
▁잃게	-11.4859
▁제너럴	-11.4859
▁주미대사	-11.4859
▁질렀다	-11.4859
▁코네티컷	-11.4859
▁투탕카멘	-11.4859
▁펌프	-11.4859
▁포틀랜드	-11.4859
덟	-11.4859
▁ECB	-11.4859
▁아메드	-11.4859
▁알자지라	-11.4859
▁국가정보원	-11.4859
▁만델라	-11.4859
▁고마움	-11.4859
▁로드맵	-11.4859
▁차세대	-11.4859
▁Thi	-11.4859
▁헝가리	-11.4859
▁가이트너	-11.4859
▁텔레콤	-11.4859
▁남동쪽	-11.4859
▁밀리밴드	-11.4859
▁핑크	-11.4859
▁본거지	-11.4859
▁death	-11.4859
▁파이프라인	-11.4859
▁이뤄져야	-11.4859
▁아로요	-11.4859
ASH	-11.4859
▁외딴	-11.4859
▁익사	-11.4859
▁거세지	-11.4859
▁FAA	-11.4859
용품	-11.4859
▁블레이크	-11.4859
▁납북	-11.4859
▁law	-11.4859
▁삭스	-11.4859
▁버클리	-11.4859
life	-11.486
▁WTI	-11.486
▁몬테	-11.486
▁불러일으키	-11.486
▁창고	-11.486
▁완승	-11.486
▁투옥	-11.486
▁재처리	-11.4861
▁우호적	-11.4861
▁JP	-11.4861
▁음란물	-11.4861
▁점유율	-11.4862
▁보험금	-11.4862
▁청색	-11.4862
▁철강	-11.4862
▁he	-11.4863
▁나이로비	-11.4863
▁정황	-11.4863
▁로얄	-11.4863
▁증권거래소	-11.4863
▁러브	-11.4863
▁진열	-11.4863
▁사절단	-11.4863
▁정확하게	-11.4864
▁봅	-11.4864
▁함정	-11.4864
▁위안화	-11.4865
▁잠재력	-11.4865
▁교실	-11.4865
▁석탄	-11.4865
▁그래함	-11.4865
▁노출되	-11.4865
▁바이든	-11.4865
▁버려진	-11.4866
▁사촌	-11.4866
▁은폐	-11.4866
▁투병	-11.4866
▁절단	-11.4867
▁붙였다	-11.4867
▁유머	-11.4867
▁화물선	-11.4868
▁첫째	-11.4868
▁전인대	-11.4868
▁일정에	-11.4868
▁있느냐	-11.4869
▁유언	-11.4869
▁세웠	-11.4869
▁진심	-11.4869
▁사탕	-11.4869
▁긴장감	-11.487
▁노엘	-11.487
평가	-11.487
▁통역	-11.487
▁위헌	-11.4871
▁앞서있다	-11.4873
▁육상	-11.4874
▁파타당	-11.4874
▁인준	-11.4874
▁마샤	-11.4876
▁엔화	-11.4876
▁대통령궁	-11.4877
▁판결문	-11.4878
▁시청률	-11.488
▁드문	-11.488
▁생활에	-11.488
▁매력적	-11.488
▁우주복	-11.488
▁손님들	-11.4881
▁육성	-11.4882
▁정당화	-11.4883
▁쿠즈	-11.4883
▁달렸다	-11.4883
▁자체적으로	-11.4884
▁투하	-11.4884
▁줄리아	-11.4885
▁분배	-11.4886
▁집이	-11.4887
▁치우	-11.4887
▁금융계	-11.4888
▁예보	-11.4889
▁공공장소에서	-11.4889
▁차에	-11.489
▁장애물	-11.489
▁들어있	-11.4891
▁루즈	-11.4892
▁연맹	-11.4892
▁대열	-11.4892
▁감행한	-11.4893
▁높았다	-11.4893
▁leader	-11.4893
▁금주	-11.4897
▁내달	-11.4899
▁팔아	-11.49
▁합법적으로	-11.49
▁발명	-11.4901
▁취업	-11.4902
▁치아	-11.4902
▁전념	-11.4903
▁치료법	-11.4904
▁테러범이	-11.4905
▁금연법	-11.4907
▁서울대	-11.491
▁펜실베이니아주	-11.4911
▁들어왔다	-11.4911
▁동상	-11.4915
▁가이드	-11.4917
▁크라우	-11.4918
▁합법적인	-11.4919
▁back	-11.4919
▁기간이	-11.4919
▁들소	-11.4921
▁남부지역	-11.4924
▁교황이	-11.4924
▁인종차별	-11.4925
▁당이	-11.4926
▁샬	-11.4928
▁발표했	-11.4931
▁국가와	-11.4932
▁수영장	-11.4933
▁납치범	-11.4933
▁이사장	-11.4935
▁몰린	-11.4935
▁국제법	-11.4936
▁사우	-11.4938
▁문어	-11.4938
▁들어주	-11.4939
▁의존하고	-11.4943
▁예상치	-11.4944
▁양곤에서	-11.4944
▁Mon	-11.4944
▁투표소	-11.4949
▁사단	-11.4949
▁출판사	-11.4949
▁견디	-11.4951
▁교착상태에	-11.4951
NP	-11.4953
▁비티	-11.4955
▁확산되	-11.4956
▁측면에서	-11.4958
▁라파	-11.4958
▁움	-11.4959
▁목에	-11.4959
▁Car	-11.4961
▁실질적으로	-11.4963
▁이행할	-11.4964
▁줬	-11.4964
▁우주센터	-11.4966
▁조화	-11.4966
▁전용기	-11.4968
▁주심	-11.4972
▁음와	-11.4979
▁영화관	-11.498
▁생물학적	-11.4982
▁안고	-11.4986
▁혼인	-11.4988
▁경찰관들	-11.4989
▁분리주의자들	-11.499
▁만회	-11.4993
vo	-11.4993
▁여행자	-11.4994
wi	-11.4999
▁심리학	-11.5
▁이슬라마바드에서	-11.5
ship	-11.5003
▁전반에	-11.5005
▁박스	-11.5005
▁토레	-11.5008
▁스텔	-11.5009
▁손상된	-11.5013
now	-11.5015
▁호주군	-11.5015
▁변수	-11.5017
▁떠나지	-11.5017
레시	-11.5019
▁카불에서	-11.5021
▁결혼했다	-11.5021
▁랩	-11.5021
▁등정	-11.5023
▁이끌어내	-11.5023
▁Sun	-11.5024
▁제시할	-11.5025
▁적게	-11.5028
▁자신만	-11.5028
ull	-11.5034
▁고고학자	-11.5034
▁모델로	-11.5036
▁조사팀	-11.5037
▁공화당원들	-11.5041
▁궤도에	-11.5044
cy	-11.5049
▁FC	-11.5051
시민	-11.5052
▁날에	-11.5052
▁전사들	-11.5053
▁지원에	-11.5054
▁작전이	-11.5057
▁충돌해	-11.5066
▁PS	-11.5066
▁친척들	-11.5067
▁측근들	-11.5067
▁대응할	-11.5067
▁서명한	-11.5067
▁경찰관이	-11.5068
▁임명했다	-11.5071
▁발효	-11.5074
▁착용한	-11.5074
내려	-11.5075
▁엔지니어	-11.5076
▁중위	-11.5077
▁등록된	-11.508
머니	-11.508
란다	-11.5081
▁자식	-11.5085
▁컨	-11.5087
▁Gu	-11.5087
▁다치	-11.5091
▁그루	-11.5092
▁가나	-11.5096
▁벨리	-11.5103
▁확보해	-11.5104
▁하우스	-11.5105
▁사고기	-11.5108
▁다운	-11.5111
▁수용소에	-11.5113
훈련	-11.5116
▁결심했다	-11.5117
▁레인	-11.5117
리드	-11.5118
▁명만	-11.512
▁검	-11.5127
▁입히	-11.5128
▁결의안이	-11.5133
닐	-11.514
▁강화된	-11.5142
▁국제적으로	-11.5145
▁나사	-11.5146
▁바라보	-11.5148
▁일반인	-11.515
▁우려해	-11.5155
▁전비	-11.516
▁유전적	-11.5162
▁얀	-11.5163
▁참가국	-11.5164
ls	-11.5167
▁하와	-11.5171
털	-11.5172
▁포기한	-11.5173
탐	-11.5173
핵	-11.5174
▁제조업	-11.5175
▁치명적	-11.5177
금융	-11.5177
음악	-11.5179
▁글로	-11.5181
민족	-11.5181
▁퇴원했다	-11.5188
FC	-11.5188
▁대면	-11.519
▁폭발물이	-11.5191
▁중단됐	-11.5192
▁충족	-11.5192
▁고등	-11.5195
이라크	-11.5198
부족	-11.52
▁철학	-11.5203
▁회복하고	-11.5204
어드	-11.5208
▁맞을	-11.5209
▁Cas	-11.5212
공원	-11.5213
tch	-11.5214
▁관계자와	-11.5214
▁엑스	-11.5215
▁배우자	-11.5219
▁직원과	-11.522
▁확보에	-11.5222
▁악화된	-11.5223
▁과다	-11.5224
있으며	-11.5231
상품	-11.5231
노스	-11.5232
▁올림픽에서	-11.5233
▁과정이	-11.5243
메스	-11.5244
▁노인들	-11.5249
▁합법적	-11.5252
▁마련해	-11.5253
▁무장세력과	-11.5253
▁벌여왔	-11.5258
감시	-11.5261
▁시도하	-11.5262
▁민영	-11.5263
▁걸리는	-11.5266
▁시행되	-11.5266
▁소행이라	-11.5267
▁해법	-11.5272
▁기업체	-11.5273
▁요구한다	-11.5277
▁처했다	-11.5277
▁Prim	-11.528
▁의문이	-11.5281
▁서기	-11.5284
▁공로	-11.5285
▁월말	-11.5289
▁수단으로	-11.5293
▁외계	-11.5293
▁타지	-11.5296
▁공산	-11.5298
▁교회에	-11.5303
▁이뤄졌	-11.5304
▁만나고	-11.5304
▁트럭이	-11.5305
▁스티	-11.5305
▁가혹	-11.5306
파크	-11.5309
▁혈	-11.5318
▁정규	-11.5319
▁팀에	-11.5319
▁중앙정보	-11.532
▁격돌한	-11.532
▁파괴되	-11.532
▁나타냈	-11.532
투자	-11.5322
컷	-11.5322
▁나이로	-11.5325
▁미끄러	-11.5326
▁몰리	-11.5327
▁제의	-11.5327
▁연구자들	-11.533
번에	-11.5333
▁사령관이	-11.5333
▁바다에	-11.5334
▁팔레스타인인	-11.5335
▁태어났	-11.5336
▁조세	-11.534
▁해역	-11.5341
▁밀집	-11.5344
▁혐의와	-11.5346
▁기록됐다	-11.5347
비드	-11.5349
획	-11.5352
▁메모리	-11.5354
▁관리들과	-11.5355
nger	-11.5355
▁뒤따	-11.5355
랙	-11.5358
돔	-11.5358
엽	-11.5358
펀	-11.5359
▁앵커	-11.5359
랫	-11.5359
▁RCTV	-11.5359
▁Service	-11.5359
▁UAE	-11.5359
▁UMP	-11.5359
▁Week	-11.5359
▁peace	-11.5359
▁갖췄다	-11.5359
▁갤러리	-11.5359
▁끊어	-11.5359
▁네그로폰테	-11.5359
▁뉴욕상업거래소	-11.5359
▁뚜렷	-11.5359
▁맞교환	-11.5359
▁매카트니	-11.5359
▁명확한	-11.5359
▁신천옹	-11.5359
▁쌓인	-11.5359
▁쓰러져	-11.5359
▁아흐마디네자드	-11.5359
▁영유권	-11.5359
▁와이오밍	-11.5359
▁즈보나레바	-11.5359
▁초콜릿	-11.5359
▁푸에르타	-11.5359
▁해안경비대	-11.5359
▁햇볕	-11.5359
▁현수막	-11.5359
▁흑자	-11.5359
팍	-11.5359
푼	-11.5359
▁about	-11.5359
▁나이트클럽	-11.5359
▁신생아	-11.5359
▁자민당	-11.5359
▁갱단	-11.5359
▁아폴로	-11.5359
▁홈구장	-11.5359
▁start	-11.5359
▁딜런	-11.5359
▁로날드	-11.5359
▁피해여성	-11.5359
▁agree	-11.5359
▁포츠머스	-11.5359
▁Inter	-11.5359
▁무자비	-11.5359
▁마리화나	-11.5359
▁몰아넣	-11.5359
▁프리츨	-11.5359
▁Work	-11.5359
▁함부르크	-11.5359
▁아이다호	-11.5359
▁Society	-11.5359
▁해들리	-11.5359
▁강원도	-11.5359
▁휴이트	-11.5359
▁발자국	-11.5359
▁게놈	-11.5359
▁마스리	-11.5359
▁흘리	-11.5359
▁룰라	-11.5359
▁독특	-11.5359
▁under	-11.5359
▁연못	-11.5359
▁봉착	-11.5359
▁오스만	-11.5359
▁에어웨이	-11.5359
▁가르시아	-11.5359
▁Franc	-11.536
▁웰스	-11.536
▁눈보라	-11.536
▁출항	-11.536
▁혜성	-11.536
▁GNP	-11.536
▁도미니카	-11.536
▁test	-11.536
▁무하마	-11.536
▁창업자	-11.536
▁순결	-11.536
▁혼잡	-11.5361
▁잡혔다	-11.5361
▁잠비아	-11.5361
▁신분증	-11.5361
▁크로스	-11.5361
▁매도프	-11.5361
▁척추	-11.5361
▁라싸	-11.5361
▁막으려	-11.5361
▁지방법원	-11.5362
▁사무국장	-11.5362
▁제이슨	-11.5362
▁거슬러	-11.5362
▁돌풍	-11.5362
▁내놓았다	-11.5362
▁선고받았다	-11.5363
▁바랍	-11.5363
▁파이프	-11.5364
▁야외	-11.5364
▁참의원	-11.5364
▁묻혀	-11.5364
▁기원전	-11.5364
▁인질극	-11.5364
▁단언	-11.5365
▁떨어졌습니다	-11.5365
▁훔쳐	-11.5365
▁부착	-11.5367
▁인텔	-11.5367
▁법령	-11.5367
▁독립국가	-11.5367
▁해리슨	-11.5368
▁재앙	-11.5368
▁투여	-11.5368
▁악마	-11.5369
▁막았다	-11.5369
▁경색	-11.5369
▁사라질	-11.5369
▁조사결과	-11.5369
▁걸음	-11.537
▁초드리	-11.537
▁비참	-11.537
클라	-11.5371
▁인수위원회	-11.5372
▁복사	-11.5372
▁이용했다	-11.5373
▁조립	-11.5374
▁카이로	-11.5374
▁순수	-11.5375
▁조율	-11.5376
▁공작	-11.5376
▁태세	-11.5376
▁남긴	-11.5377
va	-11.5377
▁다행	-11.538
▁부양	-11.538
▁근본적	-11.538
▁살리기	-11.5381
▁사나	-11.5381
▁승진	-11.5382
▁케이스	-11.5383
▁애정	-11.5383
▁구두	-11.5383
▁번개	-11.5383
▁배역	-11.5384
▁히스	-11.5386
▁편집장	-11.5386
▁가져왔다	-11.5386
▁힐러리경	-11.5387
▁아이오와주	-11.5387
▁별개	-11.5387
▁박차	-11.5388
인당	-11.539
▁심리학자	-11.5392
▁장점	-11.5392
▁부인이	-11.5393
▁멍	-11.5393
▁점심	-11.5393
ks	-11.5393
▁그래픽	-11.5394
▁센트럴	-11.5394
▁따내	-11.5394
▁농부들	-11.5394
▁임상	-11.5395
▁서구	-11.5396
▁통과된	-11.5397
▁정박	-11.5397
▁목성	-11.5398
▁자바	-11.5398
▁기종	-11.5401
▁감수	-11.5402
▁버드	-11.5403
▁예산안	-11.5404
▁레이드	-11.5405
▁구성원	-11.5405
▁Agenc	-11.5406
AB	-11.5408
▁추종자들	-11.5408
▁불명	-11.541
▁미션	-11.541
▁마루	-11.541
▁도피	-11.541
▁동거	-11.5411
▁리우	-11.5412
▁죽였다	-11.5412
▁포즈	-11.5413
▁기술자들	-11.5413
▁동력	-11.5413
▁포크	-11.5415
▁토드	-11.5416
▁없었고	-11.5416
아주	-11.5418
하느냐	-11.5422
▁카디	-11.5422
▁띠	-11.5422
▁캐나다에서	-11.5423
▁참석하는	-11.5423
▁티나	-11.5425
▁중립	-11.5426
▁신선	-11.5428
▁째	-11.5428
▁본인	-11.5429
이상	-11.5429
▁자들	-11.543
▁마시는	-11.5431
▁붕괴되	-11.5432
▁적도	-11.5435
▁따라잡	-11.5436
능력	-11.5439
▁개정된	-11.5439
회장	-11.5441
▁관광객들에게	-11.5441
▁빨라	-11.5444
▁왕국	-11.5445
▁수준에	-11.5446
▁기용	-11.5448
▁끌어내	-11.5449
▁올드	-11.5454
▁대통령으로서	-11.5457
▁기각했다	-11.5459
▁발표되지	-11.5461
▁Ne	-11.5466
▁추락해	-11.5468
▁만연	-11.5469
▁중태	-11.547
▁북해	-11.5471
▁무거	-11.5471
▁이제까지	-11.5472
▁버린	-11.5472
▁당선됐다	-11.5476
▁집어	-11.5477
▁션	-11.548
▁여왕이	-11.5485
▁공격해	-11.5488
▁정해진	-11.5489
▁났	-11.5496
▁연행됐다	-11.5498
▁부분에서	-11.5499
▁본회의	-11.55
▁두번째로	-11.5501
판매	-11.5502
▁마주	-11.5504
▁지나간	-11.5505
▁길게	-11.5506
▁미얀마에	-11.5507
▁지지했다	-11.5507
▁물의	-11.5508
▁슈퍼대의원	-11.5509
▁나타난다	-11.551
▁북한군	-11.5515
arly	-11.5516
▁숨어	-11.5517
▁빌라	-11.5519
▁쓰인	-11.5521
▁석방에	-11.5521
▁주시하	-11.5521
▁잘라	-11.5523
▁신뢰할	-11.5524
스프링스	-11.553
▁몰아내	-11.5533
▁오르기	-11.5534
카트	-11.5536
▁노린	-11.5545
▁이집트에서	-11.555
건설	-11.5551
▁팔레스타인인들	-11.5552
▁연결하	-11.5553
▁시간으로	-11.5554
▁해일	-11.5554
다르	-11.5555
▁잡았	-11.5559
▁du	-11.5562
▁가져가	-11.5563
▁광장에서	-11.5564
▁교사들	-11.5564
▁위협받	-11.5572
▁주석이	-11.5575
비안	-11.5578
▁조차	-11.5586
▁조사관	-11.5587
▁밀리	-11.5594
▁해안가	-11.5596
ash	-11.5598
▁지켜보고	-11.5598
낸다	-11.56
▁결정하지	-11.5611
▁시간만	-11.5612
▁발견해	-11.5613
데릭	-11.5615
▁가야	-11.5615
▁무대에	-11.5623
▁차이나	-11.5623
▁주최한	-11.5625
▁납치됐	-11.5625
▁소녀들	-11.5626
▁경기장에서	-11.5629
워스	-11.5636
봤다	-11.5639
보면	-11.5645
▁월스트리트에서	-11.5648
▁대장	-11.565
줬	-11.5653
▁높이기	-11.5653
▁외곽에	-11.5653
▁여당이	-11.5654
▁아서	-11.5655
▁센터에서	-11.5655
▁제품이	-11.5666
▁이었다	-11.567
▁잃어	-11.5672
▁월터	-11.5672
▁보내지	-11.5682
▁구속했다	-11.5685
내기	-11.5687
▁구속됐다	-11.5688
▁샌프란시스코에서	-11.5691
휘	-11.5692
▁프로그램에서	-11.5693
재판소	-11.5697
사무소	-11.5698
▁운영되	-11.5699
앨	-11.57
▁북한측	-11.5704
브레	-11.5705
▁동의한다	-11.5705
▁Nation	-11.5705
ID	-11.5706
▁운항이	-11.5713
▁상점들	-11.5713
관광	-11.5715
▁나이에	-11.5715
▁생산된	-11.5717
에너지	-11.5719
연방	-11.5722
할때	-11.5723
▁하드	-11.573
ries	-11.5732
▁대상자	-11.5744
▁All	-11.5747
ful	-11.5747
호프	-11.5749
▁효율	-11.5749
uck	-11.5752
▁흐	-11.5753
▁심리적	-11.5756
▁제국	-11.5757
단지	-11.576
▁정신병	-11.5765
▁졌다	-11.5769
▁내부에서	-11.577
SE	-11.5774
▁아사	-11.5775
▁고속도로에서	-11.5777
▁않았다면	-11.5778
▁방문한다	-11.5785
벨라	-11.5786
▁앗아	-11.5786
▁실종됐	-11.5787
▁주도하	-11.5789
▁방에서	-11.5794
▁전제	-11.5797
▁나간	-11.5798
▁조사하는	-11.5805
▁십년	-11.5806
마크	-11.5807
▁모가디슈	-11.5807
전화	-11.581
▁차장	-11.5816
▁하기로	-11.5831
ND	-11.5836
▁들어왔	-11.5837
▁임무에	-11.5837
▁하루만	-11.5842
▁금요일에	-11.5842
▁인체	-11.5842
▁위험하다	-11.5843
▁설립했다	-11.5845
▁업무에	-11.5846
▁해왔	-11.5847
▁절반이	-11.5849
▁시청자	-11.5849
▁회사에서	-11.5853
▁역할에	-11.5859
▁때가	-11.5863
▁아비	-11.5864
▁농부	-11.5865
요원들	-11.5866
▁구사	-11.5868
모리	-11.5868
▁롭	-11.5872
▁protest	-11.5874
븐	-11.5877
▁수개월	-11.5878
▁했는지	-11.5879
칙	-11.588
첩	-11.5881
듬	-11.5883
깃	-11.5883
▁혐오	-11.5883
▁집중적	-11.5884
▁첨단	-11.5885
뮤	-11.5885
▁Corp	-11.5885
▁Islam	-11.5885
▁Science	-11.5885
▁Street	-11.5885
▁USGS	-11.5885
▁White	-11.5885
▁economic	-11.5885
▁foreign	-11.5885
▁official	-11.5885
▁가깝게	-11.5885
▁가솔린	-11.5885
▁꿀벌	-11.5885
▁낳았다	-11.5885
▁니스텔로이	-11.5885
▁동성결혼	-11.5885
▁디스플레이	-11.5885
▁르완다	-11.5885
▁리트비넨코	-11.5885
▁메르세데스	-11.5885
▁미항공우주국	-11.5885
▁박정희	-11.5885
▁방코델타아시아	-11.5885
▁버틀러	-11.5885
▁베를루스코니	-11.5885
▁불매운동	-11.5885
▁성매매	-11.5885
▁심장질환	-11.5885
▁아제르바이잔	-11.5885
▁애틀랜티스호	-11.5885
▁인공위성	-11.5885
▁자르카위	-11.5885
▁정권인수팀	-11.5885
▁조선일보	-11.5885
▁좋겠다	-11.5885
▁키드먼	-11.5885
▁토튼햄	-11.5885
▁팽팽	-11.5885
▁핸드폰	-11.5885
늬	-11.5885
옌	-11.5885
콥	-11.5885
▁니제르	-11.5885
▁순이익	-11.5885
▁스즈키	-11.5885
▁앙카라	-11.5885
▁영사관	-11.5885
▁요하네스버그	-11.5885
▁잠수함	-11.5885
▁재규어	-11.5885
▁합법화	-11.5885
▁밀라노	-11.5885
▁북대서양	-11.5885
▁선거유세	-11.5885
▁나뉘어	-11.5885
▁오사카	-11.5885
▁원자재	-11.5885
▁카펠로	-11.5885
▁비너스	-11.5885
▁사직서	-11.5885
▁징조	-11.5885
▁와일드	-11.5885
▁핀란드	-11.5885
▁막바지	-11.5885
▁셰퍼드	-11.5885
▁좌우	-11.5885
▁관절염	-11.5885
▁대운하	-11.5885
▁사형선고	-11.5885
▁페라로	-11.5885
▁반세기	-11.5885
▁참혹	-11.5885
▁블랙워터	-11.5885
▁반짝이	-11.5885
▁프라이스	-11.5885
▁묵념	-11.5885
▁즐거움	-11.5885
▁노숙자	-11.5885
▁그리핀	-11.5885
▁액션	-11.5886
▁하이킹	-11.5886
▁몸싸움	-11.5886
▁아이튠	-11.5886
▁역전승	-11.5886
▁체첸	-11.5886
▁드라이브	-11.5886
▁파란색	-11.5886
▁빠져나가	-11.5886
▁휘말	-11.5886
▁인내심	-11.5886
▁want	-11.5886
▁번화가	-11.5886
▁그린존	-11.5886
▁Right	-11.5887
▁바오로	-11.5887
▁재건축	-11.5887
▁크리스틴	-11.5887
▁곤경에	-11.5887
▁정회장	-11.5887
▁휴먼	-11.5887
▁형벌	-11.5888
▁파라오	-11.5888
▁소방차	-11.5888
▁불빛	-11.5888
▁노워크	-11.5888
▁가정집	-11.5888
▁오닐	-11.5889
▁꾸미	-11.5889
▁괴물	-11.5889
▁연봉	-11.5889
▁생물체	-11.589
▁환급	-11.589
▁아흐메드	-11.5891
▁뭉	-11.5891
▁같아	-11.5891
▁이송됐으	-11.5891
▁연합통신	-11.5891
▁직무	-11.5891
▁forces	-11.5891
▁어디서	-11.5891
▁마스크	-11.5891
▁라이더	-11.5891
▁난항	-11.5892
▁부국장	-11.5892
▁리틀	-11.5892
▁접종	-11.5892
ious	-11.5893
▁숨져	-11.5893
▁미주리주	-11.5893
▁가져오	-11.5893
▁샤리아	-11.5893
시킴	-11.5894
▁푸미	-11.5894
▁드러나	-11.5894
▁놓인	-11.5894
▁표범	-11.5894
▁기다렸다	-11.5895
▁카누	-11.5895
▁우표	-11.5895
▁제약회사	-11.5895
▁티모	-11.5895
▁친분	-11.5895
▁꼬리	-11.5895
▁과거사	-11.5896
▁사귀	-11.5896
▁도착하자	-11.5896
▁난처	-11.5897
▁비틀	-11.5897
▁미시건주	-11.5897
▁반란군	-11.5897
▁속출	-11.5897
메모리얼	-11.5898
▁휘트	-11.5899
▁사과문	-11.5899
▁유타주	-11.59
▁경감	-11.5901
▁연구하는	-11.5901
바드	-11.5901
▁백만명	-11.5901
▁루이지애나주	-11.5903
▁카렌	-11.5903
▁그레이스	-11.5903
▁사립	-11.5904
▁만들어졌다	-11.5904
▁각료회의	-11.5905
▁실감	-11.5905
▁테디	-11.5906
▁구제금융안	-11.5906
▁생길	-11.5906
▁그런데	-11.5906
▁김영	-11.5907
▁애리조나주	-11.5907
▁며칠간	-11.5908
뒀다	-11.5909
▁기준에	-11.5909
▁넘겼다	-11.5909
▁매설	-11.591
DA	-11.591
▁벤치	-11.591
▁회복세	-11.5915
▁표정	-11.5915
▁원주민들	-11.5916
▁해커	-11.5917
▁외신	-11.5918
▁형량	-11.5918
▁Man	-11.5918
▁치타	-11.5919
▁거행	-11.5921
▁들려	-11.5921
▁들렸다	-11.5925
▁문명	-11.5925
▁들어있다	-11.5926
▁해외로	-11.5926
▁확정된	-11.5929
▁민족주의	-11.5929
▁반경	-11.5934
▁주장했었다	-11.5934
▁돌진	-11.5935
▁연관성	-11.5936
▁날려	-11.5936
▁총력	-11.5936
▁손길	-11.5936
▁소원	-11.5937
iz	-11.5937
▁Se	-11.5938
▁이빨	-11.5939
▁쉴	-11.5939
▁않았기	-11.594
▁찔	-11.5942
▁카카	-11.5942
▁반응이	-11.5943
▁책상	-11.5944
▁인내	-11.5945
▁은신	-11.5946
▁쉽다	-11.5947
▁불행한	-11.595
▁퓨	-11.5952
▁수송기	-11.5952
▁보잉사	-11.5952
▁끝나기	-11.5953
▁입원해	-11.5954
▁루트	-11.5954
▁우수	-11.5962
▁나포	-11.5963
▁가담한	-11.5964
▁기념하	-11.5965
변화	-11.5965
▁질병에	-11.5967
▁정보원	-11.5969
▁언론들	-11.5973
▁의약	-11.5974
▁벌인다	-11.5974
▁산책로	-11.5976
▁저하	-11.5976
▁예상한	-11.5977
▁사람들에	-11.5977
▁플로리다에	-11.5978
▁구속력	-11.5978
▁나노	-11.5979
▁개체	-11.5979
▁자질	-11.598
▁복도	-11.5981
▁상징으로	-11.5982
▁통과했다	-11.5982
▁컬	-11.5984
▁공개될	-11.5985
▁놓치	-11.5986
▁한창	-11.5987
▁호전	-11.5989
▁low	-11.5989
▁주행	-11.599
▁국가적	-11.599
제작	-11.5996
▁fund	-11.6
▁모색하고	-11.6003
▁번에	-11.6005
▁힘들었	-11.6006
▁교류	-11.6008
카니	-11.6014
▁국경지역에서	-11.6014
▁다닐	-11.6017
▁천국	-11.6021
▁정서	-11.6022
▁가시	-11.6025
▁이겼다	-11.6026
▁건스	-11.6029
arry	-11.603
▁병장	-11.6034
▁조심	-11.6036
▁단계로	-11.6036
▁시위대에	-11.6044
▁추방된	-11.6047
order	-11.6049
▁국가들에	-11.6054
▁인종적	-11.6056
▁pa	-11.6057
gu	-11.6058
▁지시한	-11.606
IA	-11.6062
AT	-11.6063
▁석유회사	-11.6063
▁법규	-11.6064
▁진압하기	-11.6065
▁청문회에서	-11.6069
▁고독	-11.6069
▁남쪽에	-11.608
▁얼굴에	-11.6083
▁권했다	-11.609
▁클레이	-11.609
uit	-11.6092
rs	-11.6092
▁기업에	-11.6093
▁행복한	-11.6095
▁희생됐다	-11.6096
▁추측이	-11.6101
▁실직자	-11.6104
two	-11.6106
▁조심스럽	-11.611
action	-11.6115
▁분주	-11.6118
▁수단이	-11.6119
▁기기	-11.6123
▁결혼한	-11.6126
ina	-11.6132
▁물건들	-11.6139
▁프린	-11.6145
▁행정부에	-11.6146
곳	-11.615
▁도발적	-11.6152
▁크루	-11.6158
▁시드니에서	-11.6158
▁섭	-11.616
▁목적지	-11.6161
▁자랑하	-11.6165
▁번호	-11.6166
bu	-11.6168
▁증상이	-11.6171
▁참여하고	-11.6172
▁제한하	-11.6175
▁거부할	-11.6175
▁콜로	-11.6176
▁때보다	-11.6183
▁주어진	-11.6184
▁보스	-11.6185
▁이재민들	-11.6186
▁살아있	-11.6189
▁동물원에서	-11.619
▁져야	-11.619
▁부각	-11.6191
orn	-11.6191
타카	-11.6195
가렛	-11.6196
빨	-11.62
▁이르다	-11.6204
come	-11.6204
▁동원됐다	-11.6205
▁자원봉사자들	-11.6205
top	-11.6205
정치	-11.6214
▁이어져	-11.6216
▁위원회에	-11.6216
▁북쪽에	-11.6217
▁임원들	-11.622
▁지지해	-11.6222
▁Ya	-11.6223
▁프로그램들	-11.6228
루드	-11.6231
ft	-11.6232
▁중단되	-11.6233
uk	-11.6234
▁위원회에서	-11.6234
밀리에	-11.6235
밤	-11.6237
▁비난해	-11.6238
▁만들어지	-11.6238
DP	-11.6242
▁사원에	-11.6243
▁현대적	-11.6244
앞	-11.6251
▁국무장관과	-11.6253
랩	-11.6253
붙	-11.6255
턱	-11.6255
시리즈	-11.6257
▁MP	-11.6257
▁후보였	-11.6257
뒤	-11.6257
아갈	-11.6258
▁세상에	-11.626
▁정상회담에	-11.626
진압	-11.6268
워터	-11.6273
tory	-11.6273
▁마티	-11.6277
화씨	-11.628
ition	-11.6286
▁미미	-11.6286
▁롱	-11.6298
▁어기	-11.6301
▁권장	-11.6301
▁명이었다	-11.6301
▁기독교인	-11.6312
▁조사관들	-11.6313
▁사용된다	-11.6314
방식	-11.6318
▁fac	-11.6327
▁차량과	-11.6327
▁제작했다	-11.6329
▁아프간군	-11.633
▁상반	-11.634
▁생겼	-11.6345
▁다해	-11.6346
▁시달리	-11.635
▁별장	-11.635
▁느끼지	-11.6351
▁손실이	-11.6351
▁죽고	-11.6353
▁노출된	-11.6356
▁마드리드에서	-11.6356
철도	-11.6364
ning	-11.6365
▁전차	-11.6368
▁모델이	-11.6368
▁달했다	-11.6371
▁허용했다	-11.6372
바락	-11.6377
▁존재하	-11.638
▁따르지	-11.6383
▁의거	-11.6389
지역으로	-11.6389
▁벌이다	-11.639
▁촉진시키	-11.6391
관리국	-11.6391
▁설명하지	-11.6392
▁단계에서	-11.6396
▁LO	-11.6397
▁좋았	-11.6404
▁이동하	-11.6407
▁훔	-11.6409
▁헌법에	-11.6412
▁독자적	-11.6413
자키	-11.6422
▁덧붙였	-11.6422
▁극단주의	-11.6424
▁계열	-11.6424
ted	-11.6424
▁사진기자	-11.6427
▁역설	-11.6428
심리	-11.6429
▁year	-11.6429
▁바람직	-11.643
EC	-11.6432
▁검문	-11.6433
옹	-11.6437
▁다리에	-11.6437
▁신행정수도	-11.6438
eople	-11.6439
▁살모넬라	-11.644
employ	-11.644
▁EPL	-11.644
▁Health	-11.644
▁ISAF	-11.644
▁Journal	-11.644
▁NHC	-11.644
▁UCI	-11.644
▁claim	-11.644
▁개성공단	-11.644
▁걸림돌	-11.644
▁경기후퇴	-11.644
▁국제올림픽위원회	-11.644
▁금강산	-11.644
▁긱스	-11.644
▁남우주연상	-11.644
▁늦추	-11.644
▁독극물	-11.644
▁라크시미	-11.644
▁상임이사국	-11.644
▁새크라멘토	-11.644
▁샌안토니오	-11.644
▁선거기부금	-11.644
▁세골렌	-11.644
▁아프카니스탄	-11.644
▁악천후	-11.644
▁애슐리	-11.644
▁엑스파일	-11.644
▁여러차례	-11.644
▁옮겼다	-11.644
▁유엔사무총장	-11.644
▁이바노비치	-11.644
▁제퍼슨	-11.644
▁지켰다	-11.644
▁찍힌	-11.644
▁칠면조	-11.644
▁컸다	-11.644
▁쿠즈넷소바	-11.644
▁키티호크	-11.644
▁하드웨어	-11.644
▁홍석현	-11.644
▁화성탐사	-11.644
▁히스패닉	-11.644
쯔	-11.644
캇	-11.644
펙	-11.644
▁High	-11.644
▁깁슨	-11.644
▁뉴잉글랜드	-11.644
▁췌장암	-11.644
▁나타날	-11.6441
▁불공정	-11.6441
▁석유수출	-11.6441
▁추기경	-11.6441
▁희귀	-11.6441
▁깁스	-11.6441
▁대법관	-11.6441
▁승부차기	-11.6441
▁다둘라	-11.6441
▁루카스	-11.6441
▁스프레이	-11.6441
▁하니야	-11.6441
▁회교도	-11.6441
▁무효	-11.6441
▁즐겁	-11.6441
▁어쩔	-11.6441
▁욕구	-11.6441
▁개구리	-11.6441
▁바시르	-11.6441
▁캐롤라인	-11.6441
▁진짜	-11.6441
▁진상조사	-11.6441
ww	-11.6441
▁어렸을	-11.6441
▁교도통신	-11.6441
▁다이앤	-11.6441
▁적혀있	-11.6441
▁글로리아	-11.6441
▁탈퇴	-11.6441
▁게이머	-11.6441
▁바레인	-11.6442
▁즐겨	-11.6442
▁부모님	-11.6442
▁기념행사	-11.6442
▁항구도시	-11.6442
▁밀매	-11.6442
▁궁금	-11.6442
▁출현	-11.6442
▁변호사와	-11.6442
▁부유층	-11.6442
▁진척	-11.6442
▁Park	-11.6442
▁군복무	-11.6442
▁잠자리	-11.6442
▁그만두	-11.6442
▁핵연료	-11.6442
▁쿠폰	-11.6443
▁오래전부터	-11.6443
▁관례	-11.6443
▁쏟아져	-11.6443
▁액체	-11.6444
▁양육	-11.6444
▁어워드	-11.6444
▁잠겨	-11.6444
▁내보냈	-11.6444
▁주어지	-11.6444
▁쿠마르	-11.6444
▁컬럼비아호	-11.6444
▁대위	-11.6444
▁호황	-11.6444
▁디젤	-11.6444
▁들어올	-11.6444
▁어윈	-11.6444
▁빙산	-11.6444
▁소방서	-11.6445
▁평화협정	-11.6445
▁찰리	-11.6445
▁벌어질	-11.6445
▁무척	-11.6445
▁More	-11.6445
▁실망감	-11.6445
▁오디오	-11.6445
▁야채	-11.6446
▁루머	-11.6446
▁이어갔다	-11.6447
▁국제축구연맹	-11.6447
▁항공편	-11.6447
▁오리건주	-11.6447
▁되자	-11.6448
▁카타르	-11.6448
▁attacks	-11.6448
▁에밀리	-11.6448
▁지하실	-11.6448
▁요구사항	-11.6448
▁중동평화회의	-11.6449
▁수익금	-11.645
▁변호인단	-11.645
▁강철	-11.6451
▁충성	-11.6451
▁꺼내	-11.6451
▁누출	-11.6452
▁빅토	-11.6452
▁이뤘	-11.6452
▁집결	-11.6452
▁왕조	-11.6453
▁모여들었다	-11.6453
ack	-11.6453
▁관람객	-11.6454
▁현저	-11.6454
▁말레이시아에서	-11.6454
▁탈선	-11.6454
▁밝혀질	-11.6455
▁표본	-11.6455
▁출산율	-11.6455
▁진동	-11.6455
▁거래되	-11.6455
▁제왕	-11.6455
▁기대감	-11.6456
▁의논	-11.6456
▁궁극적으로	-11.6457
▁굽	-11.6457
▁어류	-11.6458
▁지켜봤다	-11.6458
▁부의장	-11.6458
▁아담스	-11.6459
▁종사하	-11.6459
▁타개	-11.646
▁않을까	-11.646
▁표결에	-11.646
대학교	-11.6461
▁소유즈	-11.6461
▁지었다	-11.6462
▁로렌스	-11.6463
▁드물	-11.6464
▁비스타	-11.6464
▁과속	-11.6464
▁통제권	-11.6465
▁여건	-11.6466
▁과감	-11.6466
▁만평	-11.6466
▁코란	-11.6467
▁정복	-11.6467
▁상태였	-11.6467
▁토티	-11.6469
▁안았다	-11.6469
▁친미	-11.647
▁감당	-11.6471
▁펜실베니아주	-11.6472
▁난관	-11.6472
▁Red	-11.6473
▁조장하	-11.6473
▁망치	-11.6473
▁재계	-11.6476
▁로렌	-11.6476
▁알아야	-11.6476
▁적법	-11.6476
▁주관	-11.6478
▁파이낸셜	-11.6479
▁썩	-11.6479
▁사료	-11.6479
▁King	-11.6479
▁수사팀	-11.6479
▁요청했	-11.6479
▁점유	-11.648
▁분개	-11.648
▁성실	-11.6481
▁가져야	-11.6482
▁준결승전에서	-11.6483
프랑	-11.6484
▁북극해	-11.6486
▁거울	-11.6488
▁되는데	-11.649
▁원형	-11.6492
▁제압	-11.6492
▁옮겨졌다	-11.6493
▁자재	-11.6493
▁불량	-11.6494
▁눈으로	-11.6495
▁urge	-11.6495
▁금지했다	-11.6495
▁부패혐의	-11.6497
ous	-11.6497
▁야드	-11.6498
▁구직	-11.6498
▁스티븐스	-11.6499
▁벗어나기	-11.6499
주간	-11.65
▁운동화	-11.65
▁분리된	-11.65
▁바탕으로	-11.6501
▁변하지	-11.6504
▁세기에	-11.6505
▁리마	-11.6506
▁가혹한	-11.6506
▁레비	-11.6507
▁체스	-11.6507
▁청와대에서	-11.6508
▁통과하	-11.6508
▁기사에	-11.6508
▁지냈다	-11.6508
▁최다	-11.6511
▁확정됐다	-11.6513
▁새우	-11.6515
마트	-11.6516
▁군용	-11.6518
▁한국어	-11.652
자산	-11.6521
▁계획이었다	-11.6522
▁그녀에게	-11.6525
▁음식점	-11.6525
▁유학	-11.6526
▁계약서	-11.6527
▁자국민	-11.653
▁주말까지	-11.653
▁스트리트	-11.6533
▁클라인	-11.6537
▁명씩	-11.6538
▁내역	-11.654
▁반대해	-11.6547
▁카라치에서	-11.6548
▁위권	-11.6554
▁플로리다에서	-11.6555
▁삼바	-11.6555
▁선서	-11.6555
▁사임한	-11.6556
rap	-11.6557
▁지질학	-11.6558
▁선교	-11.6559
▁이탈리아에서	-11.656
▁육지	-11.6563
▁중심부에서	-11.6563
▁트럭에	-11.6564
▁편에	-11.6566
▁축하하기	-11.6567
▁공약으로	-11.6574
▁나빠	-11.6574
적이었다	-11.6576
롤라	-11.6583
▁사령부	-11.6588
▁싼	-11.659
▁바꾸기	-11.659
▁배우들	-11.6592
▁생사	-11.6593
▁자동차회사	-11.6593
▁매도	-11.6595
▁인사들과	-11.66
탈루	-11.66
▁떠나기	-11.6606
▁라드	-11.6607
▁통제하는	-11.6607
▁대미	-11.6613
▁qu	-11.6615
▁가루	-11.6616
DR	-11.6616
▁철회할	-11.6618
▁발표되	-11.6619
▁농장에서	-11.6624
▁불만이	-11.663
▁우주국	-11.6637
ama	-11.6642
▁주식시장에서	-11.6645
▁다양성	-11.6645
사전	-11.6648
▁Sp	-11.6649
▁호스	-11.6659
▁신뢰도	-11.666
▁생산성	-11.6662
▁사라져	-11.6662
▁고생	-11.6664
▁다녀	-11.6673
문제에	-11.6676
▁자백	-11.668
하드	-11.6683
ler	-11.6688
▁부위에	-11.669
▁베니스	-11.6699
▁예루살렘에서	-11.6701
▁생명에	-11.6702
▁살아있다	-11.6704
▁컴	-11.671
▁환경에서	-11.671
▁누구에게	-11.6713
▁중심부에	-11.6717
▁회사측	-11.672
▁뜨	-11.6726
▁허가했다	-11.6728
ino	-11.6732
▁죽음이	-11.6732
▁웬	-11.6732
▁합류했다	-11.6733
▁관중들	-11.6734
▁참석자들	-11.6734
상태에	-11.6737
ther	-11.674
cer	-11.6743
▁팀장	-11.6748
▁개별	-11.6748
▁그외	-11.6749
▁중단해야	-11.6755
▁당사자들	-11.6762
▁협력해	-11.677
▁조상	-11.677
라프	-11.6773
▁혁신적	-11.6776
▁사무실에	-11.6777
▁흔적이	-11.6779
▁통신원	-11.6782
▁일부에서	-11.6783
▁물자	-11.6787
▁학자	-11.6791
▁거점	-11.6793
▁자백했다	-11.6795
▁냈	-11.6795
▁환자에게	-11.6796
▁때에	-11.6796
▁파티에	-11.6798
▁거주자	-11.6799
▁보니	-11.6801
▁텐	-11.6811
▁취하기	-11.6812
▁라만	-11.6813
▁흥분한	-11.6816
원장	-11.6818
바오	-11.6821
▁출연할	-11.6822
ling	-11.6824
amp	-11.6824
▁센터에	-11.6826
▁Go	-11.6827
▁정부측	-11.6829
GA	-11.6833
죽	-11.6833
▁집권한	-11.6834
▁시신들	-11.6835
▁전화기	-11.6836
▁시작된다	-11.6837
▁사회에서	-11.6843
▁존재하지	-11.6844
자동차	-11.6845
랭킹	-11.6845
검찰	-11.6847
lum	-11.6848
▁신자들	-11.6851
▁la	-11.6852
▁부문에	-11.6853
업무	-11.6855
▁제공되	-11.6857
ents	-11.6857
▁당선되	-11.6858
집단	-11.686
누르	-11.6862
▁상황으로	-11.6862
▁화면에	-11.6866
신청	-11.6869
USS	-11.6883
▁감소하고	-11.689
▁보라	-11.6892
시절	-11.6895
▁넘었다	-11.6896
▁적들	-11.6898
중단	-11.69
▁전해진	-11.6902
신원	-11.6903
ving	-11.6908
▁딸들	-11.691
▁발사됐다	-11.6912
▁의대	-11.6917
▁적었다	-11.6921
▁충격적	-11.6921
▁산업에	-11.6927
▁알았	-11.6929
▁루시	-11.6932
▁다나	-11.6938
▁여론조사에	-11.6939
▁경제학	-11.6942
ead	-11.6942
▁대중들	-11.6943
▁다할	-11.6943
▁Pri	-11.6948
▁해변에	-11.6948
▁대항하는	-11.6957
▁유독	-11.6959
ney	-11.696
esearch	-11.6962
운영	-11.6968
▁죽었	-11.6973
▁나토군이	-11.6979
▁분리주의	-11.6979
ness	-11.6981
▁작동되	-11.6992
▁소실	-11.6993
▁메디컬	-11.6997
▁보장하	-11.7003
▁거부하는	-11.7006
▁거래에서	-11.701
▁결정하는	-11.7013
▁압력에	-11.7014
혁	-11.7014
▁미시건	-11.7015
▁주차장	-11.7015
▁브랜	-11.7017
▁준결승	-11.7018
▁국민과	-11.7022
둬	-11.7025
왓	-11.7027
륜	-11.7027
▁힌두	-11.7028
놔	-11.7029
툰	-11.7029
쿼	-11.7029
▁EADS	-11.7029
▁IRNA	-11.7029
▁IWC	-11.7029
▁KBS	-11.7029
▁Thai	-11.7029
▁UNHCR	-11.7029
▁securit	-11.7029
▁strike	-11.7029
▁summit	-11.7029
▁고르바초프	-11.7029
▁공상과학	-11.7029
▁구소련	-11.7029
▁더글라스	-11.7029
▁듣게	-11.7029
▁리우데자네이루	-11.7029
▁먹어	-11.7029
▁멋지	-11.7029
▁메릴린치	-11.7029
▁몰랐다	-11.7029
▁미확인	-11.7029
▁민주노동당	-11.7029
▁바나프샤	-11.7029
▁백과사전	-11.7029
▁볼티모어	-11.7029
▁블래터	-11.7029
▁빈민층	-11.7029
▁샀다	-11.7029
▁서둘러	-11.7029
▁스필버그	-11.7029
▁시에라리온	-11.7029
▁식품의약국	-11.7029
▁아디다스	-11.7029
▁암스테르담	-11.7029
▁여중생	-11.7029
▁예방접종	-11.7029
▁옥스포드	-11.7029
▁위태롭게	-11.7029
▁인신매매	-11.7029
▁재결합	-11.7029
▁정찰위성	-11.7029
▁조류독감	-11.7029
▁좁혀	-11.7029
▁준이치로	-11.7029
▁통합민주당	-11.7029
▁트러스트	-11.7029
▁트리폴리	-11.7029
▁포유류	-11.7029
▁햇빛	-11.7029
▁헐리우드	-11.7029
▁확립	-11.7029
▁흩어져	-11.7029
띤	-11.7029
샨	-11.7029
퐁	-11.7029
▁demand	-11.7029
▁언젠가	-11.7029
▁영업이익	-11.7029
▁자페타	-11.7029
▁정보통신부	-11.7029
▁존엄성	-11.7029
▁항공모함	-11.7029
▁헤드폰	-11.7029
▁마스터즈	-11.7029
▁상무부	-11.7029
▁유동성	-11.7029
텀	-11.7029
▁Face	-11.7029
▁다이어트	-11.7029
▁메이도프	-11.7029
▁에스트라다	-11.7029
▁산체스	-11.7029
▁타디치	-11.7029
▁흥정	-11.7029
▁노던록	-11.7029
▁버나드	-11.7029
▁카펫	-11.7029
▁스틸러스	-11.7029
▁치뤄	-11.7029
▁대성당	-11.7029
▁놀이공원	-11.7029
▁쿼터백	-11.7029
▁버크헤드	-11.7029
▁사진작가	-11.7029
▁강대국	-11.7029
▁고등학생	-11.7029
▁패트로스	-11.7029
▁검정색	-11.7029
▁경수로	-11.7029
▁Polic	-11.7029
▁슬픈	-11.7029
▁낭독	-11.7029
▁북아일랜드	-11.7029
▁트랙	-11.7029
▁고아원	-11.7029
HDA	-11.7029
▁정착촌	-11.7029
▁작가조합	-11.7029
▁국영언론	-11.7029
▁현대자동차	-11.7029
▁출혈	-11.7029
▁당뇨병	-11.7029
▁씨앗	-11.7029
▁도망쳤다	-11.7029
▁체험	-11.703
▁블랙홀	-11.703
▁클릭	-11.703
▁휴전협정	-11.703
▁Union	-11.703
▁식별	-11.703
▁헬렌	-11.703
▁검역	-11.703
▁극도로	-11.703
▁부활절	-11.703
▁People	-11.7031
▁항의시위	-11.7031
▁십자가	-11.7031
▁총파업	-11.7031
▁유대교	-11.7031
▁리옹	-11.7031
▁출처	-11.7031
▁신흥	-11.7031
▁MTV	-11.7031
▁축복	-11.7032
▁계승	-11.7032
▁다저스	-11.7032
▁TSA	-11.7032
▁조세프	-11.7032
▁크랜	-11.7032
▁몰락	-11.7032
▁차량에서	-11.7032
▁무효화	-11.7032
▁플루	-11.7033
▁hit	-11.7033
▁절망	-11.7033
▁탄원서	-11.7033
▁연립	-11.7033
▁무장조직	-11.7033
▁살인사건	-11.7034
▁내륙	-11.7034
▁올라왔다	-11.7034
▁기지에	-11.7034
▁용감	-11.7034
▁보건장관	-11.7034
▁제휴	-11.7035
▁운용	-11.7035
▁흠	-11.7035
▁머무르	-11.7035
▁작위	-11.7035
▁엔론	-11.7035
▁특혜	-11.7035
▁완구	-11.7036
▁돌파구	-11.7036
▁프린트	-11.7036
▁최신작	-11.7036
▁deal	-11.7036
▁이슬람교도들	-11.7037
▁야망	-11.7037
▁기네스	-11.7037
▁소년병	-11.7038
▁피켓	-11.7038
▁바다위	-11.7038
▁켄트	-11.7038
▁돌렸다	-11.7038
▁청산	-11.7038
▁환경단체	-11.7039
▁절정	-11.7039
▁로리언	-11.7039
▁종목	-11.7039
▁근방	-11.7039
▁물리학자	-11.704
▁죽어	-11.704
▁상환	-11.704
▁견제	-11.704
▁최장	-11.704
▁최적	-11.7041
▁넘긴	-11.7041
▁오델	-11.7041
▁통신망	-11.7041
▁폴락	-11.7041
프레드	-11.7043
▁할렘	-11.7043
▁담당하	-11.7043
▁bet	-11.7043
▁강탈	-11.7044
FI	-11.7045
▁귀중	-11.7045
▁관제	-11.7046
▁오찬	-11.7048
▁차이점	-11.7048
▁동점	-11.7049
▁국무회의	-11.7049
▁황소	-11.705
▁악수	-11.7051
▁휴전선	-11.7052
▁결정적	-11.7052
▁지휘자	-11.7052
▁기지에서	-11.7053
▁경찰국장	-11.7054
보관소	-11.7054
▁타워	-11.7054
▁밀크	-11.7056
▁배출량	-11.7056
▁도보	-11.7057
▁테크	-11.7058
▁격전	-11.7058
▁배아줄기세포	-11.7058
▁인터내셔널	-11.7058
▁정찰기	-11.7059
▁결선	-11.706
▁지상군	-11.706
▁쇼에서	-11.706
▁주의보	-11.706
▁파란	-11.7061
▁소포	-11.7062
▁원석	-11.7064
▁진술서	-11.7065
▁어조	-11.7065
▁정문	-11.7066
▁관점	-11.7068
▁관용	-11.7068
▁되도록	-11.7071
▁보내졌다	-11.7071
▁실명	-11.7073
▁의장직	-11.7074
▁캐시	-11.7075
▁봤을	-11.7075
▁다량	-11.7075
▁부친	-11.7076
▁실업자	-11.7077
▁기자실	-11.7077
▁희생된	-11.7078
▁찾아야	-11.7079
▁블루스	-11.7079
▁내외	-11.7081
▁뻔	-11.7081
▁평양에	-11.7081
▁베일	-11.7083
▁처사	-11.7083
▁아마드	-11.7087
▁스페인에서	-11.7088
▁수천만	-11.7088
▁소비자들에게	-11.7089
됐음	-11.7089
▁고객들에게	-11.7089
▁마신	-11.709
▁압도적으로	-11.709
▁노동조합	-11.7093
학술	-11.7095
▁이슬람교도	-11.7095
▁구조물	-11.7098
군사훈련	-11.7099
▁넘쳐	-11.71
▁공동체	-11.7101
▁불법적으로	-11.7102
▁빛나	-11.7103
▁숨어있	-11.7104
▁마카	-11.7105
▁화성에	-11.7107
행해진	-11.7108
▁마오	-11.7108
없	-11.7109
받았	-11.7109
▁소치	-11.7111
▁양식	-11.7112
LA	-11.7113
bal	-11.7114
투성이	-11.7114
▁헌법상	-11.7115
▁딱	-11.7116
▁부탁했다	-11.7116
▁개통	-11.7117
▁유지될	-11.7118
▁에너지부	-11.7119
▁스토	-11.712
▁크리	-11.7122
ju	-11.7122
▁손잡	-11.7123
▁오프	-11.7123
▁교장	-11.7125
▁반대파	-11.7125
▁꼬	-11.7126
▁놈	-11.7127
▁시급	-11.7128
▁집계됐다	-11.7129
▁패했다	-11.7131
▁명절	-11.7139
▁급락했다	-11.7141
▁합의했	-11.7141
▁영화계	-11.7141
▁프레이	-11.7147
▁셈	-11.7151
▁미렌	-11.7153
▁수신	-11.7153
▁세울	-11.7156
▁억명	-11.7159
때로	-11.7161
▁태워	-11.7165
▁수염	-11.7167
▁뒷받침	-11.7168
▁맞이했다	-11.7169
▁묵인	-11.717
▁자카르타에서	-11.717
▁장군이	-11.7176
▁살기	-11.7176
than	-11.7176
▁신청했다	-11.7177
▁총리실	-11.7177
ron	-11.7178
▁홀리	-11.7178
▁자동차업체	-11.7179
▁조니	-11.7179
▁많았	-11.718
▁승리해야	-11.7182
▁후회	-11.7183
▁볼트	-11.7183
▁건물들이	-11.7186
▁보석으로	-11.7186
▁범인들	-11.7186
▁당선이	-11.719
▁해안지역	-11.7195
▁수출국	-11.7195
▁끝이	-11.7196
▁문화원	-11.7197
▁지역구	-11.7197
▁대구	-11.7203
▁work	-11.7203
uch	-11.7206
▁뷰	-11.7209
드미	-11.7213
▁비슷하다	-11.7214
사르	-11.722
▁향상시키	-11.7222
▁한동안	-11.7225
▁통과시키	-11.7225
▁재개했다	-11.7227
▁개제	-11.7228
▁깨어	-11.7229
▁대응하기	-11.7234
▁갖지	-11.7237
▁레오	-11.7237
▁농구	-11.7237
▁흥미로	-11.725
▁sur	-11.7251
▁않았었다	-11.7255
king	-11.7255
▁nation	-11.7255
▁목장	-11.7257
▁발견되었	-11.7259
▁Am	-11.7259
▁지도부와	-11.7261
▁왔었다	-11.7263
▁트로	-11.7265
▁장군과	-11.7272
▁파장	-11.729
▁타계했다	-11.7291
▁대법원에	-11.7293
▁사망률	-11.7296
베르트	-11.7296
▁장착한	-11.7297
▁이민자	-11.7298
▁일축	-11.7301
▁당사자	-11.7304
▁정했다	-11.7307
▁전후	-11.7307
▁도드	-11.7307
▁유가족들	-11.731
▁모아이	-11.731
▁수니파와	-11.7312
▁장애인	-11.7313
담당자	-11.7314
▁일으키고	-11.7315
▁BE	-11.7317
ific	-11.7317
▁없다면	-11.7321
▁월경	-11.7322
▁하늘에서	-11.7326
▁vi	-11.7328
▁요가	-11.7328
▁초까지	-11.733
▁터지	-11.7332
▁위력	-11.7332
▁분쟁에	-11.7336
대비	-11.734
▁잠들	-11.7341
▁채워	-11.7342
▁패배한	-11.7344
▁보자	-11.7352
나단	-11.7353
▁확산되는	-11.7354
▁올라와	-11.7357
호선	-11.7361
▁보이기	-11.7362
▁아들에게	-11.7366
▁경매에서	-11.7366
▁여러분이	-11.7374
▁블로거	-11.7375
▁사라졌	-11.7381
▁생물학자	-11.7381
▁임명됐다	-11.7387
노동자당	-11.7388
▁초기에	-11.7399
▁브라질에서	-11.74
▁사르	-11.7405
FA	-11.7406
▁취하는	-11.7407
▁지원자들	-11.7408
▁바커	-11.7409
▁폭도	-11.7409
hoo	-11.741
스텔	-11.7418
▁대행	-11.7421
하든	-11.7422
▁실시하고	-11.7423
▁타계	-11.7424
▁인용했다	-11.7427
▁마련하고	-11.7428
▁영하	-11.7433
▁청년들	-11.7436
▁베니	-11.7436
정지	-11.744
▁바라지	-11.7441
▁제한된	-11.7442
▁도와주	-11.7442
데라	-11.7443
OM	-11.7445
▁죽음으로	-11.7448
▁실적이	-11.7451
▁회의적	-11.7457
ube	-11.746
꾸	-11.7461
해냈다	-11.7462
잎	-11.7464
▁토론회에	-11.7465
뷰	-11.7465
눈	-11.7466
▁유튜브에	-11.7468
Z	-11.7469
time	-11.7469
ord	-11.7469
공화국	-11.7469
잘	-11.7471
▁이해하는	-11.7472
반응	-11.7472
차관보	-11.7474
처분	-11.7475
▁주도했다	-11.748
▁폭도들	-11.7483
공연	-11.7488
▁집행위원	-11.7492
브리지	-11.7493
si	-11.7494
oo	-11.7495
▁사자	-11.7495
▁유명인사들	-11.7497
방위	-11.7498
▁조각들	-11.7501
재정	-11.7502
ark	-11.7504
▁시위대들	-11.7509
▁일생	-11.7511
▁강타했다	-11.7512
아래	-11.7519
▁기여한	-11.7522
▁주인공이	-11.7523
▁해결되	-11.7526
▁Su	-11.7531
▁제압하	-11.7535
바라크	-11.7536
레이즈	-11.7537
금치	-11.7539
own	-11.7539
▁선보이	-11.7543
▁멕시코에서	-11.7545
▁비공식적	-11.7545
▁지장	-11.7548
▁fire	-11.7556
▁맺어	-11.7559
브리	-11.7562
▁정당한	-11.7564
▁BP	-11.7566
▁않겠	-11.7574
▁불확실	-11.7575
▁태우	-11.7581
▁라벨	-11.7583
▁생중계	-11.7588
▁케냐에서	-11.759
▁스타디움	-11.7593
▁베트남전	-11.7594
▁시도했으	-11.7597
rk	-11.7598
▁팬이	-11.7601
국적	-11.7608
▁선호하	-11.7609
▁다르지	-11.7609
▁car	-11.7609
▁거뒀	-11.7618
▁공원에	-11.762
저널	-11.7623
▁thi	-11.7625
▁연구실	-11.7629
▁타마	-11.7632
▁빠졌	-11.7632
▁거래소	-11.7633
▁지불했다	-11.7633
▁타임즈와	-11.7634
▁베드	-11.7636
▁알렉산드	-11.7636
▁천문학	-11.7637
▁관람객들	-11.764
▁Pro	-11.7645
▁메인	-11.7647
▁면역	-11.7648
▁모국	-11.7649
hief	-11.7652
▁불러일으	-11.7652
▁수마트라	-11.7653
overnment	-11.7653
톡	-11.7654
▁냉각	-11.7654
cademy	-11.7654
▁Black	-11.7654
▁CES	-11.7654
▁California	-11.7654
▁Securit	-11.7654
▁Senate	-11.7654
▁break	-11.7654
▁market	-11.7654
▁갤론	-11.7654
▁건강검진	-11.7654
▁걷기	-11.7654
▁국가평의회	-11.7654
▁깨달았다	-11.7654
▁나미비아	-11.7654
▁나폴리타노	-11.7654
▁남동생	-11.7654
▁냉장고	-11.7654
▁떠올랐다	-11.7654
▁래드클리프	-11.7654
▁리투아니아	-11.7654
▁멜버른	-11.7654
▁멤피스	-11.7654
▁모레스모	-11.7654
▁바랐다	-11.7654
▁밸리	-11.7654
▁부동층	-11.7654
▁부총재	-11.7654
▁불균형	-11.7654
▁불러일으켰다	-11.7654
▁블록버스터	-11.7654
▁사무차장	-11.7654
▁사이언톨로지	-11.7654
▁알츠하이머	-11.7654
▁알카티리	-11.7654
▁옥수수	-11.7654
▁이스마일	-11.7654
▁전자메일	-11.7654
▁찾으려	-11.7654
▁츠방기라이	-11.7654
▁카르발라	-11.7654
▁퀘벡	-11.7654
▁타이타닉	-11.7654
▁트레일러	-11.7654
▁파키스탄인민당	-11.7654
▁프랑크푸르트	-11.7654
▁플레이스테이션	-11.7654
▁혹등고래	-11.7654
▁휠체어	-11.7654
▁흡입	-11.7654
뚜	-11.7654
랏	-11.7654
쑤	-11.7654
윅	-11.7654
팡	-11.7654
▁Christ	-11.7654
▁기울여야	-11.7654
▁뇌졸중	-11.7654
▁매몰된	-11.7654
▁배트맨	-11.7654
▁볼리비아	-11.7654
▁옵션	-11.7654
▁재경부	-11.7654
▁찍어	-11.7654
▁tax	-11.7654
▁trial	-11.7654
▁구속영장	-11.7654
▁사이언스	-11.7654
▁인수제안	-11.7654
▁헬만드	-11.7654
▁리브니	-11.7654
▁사로잡	-11.7654
▁서두르	-11.7654
▁레코드	-11.7654
▁메케인	-11.7654
▁스콜스	-11.7654
▁자위대	-11.7654
▁중질유	-11.7654
▁따돌렸	-11.7654
▁원동력	-11.7654
▁로드아일랜드	-11.7654
▁불가사의	-11.7654
▁산시성	-11.7654
▁비무장지대	-11.7654
▁Africa	-11.7654
▁수수료	-11.7654
▁희미	-11.7654
▁산악지대	-11.7654
▁엘리엇	-11.7654
hurch	-11.7654
▁화학물질	-11.7654
▁show	-11.7654
▁압델	-11.7654
▁벗겨	-11.7655
▁철폐	-11.7655
▁변했다	-11.7655
▁레빈슨	-11.7655
▁Administration	-11.7655
▁교훈	-11.7655
▁국가안보회의	-11.7655
▁who	-11.7655
▁ABN	-11.7655
▁봉투	-11.7655
▁GDP	-11.7655
▁추억	-11.7655
ween	-11.7655
▁볼드윈	-11.7655
▁차량폭탄	-11.7656
▁도서관	-11.7656
▁마피아	-11.7656
▁불륜	-11.7656
▁별칭	-11.7656
▁부대변인	-11.7656
그너	-11.7656
▁슬림	-11.7656
▁이루어졌	-11.7656
▁멜론	-11.7656
▁놀라움	-11.7656
▁숙박	-11.7656
▁도둑	-11.7656
▁입후보	-11.7656
▁장례	-11.7656
▁게시물	-11.7657
▁그레그	-11.7657
▁그래미	-11.7657
▁축구선수	-11.7657
▁키팅	-11.7657
▁우주여행	-11.7657
▁스튜	-11.7657
▁soldiers	-11.7657
▁생애	-11.7657
▁대리모	-11.7657
▁El	-11.7657
▁예상됩니다	-11.7657
▁알라위	-11.7657
▁나눈	-11.7658
▁제국주의	-11.7659
▁벤처	-11.7659
▁케이프	-11.7659
▁청원서	-11.7659
▁우려했다	-11.7659
▁대슐	-11.7659
▁태생	-11.7659
▁집값	-11.7659
▁six	-11.7659
▁신기록	-11.766
▁전해드	-11.766
▁로빈슨	-11.766
▁생생	-11.766
had	-11.766
▁공헌	-11.766
▁범죄행위	-11.766
▁오웬	-11.766
▁단결	-11.7661
▁우편물	-11.7661
▁팻	-11.7661
▁누구인지	-11.7661
▁프로스트	-11.7661
▁control	-11.7661
▁단편	-11.7661
▁홀더	-11.7661
▁증파	-11.7661
▁절실	-11.7662
▁관통	-11.7662
▁조롱	-11.7662
▁레빈	-11.7663
▁불법행위	-11.7663
▁언니	-11.7663
▁지방정부	-11.7663
▁코웰	-11.7663
▁자동차산업	-11.7664
▁법무상	-11.7664
▁급증했다	-11.7665
▁지명되기	-11.7665
로프트	-11.7665
▁아델	-11.7666
▁바꾼	-11.7666
▁열광	-11.7667
▁이맘	-11.7667
▁골절	-11.7668
▁즉석	-11.7668
▁생계	-11.7668
▁물러났다	-11.7668
▁군사정부	-11.7668
▁조직위	-11.7668
▁신랑	-11.7668
▁심슨이	-11.7668
▁신년	-11.7668
▁자폭	-11.7669
▁증대	-11.7669
▁팬더	-11.7669
▁허브	-11.7669
▁메인주	-11.7669
▁왕관	-11.767
▁사유	-11.767
▁포탄	-11.767
▁주연상	-11.767
▁라마	-11.7671
▁무력화	-11.7671
▁던졌	-11.7672
▁놓여있다	-11.7672
▁브라이언트	-11.7673
▁hy	-11.7673
▁찾아온	-11.7673
▁건축물	-11.7674
▁풀려나	-11.7674
▁실망했다	-11.7675
▁마술	-11.7675
▁공석	-11.7675
▁루터	-11.7676
▁대사와	-11.7676
▁외국인들이	-11.7677
▁해골	-11.7677
▁변명	-11.7678
▁비축	-11.7679
▁발판	-11.7679
▁우위	-11.7681
▁동의안	-11.7681
ray	-11.7681
▁거액	-11.7682
▁분노한	-11.7682
▁중단시켰다	-11.7684
▁부주의	-11.7684
▁부분적으로	-11.7685
▁Her	-11.7685
펠드	-11.7686
▁인권문제	-11.7686
▁꾸며	-11.7686
▁유실	-11.7687
▁우정	-11.7687
▁경미	-11.7688
▁유로화	-11.7688
▁주일간	-11.769
▁찾아냈다	-11.7692
▁통상적	-11.7692
▁su	-11.7693
▁남북간	-11.7693
▁도출	-11.7694
▁모방	-11.7694
▁궁지에	-11.7695
▁상속	-11.7695
▁국회의장	-11.7695
▁신씨	-11.7696
쿠르	-11.7699
▁차분	-11.77
▁과오	-11.7701
▁중요하게	-11.7701
▁신차	-11.7703
▁체력	-11.7704
▁반사	-11.7704
▁아니었	-11.7704
▁아스	-11.7704
▁궁전	-11.7705
▁있냐	-11.7706
▁당내	-11.7707
▁유니버	-11.7707
키마	-11.7708
▁주립대학	-11.7709
▁깨진	-11.771
▁벗기	-11.7711
▁말해주	-11.7711
▁자리잡	-11.7712
▁친부	-11.7712
▁당파	-11.7713
▁보았	-11.7716
▁하나였다	-11.7716
▁등장한다	-11.7719
▁박탈당	-11.7719
▁주범	-11.7721
▁요리사	-11.7722
▁돌아보	-11.7726
▁페어	-11.7727
▁순교자	-11.7728
▁생산업체	-11.7729
EA	-11.7729
▁사업체	-11.7731
▁있었는데	-11.7731
▁Sup	-11.7732
▁연상	-11.7732
▁감사원	-11.7733
▁킴	-11.7734
val	-11.7738
▁오르지	-11.7739
▁정치인들이	-11.7739
▁키트	-11.7739
▁섬에서	-11.7743
▁어스	-11.7743
▁대개	-11.7745
▁캘	-11.7746
▁예외	-11.7746
▁편리	-11.7747
▁유발할	-11.7749
▁랜디	-11.775
▁경쟁자들	-11.7755
▁합쳐	-11.7755
▁살레	-11.7756
교사	-11.7758
▁경찰서로	-11.7758
▁설명할	-11.7759
▁민주당원	-11.776
▁종업원	-11.7762
▁주최하	-11.7766
▁밝혀져	-11.7767
▁좋아지	-11.777
▁크라	-11.777
▁소방대원들	-11.7771
▁말하자	-11.7772
▁발표되었다	-11.7775
▁제출된	-11.7777
ncy	-11.7783
▁교대	-11.7783
▁개막식에	-11.7785
▁늘었다	-11.7786
▁낭	-11.7791
▁위함	-11.7792
▁펼쳐지	-11.7792
▁피지	-11.7792
▁지구와	-11.7793
▁죽어가	-11.7796
▁흙	-11.7796
▁코드	-11.7796
부장관	-11.7797
▁부모에게	-11.7797
▁가속	-11.78
로윈	-11.7802
▁받아들이기	-11.7804
▁비판하는	-11.7804
▁입소	-11.7804
렉스	-11.7805
former	-11.7807
▁덴	-11.7808
▁의사회	-11.7808
lu	-11.781
▁오바	-11.7813
▁정면	-11.7815
▁애플사	-11.7815
▁노르	-11.7817
▁직원들에게	-11.7818
▁미세	-11.7819
받지	-11.782
▁테러리스트들이	-11.7821
▁주변국들	-11.7825
▁영국인들	-11.7829
표한다	-11.783
▁Mi	-11.7831
▁고민하	-11.7833
▁해당한다	-11.7833
▁유지해	-11.7835
공학	-11.7835
▁결승에	-11.7836
▁자진	-11.784
브론	-11.7842
▁워싱턴주	-11.7847
▁놓았	-11.7848
▁목록에서	-11.7849
▁영국으로부터	-11.7851
▁사이트에서	-11.7852
▁소매업	-11.7853
▁초고속	-11.7854
TA	-11.7858
▁전락	-11.7864
ater	-11.7869
▁살해되	-11.7873
▁안면	-11.7874
▁쥐들	-11.788
▁유사하다	-11.7881
▁남동부에서	-11.7883
ten	-11.7883
▁주었	-11.7884
▁정보통	-11.7885
pose	-11.7886
▁축출된	-11.7896
▁올라갔	-11.79
▁쓰여	-11.7902
▁도와주는	-11.7906
mas	-11.7907
▁bo	-11.791
▁장갑	-11.7912
ust	-11.7914
버렸	-11.7916
NC	-11.7918
▁축구팬들	-11.7919
▁켜	-11.7921
▁head	-11.7922
▁촉	-11.7925
▁에드로	-11.7926
시피	-11.7931
분별	-11.7933
▁단원	-11.7937
▁파라	-11.7944
▁특성	-11.7953
▁케인	-11.7957
▁탐험가	-11.7957
▁착륙했다	-11.7959
▁묘사한	-11.7959
▁죽인	-11.7964
리프	-11.7968
dition	-11.7981
▁명중	-11.7983
키야	-11.7986
ise	-11.7986
▁베티	-11.7988
▁감정적	-11.7991
▁인부	-11.7999
▁엑	-11.8007
달아	-11.8009
▁출발한	-11.8011
▁나간다	-11.8012
▁확산됐다	-11.8012
저스	-11.8016
▁아타	-11.8019
매장	-11.802
▁회복할	-11.8023
▁축구팬	-11.8045
we	-11.8049
▁폐쇄됐다	-11.8051
▁제조업체들	-11.8056
▁압박했다	-11.8059
▁참석한다	-11.806
▁시작되었	-11.8063
▁알려왔	-11.8065
자본	-11.8065
늘	-11.8072
끈	-11.8078
▁월드컵에서	-11.8079
버거	-11.8081
▁언론사	-11.8081
▁PM	-11.8083
▁삼아	-11.8086
티브	-11.8087
▁day	-11.8088
▁관계없	-11.8099
▁존재한다	-11.8105
▁안된	-11.8117
있게	-11.8118
▁지나면	-11.8119
▁전신	-11.8121
▁반기	-11.8127
▁시도할	-11.8131
페이스	-11.8133
▁신문들	-11.8133
프로그램	-11.8134
칩	-11.8134
엠	-11.8134
쥐	-11.8136
잠	-11.8136
테니스	-11.8139
km	-11.8141
조합	-11.8147
▁교수들	-11.8148
▁딸에게	-11.8149
ton	-11.8152
트너	-11.8153
EL	-11.8154
con	-11.8156
▁슬로	-11.8158
레오	-11.8163
키스	-11.8166
▁추진해	-11.8167
▁연결된	-11.817
▁편으로	-11.817
▁천장	-11.8172
▁나쁘	-11.8172
▁인도주의	-11.8189
회사들	-11.8192
행진	-11.8196
▁Dai	-11.8198
▁폐쇄하기	-11.8202
퍼트	-11.8208
▁방영되	-11.8215
▁매리	-11.8216
▁남성에게	-11.822
▁카바	-11.8222
러진	-11.8226
▁이외에	-11.8228
erg	-11.8228
▁흉내	-11.8229
▁들지	-11.8229
▁관리하는	-11.8232
▁경신	-11.8233
▁페이지에	-11.8233
unt	-11.8233
연금	-11.8243
▁아파	-11.8247
▁저질렀	-11.8252
▁주마	-11.8254
▁탈북자들	-11.8264
▁적합	-11.8266
▁열정적	-11.8267
▁순례	-11.827
▁달링	-11.8274
▁걸렸	-11.8277
bar	-11.8281
▁공적	-11.8284
▁비싸	-11.8285
▁싶었	-11.8287
보라	-11.8297
▁마쳤	-11.83
▁창립	-11.83
▁입찰	-11.83
랍	-11.8308
▁종말	-11.831
캣	-11.8312
얄	-11.8313
▁마텔	-11.8315
cl	-11.8316
홉	-11.8317
▁원정	-11.8317
▁디스커버리	-11.8317
wn	-11.8317
▁콜롬	-11.8318
▁kill	-11.8318
▁도미니	-11.8318
콕	-11.8319
illion	-11.8319
궈	-11.832
ontrol	-11.832
efense	-11.832
갓	-11.832
▁AIDS	-11.832
▁Arm	-11.832
▁DAX	-11.832
▁IUCN	-11.832
▁PETA	-11.832
▁candidate	-11.832
▁group	-11.832
▁problem	-11.832
▁끊겼	-11.832
▁다비덴코	-11.832
▁대검찰청	-11.832
▁댓글	-11.832
▁디카프리오	-11.832
▁루고보이	-11.832
▁만토바니	-11.832
▁무기징역	-11.832
▁미식축구	-11.832
▁발렌시아	-11.832
▁부드러운	-11.832
▁비정상적	-11.832
▁아르메니아	-11.832
▁애틀랜틱	-11.832
▁어소시에이션	-11.832
▁유투브	-11.832
▁잉그리드	-11.832
▁출퇴근	-11.832
▁칼데론	-11.832
▁크라이튼	-11.832
▁키프로스	-11.832
▁프랑수아	-11.832
▁해밀턴	-11.832
긍	-11.832
덱	-11.832
▁grow	-11.832
▁support	-11.832
▁견뎌	-11.832
▁국제영화제	-11.832
▁남태평양	-11.832
▁대배심	-11.832
▁빈센트	-11.832
▁서유럽	-11.832
▁세컨드라이프	-11.832
▁슈퍼마켓	-11.832
▁스타워즈	-11.832
▁신시내티	-11.832
▁타임스퀘어	-11.832
▁티크리트	-11.832
▁파딜라	-11.832
▁하르툼	-11.832
▁핵폐기	-11.832
▁CAC	-11.832
▁Heart	-11.832
▁어리석	-11.832
▁즐긴다	-11.832
▁테러리즘	-11.832
▁패터슨	-11.832
▁financ	-11.832
▁아메바	-11.832
▁여기저기	-11.832
▁은하계	-11.832
▁제레미	-11.832
▁home	-11.832
▁보너스	-11.832
▁바이에른	-11.832
▁미생물	-11.832
▁Commission	-11.8321
▁유연한	-11.8321
▁금리인하	-11.8321
▁국가안보보좌관	-11.8321
▁무언가	-11.8321
▁전비법안	-11.8321
▁뛰어넘	-11.8321
▁어쩌	-11.8321
▁올림피	-11.8321
▁말리부	-11.8321
▁아스카리	-11.8321
▁구제금융법안	-11.8321
▁부녀자	-11.8321
▁세르게이	-11.8321
▁선거인단	-11.8321
house	-11.8321
▁알라스카	-11.8321
▁소비에트	-11.8321
▁종지부	-11.8321
▁갑작스럽	-11.8321
▁어둠	-11.8321
▁마지드	-11.8321
▁얼룩말	-11.8321
▁베이징올림픽	-11.8321
▁용도로	-11.8321
▁소방당국	-11.8321
도날드	-11.8321
▁작별	-11.8322
▁낫다	-11.8322
▁org	-11.8322
▁탈옥	-11.8322
▁XP	-11.8322
▁수감생활	-11.8322
▁겨누	-11.8322
▁건강보험	-11.8322
▁군사행동	-11.8322
▁홈경기	-11.8322
▁미뤄	-11.8322
기동대	-11.8322
▁십먼	-11.8322
▁슈렉	-11.8322
▁East	-11.8322
▁당첨	-11.8323
▁포털	-11.8323
▁스마트	-11.8323
▁북극광	-11.8323
▁디즈니랜드	-11.8323
▁약물검사	-11.8323
▁killed	-11.8323
▁층짜리	-11.8323
▁압류	-11.8323
▁투명성	-11.8323
▁피난처	-11.8323
▁우발적	-11.8323
▁One	-11.8323
▁cut	-11.8323
▁날카로	-11.8323
▁머독	-11.8323
▁비밀요원	-11.8323
▁업종	-11.8323
▁콜롬보	-11.8323
▁봉급	-11.8323
▁드럼	-11.8324
▁부정행위	-11.8324
▁보험회사	-11.8324
▁복음	-11.8324
▁비웃	-11.8324
▁정몽	-11.8324
▁싸워	-11.8324
객들	-11.8324
▁기관총	-11.8324
▁푸른	-11.8324
etro	-11.8324
▁페드로	-11.8324
▁편견	-11.8325
▁스노우	-11.8325
▁축구스타	-11.8325
▁필름	-11.8325
▁필사적	-11.8325
▁근절	-11.8325
▁교각	-11.8325
▁형편	-11.8325
▁윈터	-11.8326
night	-11.8326
▁애견	-11.8326
▁루시디	-11.8326
▁암살사건	-11.8326
▁마쓰	-11.8326
▁자치권	-11.8327
▁출입국	-11.8327
▁합작	-11.8327
▁폭발사고	-11.8327
▁아프리카연합	-11.8327
▁하렐	-11.8327
▁반테러	-11.8327
▁에베레스트산	-11.8327
▁듀크	-11.8327
▁계급	-11.8327
▁학계	-11.8328
▁애완용	-11.8328
▁헝	-11.8328
▁경합	-11.8328
▁요한슨	-11.8328
▁휴회	-11.8329
▁가디언	-11.8329
▁공공연	-11.8329
▁선례	-11.8329
▁사망원인	-11.8329
▁소도시	-11.833
▁주택시장	-11.833
▁대피시켰다	-11.8331
▁안타깝게	-11.8331
▁상향	-11.8331
▁난입	-11.8331
▁실천	-11.8331
▁연합정부	-11.8331
▁설전	-11.8331
▁무례	-11.8331
▁발머	-11.8332
▁대국민	-11.8332
▁보스톤	-11.8332
▁부시대통령	-11.8332
▁투자은행	-11.8333
▁변함없	-11.8333
▁무시했다	-11.8333
▁해산시키기	-11.8333
▁플래시	-11.8334
▁평온	-11.8334
▁설비	-11.8335
▁생체	-11.8335
▁Prosecutor	-11.8335
▁Ira	-11.8335
▁들어설	-11.8336
▁로지스	-11.8336
▁놀란	-11.8337
▁버몬트주	-11.8337
▁야유	-11.8337
▁상업용	-11.8338
▁결단	-11.8339
▁입건	-11.8339
▁조엘	-11.8339
▁메모	-11.834
▁일기장	-11.834
▁음료수	-11.834
▁국세청장	-11.834
▁김양	-11.8341
▁불확실성	-11.8341
▁용납하지	-11.8342
▁가장자리	-11.8342
▁매료	-11.8342
EO	-11.8343
▁종교단체	-11.8343
▁은둔	-11.8343
▁호건	-11.8344
▁역설했다	-11.8345
▁담요	-11.8345
▁공금	-11.8345
▁위독	-11.8346
▁속력	-11.8346
▁과연	-11.8347
▁유영	-11.8347
▁매복	-11.8347
▁아샤	-11.8347
▁근본주의자들	-11.8347
▁용량	-11.8347
▁요크	-11.8349
▁난방	-11.8349
ex	-11.835
▁경계선	-11.835
▁왕비	-11.8351
▁천여	-11.8352
▁군사위원회	-11.8353
▁토레스	-11.8353
▁커뮤니케이션	-11.8354
▁싶었다	-11.8354
▁토미	-11.8354
▁골드만	-11.8354
▁검찰청	-11.8355
▁af	-11.8356
▁호스트	-11.8357
▁아쉬	-11.8357
▁서점	-11.8357
▁천체	-11.8358
▁시립	-11.8359
▁로빈	-11.836
▁당신들	-11.8361
▁펼쳐진	-11.8362
▁고의적으로	-11.8362
▁거품	-11.8362
스쿨	-11.8363
해준다	-11.8364
▁번복	-11.8364
▁리츠	-11.8365
▁소모	-11.8367
▁게르	-11.8367
▁매직	-11.8368
▁거머쥐었	-11.8369
▁정치국	-11.8369
▁인권단체들	-11.8369
먼트	-11.837
▁나오기	-11.837
▁잠재	-11.8371
▁동부지역	-11.8371
▁페니	-11.8371
▁심각성	-11.8374
▁관장	-11.8374
▁뉴햄프셔주	-11.8375
▁수감돼	-11.8376
▁유출된	-11.8376
▁메르	-11.8377
▁거주민	-11.8377
▁꺼리	-11.8378
▁요구했었다	-11.8378
▁나누어	-11.8379
▁연구소에서	-11.8382
▁등장했다	-11.8382
▁설사	-11.8382
▁보물	-11.8385
▁끝내기	-11.8385
▁엄청나	-11.8386
▁오버	-11.8386
▁함대	-11.8387
▁기울이지	-11.8388
봐야	-11.8388
정규직	-11.8389
▁성범죄자	-11.839
▁공개되	-11.8391
▁소실됐다	-11.8393
▁기자단	-11.8395
▁간직	-11.8395
▁생각되는	-11.8396
▁로케	-11.8397
▁속해	-11.8399
▁불안해	-11.8402
▁해역에서	-11.8402
▁직원인	-11.8402
▁스타인	-11.8403
▁외화	-11.8404
▁Cl	-11.8406
▁전반전	-11.8407
▁대금	-11.841
▁정세	-11.841
▁원내	-11.8411
▁이윤	-11.8414
▁주의회	-11.8414
▁지형	-11.8416
▁알바로	-11.8417
▁청장	-11.8419
▁기미	-11.8421
▁웨스	-11.8423
AF	-11.8424
▁ban	-11.8424
▁거기에	-11.8425
▁피랍됐	-11.8427
▁장르	-11.843
▁분단	-11.8431
▁기자였	-11.8433
▁과학기술	-11.8435
▁기숙사에서	-11.8435
▁구성원들	-11.8436
▁밝혀졌	-11.8436
▁지원국	-11.8437
▁조치들	-11.8441
▁유니	-11.8444
AP	-11.8445
▁키니	-11.8446
▁수혈	-11.8447
tan	-11.8448
▁출동했다	-11.8452
▁맛봤	-11.8455
▁야스	-11.8457
side	-11.8457
ator	-11.8458
▁안정화	-11.846
▁간주되	-11.846
▁출발했다	-11.8462
▁사육사들	-11.8463
▁안정성	-11.847
UK	-11.8472
▁뒤진	-11.8472
▁다크	-11.8473
▁등반	-11.8475
▁투표자	-11.8478
▁용지	-11.8481
▁구매자	-11.8481
▁버렸	-11.8482
ook	-11.8487
▁Space	-11.8487
▁크레인	-11.8487
타그	-11.8492
▁활동가들	-11.8498
▁시차	-11.8499
▁가문	-11.8502
사미	-11.851
▁보수주의	-11.8516
▁저서	-11.8516
▁환경적	-11.8517
▁여자친구와	-11.8521
▁유나이티드와	-11.8523
▁고심하	-11.8524
▁김만	-11.8525
▁잎	-11.8527
▁제출해야	-11.8528
▁쉽	-11.8532
▁선수들에게	-11.8532
▁유서	-11.8533
▁피난민	-11.8534
▁인류학	-11.8536
▁같지	-11.855
▁적용할	-11.8553
▁추적하	-11.8554
성분	-11.8556
▁침체에	-11.8559
▁납세자들	-11.8563
▁접어	-11.8565
▁건강상	-11.8569
▁친구들이	-11.8572
▁더위	-11.8572
▁각료들	-11.8573
▁봉인	-11.8574
셰르	-11.8576
▁만부	-11.8576
▁생각했	-11.8577
▁헤리	-11.8578
투스	-11.8588
▁선출됐다	-11.8594
▁레스토랑에서	-11.86
▁부패와	-11.8601
▁초소	-11.8603
▁구리	-11.8604
환자	-11.8604
NDO	-11.8606
▁거절한	-11.861
였음	-11.8621
▁표현할	-11.8622
▁상인들	-11.8634
▁덤	-11.8635
▁나일	-11.8636
▁팔린	-11.8642
▁끝나면	-11.8643
hat	-11.8645
▁주위에	-11.8646
▁근대	-11.865
▁계획안	-11.8657
▁일쯤	-11.8659
▁특파원들	-11.8663
▁자비	-11.8663
▁월급	-11.8664
▁이하로	-11.8668
▁추산되	-11.8673
▁무능	-11.8683
▁이때	-11.8685
▁찌	-11.8689
▁빠	-11.87
▁경쟁사	-11.8705
▁비서	-11.8707
▁표하고	-11.8708
란드	-11.8709
AS	-11.871
▁공직자	-11.871
▁메카	-11.8715
히코	-11.8717
봤	-11.8721
▁장악했다	-11.8722
▁휴대폰으로	-11.8727
▁대비하고	-11.8728
▁제소	-11.8731
▁점령한	-11.8732
▁발전기	-11.8732
▁미대사	-11.8734
▁직면하	-11.874
▁우려된다	-11.8747
▁안전성	-11.875
▁도발	-11.8751
▁성대	-11.8757
▁한계	-11.8763
▁생산되	-11.8771
해주기	-11.8776
▁사망자들	-11.8792
▁비난한다	-11.8795
▁보리	-11.8795
▁본부에서	-11.8798
▁인물들	-11.8798
▁치료하는	-11.8799
▁인정한다	-11.88
▁구매자들	-11.8801
▁인도적	-11.8802
▁전사자	-11.8802
▁싶어하지	-11.8805
▁Ki	-11.8806
▁버려	-11.8808
▁약화시키	-11.8808
하듯	-11.8815
▁요인들	-11.8816
혹	-11.8827
나갔다	-11.8828
▁매장에서	-11.8833
▁개최국	-11.8836
▁가방에	-11.8836
잡지	-11.8836
활	-11.8837
었었다	-11.8837
▁상대적	-11.884
▁생물학	-11.8842
▁그러면	-11.8844
엑	-11.8844
기남	-11.8846
사령부	-11.8847
춤	-11.8847
보험	-11.8847
폭탄	-11.8848
월드컵	-11.885
잇	-11.8851
큰	-11.8852
제조	-11.8855
모델	-11.8859
▁수감됐	-11.8862
▁스캔들에	-11.8866
열차	-11.8869
▁당혹	-11.8869
장애	-11.887
계약	-11.8871
gra	-11.8873
▁막지	-11.8874
소득	-11.8874
대결	-11.8877
ize	-11.888
모건	-11.8881
주민들	-11.8883
AI	-11.8884
▁거론되	-11.8887
▁모기	-11.8889
▁모욕적	-11.8895
집회	-11.8899
소니	-11.89
▁전장에	-11.8908
▁한국전	-11.8915
일본	-11.8916
▁무차별	-11.8918
그리	-11.8921
▁Qu	-11.8921
▁제시하지	-11.8928
▁Live	-11.8931
▁자행한	-11.8935
▁War	-11.8935
▁나타낸	-11.8939
▁미성년	-11.8944
▁We	-11.8952
▁성교	-11.8953
▁확보하고	-11.8957
식품	-11.8969
▁재기	-11.8969
▁후보간	-11.8974
쿨	-11.898
well	-11.898
▁옹호하	-11.8981
▁높았	-11.8983
▁표지	-11.899
▁Sa	-11.8992
VS	-11.8995
▁강조하는	-11.8997
▁낙관	-11.9002
랜스	-11.9003
ague	-11.9007
▁강화하	-11.9013
▁상승했	-11.9016
▁참모총장	-11.9023
▁안타깝	-11.9024
▁right	-11.9024
▁곤란	-11.9024
자격	-11.9026
▁터무니	-11.9027
슐	-11.9028
둑	-11.9029
성명	-11.9029
▁프란시스	-11.9032
슬라브	-11.9032
rug	-11.9034
q	-11.9034
껴	-11.9034
궐	-11.9035
mission	-11.9035
▁오피니언	-11.9035
▁솔로몬	-11.9035
▁Earth	-11.9035
▁John	-11.9035
▁Microsoft	-11.9035
▁Watch	-11.9035
▁system	-11.9035
▁withdraw	-11.9035
▁독립선언	-11.9035
▁사우스다코타	-11.9035
▁인공심장	-11.9035
뚱	-11.9035
륭	-11.9035
팽	-11.9035
ampaign	-11.9035
▁ESTA	-11.9035
▁KKK	-11.9035
▁OMX	-11.9035
▁RBS	-11.9035
▁SNCF	-11.9035
▁economy	-11.9035
▁return	-11.9035
▁threaten	-11.9035
▁고혈압	-11.9035
▁나스랄라	-11.9035
▁네브라스카	-11.9035
▁뉴욕타임즈	-11.9035
▁다녔다	-11.9035
▁대기오염	-11.9035
▁대선예비후보	-11.9035
▁델라웨어	-11.9035
▁뒷좌석	-11.9035
▁드림라이너	-11.9035
▁루프트한	-11.9035
▁만파운드	-11.9035
▁머물렀다	-11.9035
▁먹었다	-11.9035
▁메탄가스	-11.9035
▁모토로라	-11.9035
▁믿어지	-11.9035
▁바예스테로스	-11.9035
▁박스오피스	-11.9035
▁발렌타인	-11.9035
▁북방한계선	-11.9035
▁분리독립	-11.9035
▁비디오테이프	-11.9035
▁스머프	-11.9035
▁스프린트	-11.9035
▁시니오라	-11.9035
▁시트콤	-11.9035
▁아름답	-11.9035
▁아리조나	-11.9035
▁아쿠아리움	-11.9035
▁애국전선	-11.9035
▁에메랄드	-11.9035
▁엔터프라이즈	-11.9035
▁오마이뉴스	-11.9035
▁와코비아	-11.9035
▁울프위츠	-11.9035
▁워싱턴포스트	-11.9035
▁자와히리	-11.9035
▁조기총선	-11.9035
▁최연소	-11.9035
▁카메룬	-11.9035
▁카스파로프	-11.9035
▁컨소시엄	-11.9035
▁클랩튼	-11.9035
▁펠릭스	-11.9035
▁폴란스키	-11.9035
▁현충일	-11.9035
▁홀로코스트	-11.9035
▁히말라야	-11.9035
프로농구	-11.9035
▁Georg	-11.9035
▁공청회	-11.9035
▁극단적인	-11.9035
▁다빈치	-11.9035
▁스릴러	-11.9035
▁스테로이드	-11.9035
▁시베리아	-11.9035
▁외할머니	-11.9035
▁전두환	-11.9035
▁빔보	-11.9035
▁에버튼	-11.9035
▁카제미	-11.9035
▁크로포드	-11.9035
▁현기증	-11.9035
어느때보다	-11.9035
▁라말라	-11.9035
▁목걸이	-11.9035
▁부끄러	-11.9035
▁산티아고	-11.9035
▁우체국	-11.9035
▁카우치	-11.9035
▁아세안	-11.9035
▁허덕이	-11.9035
▁분화구	-11.9035
▁퇴근	-11.9035
▁돌려보내	-11.9035
▁알메이다	-11.9035
▁엘비스	-11.9035
▁퇴출	-11.9035
▁김일성	-11.9035
▁임상실험	-11.9035
▁불도저	-11.9035
▁삼성전자	-11.9035
▁민주변화	-11.9035
▁떠다니	-11.9035
▁아침식사	-11.9035
▁스프링스틴	-11.9035
▁공동기자회견에	-11.9035
▁메세지	-11.9035
▁세비르	-11.9035
revent	-11.9035
▁트레이시	-11.9035
▁리프트	-11.9035
▁행정명령	-11.9035
▁디아즈	-11.9035
▁추도식	-11.9035
▁Miss	-11.9035
▁general	-11.9035
▁듀프레	-11.9035
▁니가타	-11.9035
▁현명한	-11.9035
▁버핏	-11.9035
▁쓰러진	-11.9035
▁민주변화운동	-11.9035
▁월경작전	-11.9035
▁히트곡	-11.9035
place	-11.9035
▁가오리	-11.9035
▁클리닉	-11.9035
▁탐지기	-11.9035
▁불상사	-11.9035
▁종합병원	-11.9035
▁히잡	-11.9035
▁rul	-11.9035
▁결론지었다	-11.9035
▁빠져나갔다	-11.9035
▁consumer	-11.9035
▁재가동	-11.9035
▁헐값	-11.9035
▁적임자	-11.9035
▁틸리	-11.9035
▁벗어났다	-11.9035
▁출몰	-11.9035
▁구급차	-11.9035
▁산업자원부	-11.9035
▁트레이드	-11.9035
▁홍보담당자	-11.9035
▁슬램	-11.9036
▁골드버그	-11.9036
▁블랙베리	-11.9036
▁쥐스틴	-11.9036
▁완패	-11.9036
▁아름다움	-11.9036
▁바꿨	-11.9036
▁평의회	-11.9036
▁강제진압	-11.9036
▁report	-11.9036
▁올라간다	-11.9036
▁천수이	-11.9036
▁사기꾼	-11.9036
▁press	-11.9036
▁용암	-11.9036
▁놀이기구	-11.9036
▁겸손	-11.9036
▁감기약	-11.9036
▁마샬	-11.9036
▁베풀	-11.9036
▁run	-11.9036
▁India	-11.9037
▁스페이스	-11.9037
▁Plan	-11.9037
▁동북	-11.9037
▁office	-11.9037
▁패션쇼	-11.9037
▁청취	-11.9037
▁폭염	-11.9037
홍색	-11.9037
▁목욕	-11.9037
▁노골적	-11.9037
▁비겁	-11.9037
▁출근	-11.9037
▁남아시아	-11.9037
▁유니티	-11.9037
▁수세기	-11.9037
▁갈망하	-11.9038
▁금전적	-11.9038
▁WTA	-11.9038
▁달려있다	-11.9038
▁사형제도	-11.9038
▁육류	-11.9038
▁계절	-11.9038
▁검은색	-11.9039
▁완강	-11.9039
▁가져온	-11.9039
▁주모자	-11.9039
▁숙박비	-11.9039
▁입혔다	-11.9039
cial	-11.904
▁케이티	-11.904
▁응급실	-11.904
▁베이커	-11.904
▁뉴먼	-11.904
▁결말	-11.904
▁패트	-11.904
▁올리버	-11.9041
▁알렉	-11.9041
▁축구협회	-11.9041
▁환경운동	-11.9041
▁산업지수	-11.9041
▁상무위원	-11.9041
▁채굴	-11.9041
▁잠입	-11.9042
▁유명해졌다	-11.9042
▁성폭행범	-11.9042
▁USB	-11.9043
▁터졌다	-11.9043
▁처방전	-11.9043
▁담합	-11.9043
uel	-11.9043
▁임시정부	-11.9043
▁검시	-11.9043
▁아이콘	-11.9043
IJ	-11.9044
▁청원	-11.9044
▁속편	-11.9044
▁자궁	-11.9044
▁열악	-11.9044
▁화산재	-11.9044
디언	-11.9045
▁신랄	-11.9046
▁모스크	-11.9046
▁사무국	-11.9046
▁회생	-11.9046
▁하향	-11.9046
▁소득세	-11.9046
▁폭력배	-11.9046
▁스토리	-11.9046
▁교신	-11.9046
▁잠복	-11.9047
▁에릭슨	-11.9047
▁어두	-11.9047
▁구슬	-11.9048
▁Asia	-11.9048
▁정치활동	-11.9048
▁과열	-11.9049
▁떼어	-11.9049
▁담았다	-11.9049
▁독려	-11.9049
▁years	-11.9049
▁변종	-11.9049
▁양빈	-11.905
프로축구	-11.905
▁성취	-11.9051
▁통치권	-11.9052
▁장시간	-11.9052
▁친교	-11.9052
▁축적	-11.9053
▁감형	-11.9053
▁무레이	-11.9053
▁친지들	-11.9054
▁거칠	-11.9054
▁벗어나지	-11.9055
eav	-11.9055
▁연주자	-11.9055
▁행보	-11.9056
▁추위	-11.9056
▁칼리드	-11.9056
▁벵	-11.9056
▁응용	-11.9057
▁혼자서	-11.9057
▁간격	-11.9057
▁표출	-11.9057
▁파탄	-11.9059
▁칭하며	-11.9059
▁자율	-11.9061
▁아예	-11.9061
▁월터스	-11.9061
▁석권	-11.9062
▁경고문	-11.9062
▁돌발	-11.9062
▁동조	-11.9062
▁단단	-11.9063
▁도매	-11.9063
▁없어질	-11.9064
▁조종사들	-11.9065
▁인도양	-11.9066
▁극우	-11.9067
▁보수주의자들	-11.9067
▁실체	-11.9068
▁재연	-11.9068
▁않음	-11.9068
▁형법	-11.9069
일간	-11.9069
▁환경부	-11.907
▁상류	-11.907
▁국정원장	-11.907
▁별명	-11.9071
▁나빠지	-11.9071
▁증명서	-11.9072
토프	-11.9072
▁당부	-11.9072
▁그렇지만	-11.9072
▁그라이브	-11.9072
▁달아나	-11.9073
▁오메	-11.9073
▁위스콘신주	-11.9073
▁세월	-11.9074
▁모친	-11.9074
▁아래서	-11.9074
▁만들어낸	-11.9074
▁인출	-11.9074
▁신청자	-11.9075
툴라	-11.9075
▁유형	-11.9075
▁것인데	-11.9075
▁의향	-11.9076
▁보고됐다	-11.9078
▁소중	-11.9078
▁경영자들	-11.9079
▁영국항공	-11.908
요리	-11.9081
▁시작하자	-11.9081
▁공단	-11.9082
▁사본	-11.9083
▁폰다	-11.9084
▁쥬	-11.9085
▁맘	-11.9085
▁중국어	-11.9085
▁농성	-11.9086
▁올림픽위원회	-11.9087
▁피력	-11.9087
▁병원측	-11.9088
▁기뻐	-11.9088
▁특권	-11.9088
▁건전	-11.9088
▁원정경기에서	-11.9089
▁동화	-11.9089
▁연비	-11.9089
▁저조	-11.9089
▁배신	-11.9089
▁도와준	-11.909
▁저지대	-11.9092
▁이민국	-11.9093
▁set	-11.9097
퍼드	-11.9098
▁중학교	-11.9098
▁푸드	-11.9099
▁제마	-11.91
포르	-11.9101
▁벌어	-11.9103
evi	-11.9103
▁부호	-11.9112
▁주거지	-11.9112
▁강행할	-11.9112
▁동부지역에서	-11.9113
▁불타	-11.9114
▁녹스	-11.9114
imate	-11.9115
▁실시간	-11.9115
▁영구적	-11.9116
▁보장받	-11.9116
▁피랍됐다	-11.9118
▁감독관	-11.912
▁기법	-11.912
▁받아들여지	-11.9121
ision	-11.9122
▁시에나	-11.9122
물라	-11.9123
▁뉴욕시장	-11.9126
▁호르	-11.9128
▁국가대표팀	-11.9129
▁선진	-11.9129
▁최소화	-11.9129
▁소비량	-11.9131
▁교리	-11.9131
▁마우	-11.9133
▁얻어야	-11.9133
▁공급하기	-11.9135
▁맞서기	-11.9136
▁정당성	-11.9137
▁오노	-11.9138
▁헨	-11.9139
▁마시지	-11.914
▁무시한	-11.9141
▁설치했다	-11.9141
▁모가디슈에서	-11.9142
광장	-11.9143
▁can	-11.9144
▁들어간다	-11.9148
▁통과시킨	-11.915
▁거미	-11.9151
▁거주지역	-11.9152
우트	-11.9153
▁만족할	-11.9154
▁제거하는	-11.9155
▁공정하	-11.9155
▁이루어지지	-11.9157
▁이루기	-11.9162
▁석방되	-11.9164
▁케네	-11.9165
▁제외됐다	-11.9165
▁확보하기	-11.917
▁로키	-11.9172
▁잡히	-11.9174
▁분산	-11.9176
▁개종	-11.9176
▁채용	-11.9177
▁프라하	-11.9178
▁무성	-11.9181
▁노력해야	-11.9183
▁충분하다	-11.9185
▁멜로	-11.9187
▁안치	-11.9188
▁옐로	-11.9191
▁비명	-11.9193
▁도하	-11.9194
▁힘들어	-11.9198
▁발사해	-11.9199
▁스키장	-11.9209
▁조언했다	-11.9209
▁가설	-11.921
▁살았다	-11.9211
▁신고서	-11.9218
우먼	-11.9218
▁사죄	-11.9219
플랜	-11.9221
▁취지	-11.9224
▁모술에서	-11.9226
▁보여주었다	-11.923
▁사랑한다	-11.9232
▁가든	-11.9233
▁샤리	-11.9236
▁페러	-11.9237
▁정하지	-11.9237
PR	-11.9237
▁입게	-11.924
▁싸우고	-11.9241
lan	-11.9246
▁경제팀	-11.9256
▁발견하게	-11.9257
슈아	-11.9258
▁메이어	-11.9259
▁갑작스러	-11.926
했어야	-11.9262
▁상원의원들	-11.9268
▁봐야	-11.9273
▁고소했다	-11.9275
▁상하이에서	-11.9275
▁구사하	-11.9275
블라	-11.9278
▁작품들	-11.9285
끌어냈다	-11.9287
▁제조업자	-11.9287
rop	-11.9288
▁전달하는	-11.9289
▁벤와	-11.9289
▁구성했다	-11.929
워졌다	-11.9294
▁도서	-11.9299
ves	-11.9301
웃	-11.9304
▁철로	-11.9304
▁매치	-11.9312
▁개헌안에	-11.9321
▁연안에서	-11.9322
▁ask	-11.9331
▁필리	-11.9335
▁작성했다	-11.9336
▁구역에서	-11.9341
▁자료들	-11.9347
▁물려	-11.9355
▁호프	-11.9355
▁알레	-11.9357
og	-11.9358
▁변기	-11.9372
▁재정비	-11.9377
▁적기	-11.9379
of	-11.938
▁분파	-11.938
▁어부들	-11.9382
▁인하했다	-11.9383
젤리	-11.9388
▁배치되어	-11.94
▁가파	-11.9401
▁무장괴한들	-11.9412
▁배심원들	-11.9413
▁디지	-11.9416
▁돌아가기	-11.9421
▁지상에서	-11.9425
▁기소장	-11.9426
▁코브	-11.9427
▁차트	-11.9427
▁주간지	-11.9435
▁도슨	-11.945
▁사퇴했다	-11.946
▁노스캐롤라이나에서	-11.9469
iden	-11.9474
▁대표자	-11.9476
▁일본측	-11.9482
▁수행하기	-11.949
▁부정했다	-11.949
▁보행	-11.9492
▁돌봐	-11.9497
▁봉쇄했다	-11.9498
▁포착했다	-11.9503
재산권	-11.9509
▁표준시	-11.9512
TS	-11.9518
▁상징인	-11.9519
▁평화롭	-11.9523
nel	-11.9529
론자	-11.9535
▁검사들	-11.9552
▁Ban	-11.9554
SL	-11.9555
▁보안국	-11.9558
▁확정했다	-11.9571
▁슈퍼대의원들	-11.9574
▁구입했다	-11.9575
▁회피	-11.9577
▁원만	-11.9586
▁인기있	-11.9588
▁나와있	-11.9592
▁제작됐다	-11.9594
▁연행했다	-11.9596
싸	-11.961
큐	-11.961
대장	-11.961
▁전해왔	-11.9611
봐	-11.9611
행동	-11.9614
Space	-11.9615
켄	-11.9616
졸	-11.9617
▁시설들	-11.9617
듀	-11.9618
낙	-11.9618
기상청	-11.9619
빅	-11.962
평균	-11.962
미사일	-11.9621
축구	-11.9622
리서치	-11.9623
▁중단하겠다	-11.9625
▁포로로	-11.9625
포인트	-11.9626
▁추측되	-11.9628
ier	-11.9631
등록	-11.9632
평화	-11.9632
▁지휘관들	-11.9633
소송	-11.9634
▁붕괴됐다	-11.9634
▁알프레	-11.9636
결정	-11.9636
보낼	-11.9641
조각	-11.9641
▁두려워하	-11.9643
▁제거했다	-11.9649
테오	-11.9649
다닐	-11.9652
ger	-11.9653
▁부족해	-11.9658
증세	-11.9662
쳐야	-11.9664
세워	-11.9668
▁멀어	-11.9671
▁취했	-11.9672
▁마련하는	-11.9679
불안	-11.9679
▁둔화되	-11.9682
드윈	-11.9682
수익	-11.9683
gle	-11.9686
▁참여하기	-11.9688
▁디나	-11.9692
▁전달하기	-11.9693
▁안전하다	-11.9705
▁OS	-11.971
▁서적	-11.9725
▁부과했다	-11.9727
▁배치된	-11.9731
each	-11.9735
▁끝났	-11.9736
▁환호하	-11.974
ble	-11.9743
▁대피하	-11.9746
▁남았	-11.9752
▁준결승전	-11.9758
▁쫓아	-11.9762
오브	-11.9769
tions	-11.9775
▁빠뜨	-11.9778
▁드러냈	-11.9779
▁떨어뜨	-11.9782
▁정당들	-11.9785
하원	-11.9785
▁심기	-11.9786
▁행성들	-11.9791
▁늘려	-11.9794
▁알래스카주	-11.9794
보르	-11.9795
▁실시됐	-11.9797
셉	-11.98
▁트래	-11.9802
뇨	-11.9802
뜯	-11.9802
▁lead	-11.9803
onsumer	-11.9803
▁경기부양	-11.9803
벳	-11.9803
▁비무장	-11.9804
▁Depart	-11.9804
▁Europe	-11.9804
퀘	-11.9804
▁Council	-11.9804
▁French	-11.9804
▁Group	-11.9804
▁Institute	-11.9804
▁Israel	-11.9804
▁NHK	-11.9804
▁Office	-11.9804
▁SARS	-11.9804
▁SNL	-11.9804
▁UCLA	-11.9804
▁Washington	-11.9804
▁capital	-11.9804
▁job	-11.9804
▁missile	-11.9804
▁가깝다	-11.9804
▁광저우	-11.9804
▁국제통화기금	-11.9804
▁나뭇가지	-11.9804
▁노스다코타	-11.9804
▁대북제재	-11.9804
▁댕기열	-11.9804
▁데이터베이스	-11.9804
▁도마뱀	-11.9804
▁동아시아	-11.9804
▁레오나르도	-11.9804
▁롤러코스터	-11.9804
▁만배럴	-11.9804
▁맨하탄	-11.9804
▁명확하지	-11.9804
▁무사콸라	-11.9804
▁묶어	-11.9804
▁밀워키	-11.9804
▁보궐선거	-11.9804
▁브래들리	-11.9804
▁사파테로	-11.9804
▁선글라스	-11.9804
▁선덜랜드	-11.9804
▁성폭력	-11.9804
▁세계경제포럼	-11.9804
▁스펙터	-11.9804
▁쌓아	-11.9804
▁아틀레티코	-11.9804
▁에두아르	-11.9804
▁여우주연상	-11.9804
▁연방준비은행	-11.9804
▁유럽중앙은행	-11.9804
▁융통성	-11.9804
▁이슬라미야	-11.9804
▁족자카르타	-11.9804
▁츠요시	-11.9804
▁캄푸쉬	-11.9804
▁캐시미르	-11.9804
▁코리아타임즈	-11.9804
▁코뿔소	-11.9804
▁코펜하겐	-11.9804
▁콴타스	-11.9804
▁클래식	-11.9804
▁클리브랜드	-11.9804
▁통합러시아당	-11.9804
▁트랜스포머	-11.9804
▁트럼프	-11.9804
▁파라마운트	-11.9804
▁파르베즈	-11.9804
▁프리미엄	-11.9804
▁해수욕장	-11.9804
▁휘두르	-11.9804
▁흘렀	-11.9804
텔레그래프	-11.9804
ready	-11.9804
▁change	-11.9804
▁week	-11.9804
▁노란색	-11.9804
▁무작위	-11.9804
▁불공평	-11.9804
▁서포터	-11.9804
▁스폰서	-11.9804
▁심사숙고	-11.9804
▁의사소통	-11.9804
▁인수합병	-11.9804
▁차이나데일리	-11.9804
▁천안문	-11.9804
무차관	-11.9804
축구대표팀	-11.9804
▁Green	-11.9804
▁냉소적	-11.9804
▁배기가스	-11.9804
▁알레르기	-11.9804
▁애국심	-11.9804
▁주일미군	-11.9804
간담회에서	-11.9804
▁MLS	-11.9804
▁poll	-11.9804
▁강렬한	-11.9804
▁레예스	-11.9804
▁복부비만	-11.9804
▁쓰러지	-11.9804
▁유니폼	-11.9804
▁친인척	-11.9804
▁카밀라	-11.9804
▁나르기스	-11.9804
▁조연상	-11.9804
▁짐바브웨아프리카민족	-11.9804
▁클래스	-11.9804
▁트레이너	-11.9804
▁안테나	-11.9804
▁백만장자	-11.9804
▁끼치지	-11.9804
▁왓슨	-11.9804
▁헬멧	-11.9804
▁오피스	-11.9804
▁욕실	-11.9804
▁에볼라	-11.9804
eneral	-11.9804
▁구덩이	-11.9804
▁리스본	-11.9804
▁스트립	-11.9804
▁그랜트	-11.9804
▁의정서	-11.9804
▁붐비는	-11.9804
▁손가락	-11.9804
▁Glob	-11.9804
▁Music	-11.9804
▁서부텍사스산	-11.9804
uff	-11.9804
▁이스트우드	-11.9804
▁만수르	-11.9804
▁장래에	-11.9804
▁클라우디	-11.9804
▁Centr	-11.9804
▁발리우드	-11.9804
▁물고문	-11.9804
▁트루먼	-11.9804
▁선두주자	-11.9804
▁혈압	-11.9804
▁bill	-11.9804
▁스코어	-11.9804
▁에어컨	-11.9804
▁현존하	-11.9804
▁징수	-11.9804
▁컨트리	-11.9804
▁슬럼	-11.9805
▁내보내	-11.9805
▁Rock	-11.9805
▁폭죽	-11.9805
▁휘둘	-11.9805
▁악몽	-11.9805
ould	-11.9805
▁집주인	-11.9805
▁깨뜨	-11.9805
▁곤봉	-11.9805
▁다이빙	-11.9805
▁데이비스컵	-11.9805
▁로하스	-11.9805
▁제주도	-11.9805
▁압축	-11.9805
▁give	-11.9805
▁free	-11.9806
▁rate	-11.9806
▁착각	-11.9806
▁혈통	-11.9806
▁차량폭탄테러	-11.9806
▁경범죄	-11.9806
▁전자제품	-11.9806
NSC	-11.9806
▁선거운동본부	-11.9806
▁세계무역센터	-11.9806
▁언더파	-11.9806
▁과격단체	-11.9806
▁open	-11.9806
▁장병들	-11.9806
▁니켈	-11.9806
▁학습	-11.9806
▁비서관	-11.9807
▁ATP	-11.9807
ility	-11.9807
▁추락사고	-11.9807
▁행정장관	-11.9807
▁바이올	-11.9807
▁권좌	-11.9807
▁움직여	-11.9807
▁toward	-11.9807
▁타깃	-11.9807
▁음란	-11.9807
▁글로브	-11.9807
▁라마디	-11.9807
▁출품	-11.9807
▁브랜슨	-11.9807
▁독살	-11.9807
▁보호구역	-11.9807
▁클로버	-11.9808
▁지켜볼	-11.9808
▁심각해지	-11.9808
▁행해지	-11.9808
▁왕립	-11.9808
▁교도관	-11.9808
▁한계선	-11.9808
▁Out	-11.9808
▁상여금	-11.9809
▁충실	-11.9809
▁관습	-11.9809
▁부흥	-11.9809
첸코	-11.9809
▁미시시피강	-11.9809
▁스몰	-11.9809
▁가리키	-11.9809
▁주가지수	-11.9809
ave	-11.9809
▁특별검사	-11.9809
▁신탁	-11.9809
▁자금지원	-11.9809
▁관절	-11.981
▁치욕	-11.981
▁붉은색	-11.981
▁아시안	-11.981
▁실용적	-11.981
▁헬러	-11.981
▁Big	-11.9811
▁유로스타	-11.9811
▁낙타	-11.9811
▁휩쓸려	-11.9811
▁특검	-11.9811
▁출구	-11.9812
▁평화회담	-11.9812
▁짐작	-11.9812
▁올라있다	-11.9812
▁사흘	-11.9812
▁소멸	-11.9812
▁계란	-11.9812
▁떠올리	-11.9813
▁도킹	-11.9813
▁대선결과	-11.9813
▁접경	-11.9813
▁적합하지	-11.9813
▁삼판	-11.9814
▁피해규모	-11.9814
▁능가	-11.9814
▁소방서장	-11.9814
▁쏘아	-11.9814
▁솔라나	-11.9814
▁선거결과	-11.9815
▁목재	-11.9815
▁항목	-11.9816
▁테너	-11.9816
▁영공	-11.9816
▁채팅	-11.9816
▁move	-11.9816
▁메릴랜드주	-11.9816
▁변함	-11.9816
▁도망치	-11.9817
▁양봉	-11.9817
▁소변	-11.9817
▁조별	-11.9817
▁종족	-11.9817
▁태형	-11.9818
▁Op	-11.9818
▁친근	-11.9818
공간	-11.9818
▁오존	-11.9818
▁수상작	-11.9819
▁신변	-11.9819
▁갈색	-11.9819
▁드물게	-11.9819
▁온건	-11.982
▁세르비아계	-11.982
▁길거리	-11.9821
▁천만원	-11.9821
▁털어	-11.9822
water	-11.9822
▁진학	-11.9822
▁파열	-11.9822
▁모빌	-11.9822
▁쇼핑센터	-11.9823
▁무관	-11.9823
▁커져	-11.9823
▁청구했다	-11.9824
▁코메	-11.9824
▁다수당	-11.9824
▁외교위원회	-11.9824
▁실험실	-11.9824
▁열망	-11.9825
▁전국위원회	-11.9825
▁집행위원회	-11.9826
▁우울	-11.9827
▁셸	-11.9827
▁Ho	-11.9827
▁코스타	-11.9828
▁앉아서	-11.9828
tent	-11.9829
▁leg	-11.983
▁치유	-11.983
▁댄스	-11.983
▁소탕하기	-11.983
▁군당국	-11.9831
▁버티	-11.9831
▁클린트	-11.9832
▁테러사건	-11.9833
▁청구서	-11.9833
▁유래	-11.9833
▁내몰	-11.9833
▁확고히	-11.9833
▁바람직하다	-11.9834
▁웬디	-11.9834
▁우유	-11.9834
▁기장	-11.9835
▁산출	-11.9835
▁실형	-11.9837
▁지낼	-11.9838
▁철수시킬	-11.9838
▁합성	-11.9838
▁반입	-11.9838
▁구입하는	-11.9839
▁가르쳐	-11.9839
▁특유	-11.984
▁헤비	-11.984
▁모터스	-11.9842
▁총탄	-11.9842
▁시설물	-11.9843
▁추측된다	-11.9843
▁vote	-11.9843
▁현명하	-11.9843
▁뒷받침할	-11.9844
▁쓰러졌다	-11.9844
▁싸운	-11.9845
▁버니	-11.9845
▁백명	-11.9845
노브	-11.9845
▁석방하라	-11.9845
▁국교	-11.9845
▁쫓아내	-11.9846
▁원료	-11.9846
▁파병군	-11.9847
▁되어있다	-11.9851
▁원작	-11.9851
▁우선시	-11.9852
▁논리	-11.9854
▁담보	-11.9855
▁불신	-11.9855
▁미끄러지	-11.9856
▁보내야	-11.9858
▁카라다	-11.9858
▁아론	-11.9859
omen	-11.9859
▁모리스	-11.986
▁피랍자	-11.9861
▁여신	-11.9862
▁날조	-11.9862
▁탄력	-11.9863
pt	-11.9865
▁안경	-11.9866
▁도처에	-11.9867
▁니콜슨	-11.9869
▁로이드	-11.9871
▁훔쳤	-11.9872
▁유린	-11.9873
▁있으면	-11.9874
▁기뻐했다	-11.9874
▁인신	-11.9875
▁개입하지	-11.9876
▁검찰관	-11.9877
▁밝혀내지	-11.9878
▁선거위원회	-11.988
▁마리오	-11.9881
큐리	-11.9881
▁원더	-11.9882
▁초보	-11.9884
▁불확실한	-11.9884
▁함자	-11.9885
▁기조	-11.9885
▁전망된다	-11.9886
▁찬스	-11.9886
▁게재했다	-11.9887
▁추측했다	-11.9888
▁실시하는	-11.9889
▁흥미롭	-11.9893
▁알약	-11.9894
▁외곽지역	-11.9899
추어	-11.9899
▁온스	-11.9906
▁후송됐다	-11.9907
▁나타낸다	-11.9908
▁화학적	-11.9908
▁중부지역	-11.9909
▁방일	-11.9909
▁예측하기	-11.9912
▁기본스	-11.9912
▁공보	-11.9917
▁주장하면서	-11.992
▁맺었	-11.992
▁기여했다	-11.992
▁풀기	-11.9921
▁입성	-11.9921
▁묘사하고	-11.9921
드리스	-11.9922
▁여행객들이	-11.9922
▁쏟아지	-11.9923
▁마디	-11.9926
▁농지	-11.9927
▁발생했었다	-11.9927
타이거	-11.993
▁중독자	-11.993
첼로	-11.9932
▁경신했다	-11.9936
▁인체에	-11.9936
▁주저	-11.9939
▁방법이라고	-11.9939
▁세무	-11.994
▁다투	-11.9945
▁현재로서	-11.9945
▁만두	-11.9946
▁후원자	-11.9948
▁사바	-11.995
▁보고타	-11.995
▁배치했다	-11.995
▁솔로	-11.9951
▁기상학자	-11.9955
▁말하면	-11.9956
▁바꾸어	-11.9958
▁맥스	-11.9959
소식	-11.996
▁살펴보	-11.9962
▁육박	-11.9963
▁Good	-11.9976
▁넘치	-11.9977
▁연구센터	-11.9978
인구가	-11.9978
▁나쁘지	-11.9979
▁절대적	-11.9984
▁공제	-11.9987
▁제명	-11.9987
▁통근자들	-11.9988
▁사회자	-11.9989
▁선사	-11.999
▁이둘	-11.9992
▁상징하	-11.9995
▁fr	-11.9998
▁타오	-12
▁성당에서	-12.0002
less	-12.0003
▁확실시되	-12.0003
▁오크	-12.0003
▁검문소에서	-12.0007
▁생산국	-12.0007
▁오래전	-12.0008
▁설명하는	-12.001
▁공판에서	-12.0012
러드	-12.0014
▁달성하기	-12.0017
▁촉발됐다	-12.0017
ony	-12.0018
▁가담했다	-12.0022
전문가들	-12.0025
▁막사	-12.0026
▁낮다	-12.0027
느린	-12.0027
▁경제학자인	-12.0029
▁사람이었다	-12.0046
▁만들려	-12.0055
▁골프장	-12.0061
▁실장	-12.0063
스버그	-12.0064
▁조야	-12.0064
▁유명해	-12.0064
▁치르기	-12.0069
▁바보	-12.007
▁잠정적	-12.0071
▁주중	-12.0073
▁기관사	-12.0077
무대	-12.0078
ON	-12.0079
▁국제공항에서	-12.0083
▁피살됐다	-12.0084
▁팔기	-12.0084
▁세워졌	-12.0084
▁드러	-12.0092
▁고려해야	-12.0093
▁회복되	-12.0102
▁내린다	-12.0106
▁오염된	-12.0113
▁선생님	-12.0122
오차	-12.0122
▁이슬람인들	-12.0125
테드	-12.0126
▁개발도상국들	-12.0137
▁출두했다	-12.0139
▁금융기관	-12.0141
▁질문들	-12.0141
치오	-12.0141
▁마니	-12.0142
▁회기	-12.0145
하더라	-12.0146
▁혁신	-12.0147
▁학부모	-12.015
통계국	-12.0159
▁허락했다	-12.016
▁블로거들	-12.0161
▁학교측	-12.0166
▁제안했	-12.0174
▁마린	-12.0187
▁지불해야	-12.019
▁Jon	-12.0194
HP	-12.0196
▁체포되	-12.0196
▁올리기	-12.0199
▁강화해	-12.0206
▁ve	-12.0209
▁Che	-12.0214
▁엔지니어들	-12.0215
▁대항해	-12.0215
▁개별적	-12.0215
극적으로	-12.0215
▁소비자에게	-12.0221
▁위주	-12.0224
▁용이하	-12.0233
▁훈련시키	-12.0235
▁지정했다	-12.0244
▁순찰차	-12.0252
▁중단한다	-12.0267
▁발효된	-12.0269
▁돌려받	-12.0286
den	-12.0288
라이츠	-12.029
▁조합원들	-12.0296
▁Lo	-12.0297
▁장갑차	-12.031
▁자랑스럽	-12.0319
▁도착하기	-12.0322
▁보수적	-12.0324
▁SI	-12.0327
▁서머	-12.0341
▁개발자들	-12.0344
▁거라	-12.0347
ound	-12.0354
▁예일대	-12.0356
▁문화부	-12.0363
▁납치하려	-12.0373
▁잠정	-12.0379
▁로비스트	-12.0386
▁연결되	-12.039
dle	-12.0393
ath	-12.0406
놓는다	-12.0407
르모	-12.0409
▁간호사들	-12.0413
▁청중들	-12.0422
▁무기들	-12.0425
▁복귀했다	-12.0427
▁트랜	-12.0427
▁투입되	-12.0431
▁증명했다	-12.0432
쉽	-12.0434
▁br	-12.0441
▁동의하지	-12.0442
▁시민단체들	-12.0445
낭	-12.0445
▁연결시키	-12.0445
아버지	-12.0447
흙	-12.0448
따	-12.0448
▁대변하는	-12.045
헬	-12.0451
덜	-12.0452
쓸	-12.0452
싸움	-12.0452
딸	-12.0453
끝	-12.0454
오바마	-12.0454
▁취하겠다	-12.0456
▁옐	-12.0464
쉽게	-12.0465
▁스파	-12.0466
라디오	-12.0467
교류	-12.0467
분석	-12.0468
나이트	-12.0469
예산	-12.0474
▁순례객	-12.0475
성향	-12.0477
명령	-12.0478
공개	-12.0481
출신	-12.0484
파업	-12.0485
▁스캔	-12.0486
▁중소기업	-12.0493
방문	-12.0495
대변인	-12.0499
하락	-12.0501
▁제거하고	-12.0501
▁도착한다	-12.0503
▁안토니	-12.0516
▁양심	-12.0521
라피	-12.0522
국제	-12.0543
▁진행됐	-12.0552
▁반대자들	-12.056
스토어	-12.0562
▁옮겨졌	-12.0566
▁자원봉사	-12.0567
수입	-12.0567
▁추종	-12.0577
▁멀지	-12.058
▁항공사들	-12.0581
신형	-12.0584
▁흑인들	-12.0586
▁예정됐	-12.0586
▁윌리암	-12.0599
▁정해졌	-12.0601
▁기쁘	-12.0604
ift	-12.0614
▁노렸	-12.062
카노	-12.062
▁수행한다	-12.0621
▁외무	-12.0621
▁attack	-12.0626
▁틀림없	-12.0629
봇	-12.0631
붕	-12.0631
▁증권거래	-12.0634
▁봉사단	-12.0635
늄	-12.0635
▁이용되	-12.0635
섹	-12.0636
▁trans	-12.0637
▁동물보호	-12.0637
▁프리미어	-12.0637
횡	-12.0637
▁stud	-12.0637
▁네델란드	-12.0637
▁밝아	-12.0637
▁앓았	-12.0637
▁행방불명	-12.0637
엉	-12.0637
▁Auto	-12.0637
▁Clinton	-12.0637
▁Committee	-12.0637
▁EMI	-12.0637
▁Federal	-12.0637
▁Foundation	-12.0637
▁IPCC	-12.0637
▁KCNA	-12.0637
▁Little	-12.0637
▁NLD	-12.0637
▁School	-12.0637
▁TGV	-12.0637
▁announce	-12.0637
▁envoy	-12.0637
▁expresse	-12.0637
▁hostage	-12.0637
▁police	-12.0637
▁politic	-12.0637
▁가브리엘	-12.0637
▁공영방송	-12.0637
▁구테레스	-12.0637
▁굶주림	-12.0637
▁까다로운	-12.0637
▁꺾었다	-12.0637
▁난투극	-12.0637
[...]
