<unk>	0
<s>	0
</s>	0
▁	-3.28273
.	-3.42369
을	-3.8646
의	-3.92655
에	-4.18511
이	-4.22932
를	-4.3105
는	-4.33318
가	-4.44647
은	-4.54748
,	-4.63725
고	-4.63854
에서	-4.96884
로	-5.05362
한	-5.08815
▁“	-5.26279
인	-5.26522
”	-5.30659
일	-5.33936
과	-5.42737
)	-5.43577
(	-5.43972
▁이	-5.51496
으로	-5.58664
지	-5.60941
와	-5.6129
▁있다	-5.66371
도	-5.72962
▁수	-5.73496
할	-5.77068
다	-5.85067
했다	-5.85759
▁밝혔다	-5.89113
▁말했다	-5.91103
년	-5.93983
하고	-5.94148
하는	-6.0671
리	-6.07228
기	-6.08917
▁있는	-6.09519
▁전	-6.14118
스	-6.15693
▁그	-6.16345
자	-6.17174
며	-6.18946
해	-6.21714
▁2	-6.29646
▁그는	-6.30247
▁1	-6.3072
만	-6.33234
▁대한	-6.39399
된	-6.40191
▁위해	-6.41449
월	-6.41529
▁미국	-6.47999
▁전했다	-6.48178
▁3	-6.51463
▁미	-6.523
▁중	-6.53382
▁한	-6.5362
사	-6.5496
▁이번	-6.55473
시	-6.55808
▁지난	-6.57153
현지시간	-6.58883
라	-6.59345
어	-6.61743
에게	-6.64204
나	-6.6605
주	-6.66155
▁대해	-6.66991
"	-6.68233
s	-6.70297
게	-6.71414
트	-6.72195
▁것으로	-6.74035
▁‘	-6.75084
드	-6.76925
대	-6.77281
명이	-6.78719
▁것	-6.79636
▁것이라고	-6.79653
이라고	-6.80938
▁주	-6.81625
▁"	-6.82447
르	-6.83197
들이	-6.83425
▁4	-6.84753
수	-6.85652
▁있다고	-6.86025
아	-6.87144
하기	-6.87454
▁것을	-6.89224
세	-6.89693
상	-6.90286
서	-6.92115
▁이라크	-6.92122
히	-6.93117
▁6	-6.93186
부	-6.93855
적인	-6.9427
’	-6.94692
하지	-6.95243
▁5	-6.95383
운	-6.96642
치	-6.98572
▁더	-6.99607
원	-6.99708
▁그러나	-6.99907
들은	-6.99994
▁대통령	-7.00098
▁다른	-7.04047
하게	-7.04142
명	-7.06506
▁중국	-7.07295
적	-7.076
비	-7.10164
라고	-7.10391
프	-7.11415
▁한편	-7.12946
전	-7.13011
▁10	-7.13051
소	-7.13158
▁바	-7.13461
▁내	-7.13612
던	-7.13642
장	-7.14603
e	-7.15246
성	-7.15927
▁북한	-7.16158
▁후	-7.17553
-	-7.18172
정	-7.18741
명의	-7.18787
됐다	-7.21874
니	-7.21896
미	-7.22345
▁이후	-7.23502
했다고	-7.24361
▁한국	-7.24553
▁정부	-7.25356
선	-7.25365
▁영국	-7.25483
▁아	-7.26024
오	-7.26345
크	-7.26367
▁7	-7.27155
화	-7.27799
마	-7.28369
▁통해	-7.28618
면	-7.28767
▁알	-7.29011
보	-7.29066
▁등	-7.30131
분	-7.31234
국	-7.31652
▁많은	-7.31752
▁두	-7.31816
▁또	-7.3212
이다	-7.32421
될	-7.32497
▁위한	-7.32747
▁대통령은	-7.33123
▁제	-7.33211
▁일	-7.34041
야	-7.34413
진	-7.34437
▁8	-7.34488
위	-7.34801
▁부시	-7.35046
▁유	-7.35601
바	-7.3569
▁가장	-7.37188
하	-7.37555
까지	-7.38108
▁동안	-7.38605
▁비	-7.38713
▁같은	-7.39872
▁것이다	-7.39902
제	-7.40117
당	-7.41132
▁대변인은	-7.41262
▁지	-7.41636
하며	-7.42415
에는	-7.42725
개	-7.43698
▁문제	-7.43802
조	-7.44392
들을	-7.45571
즈	-7.46118
▁대	-7.46161
▁약	-7.46327
▁나	-7.46598
디	-7.47047
했으며	-7.48126
▁세계	-7.48838
▁시	-7.48996
파	-7.49991
▁말	-7.50186
▁주장했다	-7.50593
▁부	-7.51315
▁오바마	-7.52137
▁보	-7.5216
▁사	-7.52609
▁19	-7.52884
내	-7.53128
▁때	-7.5326
▁조사	-7.53474
▁될	-7.53858
▁정	-7.53996
우	-7.54099
▁것은	-7.54183
o	-7.5432
▁일본	-7.54386
▁공격	-7.55091
▁영화	-7.55424
▁또한	-7.56178
▁뒤	-7.56197
적으로	-7.56238
▁한다	-7.5642
타	-7.57094
권	-7.57707
▁오	-7.57764
▁12	-7.57772
▁현재	-7.57971
▁관련	-7.58068
단	-7.58666
▁할	-7.5901
▁9	-7.59117
▁것이	-7.59189
간	-7.5924
▁경제	-7.59572
▁최근	-7.59605
▁경우	-7.60612
▁보도했다	-7.6071
들	-7.6114
▁이상	-7.61384
▁덧붙였다	-7.61792
구	-7.62005
▁마	-7.62055
▁무	-7.62376
▁않았다	-7.62656
▁있었다	-7.62859
및	-7.62927
레	-7.62957
여	-7.62965
식	-7.6321
티	-7.63395
에서는	-7.63465
그	-7.63863
차	-7.64299
▁안	-7.64679
▁불	-7.64744
▁반	-7.64908
회	-7.6555
려	-7.65781
d	-7.6596
용	-7.6614
한다	-7.66146
했던	-7.66392
a	-7.66456
'	-7.66951
러	-7.67337
▁국가	-7.67412
하다	-7.67614
유	-7.68352
▁11	-7.68704
계	-7.68741
▁하	-7.68928
▁일부	-7.69047
었다	-7.69049
▁20	-7.69098
2	-7.69517
▁기	-7.69696
▁해	-7.70193
▁자신의	-7.70263
약	-7.70737
▁공	-7.71836
노	-7.728
▁새로	-7.72912
▁함께	-7.73185
▁거	-7.73442
A	-7.74863
▁당시	-7.75459
신	-7.7553
관	-7.75677
브	-7.75688
▁조	-7.76181
▁다	-7.76325
모	-7.76651
▁'	-7.76687
물	-7.76882
▁계속	-7.76929
카	-7.7723
안	-7.77553
린	-7.77983
▁모든	-7.78025
▁그리고	-7.78065
▁재	-7.78309
방	-7.78464
▁후보	-7.78501
▁했다	-7.78897
▁없다	-7.79161
실	-7.79255
S	-7.79312
군	-7.79513
▁파	-7.79761
직	-7.79794
▁때문에	-7.79843
보다	-7.8
m	-7.8028
점	-7.80382
1	-7.80885
▁미군	-7.81032
무	-7.8116
코	-7.81566
▁파키스탄	-7.81708
▁예정이다	-7.82182
해야	-7.82432
t	-7.82599
▁수도	-7.82658
호	-7.83513
억	-7.83548
▁신	-7.83646
문	-7.83693
▁프랑스	-7.83831
▁모두	-7.83989
▁있습니다	-7.8408
▁지원	-7.84137
▁설명했다	-7.84245
▁상	-7.84401
▁몇	-7.85147
▁결과	-7.85217
▁러시아	-7.85587
▁계획	-7.86229
▁있으며	-7.86324
▁자	-7.8645
▁경찰	-7.86452
▁이스라엘	-7.86611
체	-7.86749
▁구	-7.86913
3	-7.87478
산	-7.875
▁경찰은	-7.87559
토	-7.87956
▁지역	-7.88685
▁클린턴	-7.89229
질	-7.8934
u	-7.89881
▁유엔	-7.89953
동	-7.90598
▁세	-7.90974
▁정부는	-7.9104
▁민주당	-7.91757
▁피	-7.9185
데	-7.92016
▁테러	-7.92893
▁큰	-7.93146
▁강	-7.93405
▁우리	-7.93494
▁사고	-7.9369
y	-7.93744
경	-7.93785
▁카	-7.93938
▁모	-7.93941
▁결정	-7.94299
▁군	-7.94757
▁여성	-7.94835
▁30	-7.95773
▁달러	-7.95909
들의	-7.96051
▁연구	-7.96106
▁선거	-7.96741
▁데	-7.96764
▁성	-7.96953
감	-7.97093
명을	-7.97197
되는	-7.97558
▁지난해	-7.97721
법	-7.9784
학	-7.97945
▁핵	-7.98276
에따르면	-7.98311
▁이들	-7.98365
i	-7.98489
▁도	-7.98741
에도	-7.98848
▁시작	-7.98954
▁않을	-7.99009
c	-7.99313
더	-7.99357
피	-7.99774
▁열린	-7.99986
▁초	-7.99991
했습니다	-8.00336
▁줄	-8.00538
▁발표	-8.00798
▁방문	-8.00847
공	-8.01217
▁경기	-8.01348
▁대통령이	-8.01697
연	-8.01758
버	-8.01811
n	-8.0211
이나	-8.02179
중	-8.02204
▁이란	-8.02206
▁올해	-8.02749
으며	-8.03131
▁노	-8.03674
라는	-8.04375
▁발생한	-8.04548
▁양	-8.0472
▁있을	-8.048
▁이날	-8.04868
▁배	-8.04983
▁총리는	-8.05183
C	-8.05199
행	-8.05263
력	-8.05712
▁the	-8.06096
루	-8.06131
키	-8.06207
▁발표했다	-8.06706
▁당	-8.06788
시간	-8.06837
▁총	-8.06955
▁물	-8.06987
교	-8.07283
란	-8.07833
▁15	-8.08284
▁소	-8.08724
▁하는	-8.08955
▁받고	-8.09002
지만	-8.09059
포	-8.09265
▁시위	-8.09296
▁달	-8.09312
▁스	-8.10031
살	-8.10107
▁회담	-8.10783
들에게	-8.10875
석	-8.11009
▁실	-8.11337
하면서	-8.11363
설	-8.11542
▁채	-8.11566
▁총리	-8.11642
▁국제	-8.1167
▁존	-8.11719
터	-8.11748
▁외	-8.11926
l	-8.12548
심	-8.12579
▁리	-8.13113
재	-8.13579
▁서	-8.13667
▁발	-8.13775
되고	-8.13864
▁관계	-8.13877
▁to	-8.13933
P	-8.13966
▁유럽	-8.14369
▁가운데	-8.14685
길	-8.14696
▁피해	-8.15084
▁원	-8.15265
▁미국의	-8.15458
난	-8.15578
하여	-8.15655
▁A	-8.16039
▁아프간	-8.16119
▁협상	-8.16319
▁조치	-8.16623
▁기록	-8.16874
종	-8.16931
▁포	-8.17077
▁16	-8.17138
역	-8.17299
▁주장	-8.17369
6	-8.17416
▁첫	-8.17568
▁(	-8.17953
▁간	-8.18021
▁라	-8.18144
면서	-8.18564
▁S	-8.18772
▁의해	-8.1884
▁시장	-8.18855
D	-8.18887
▁타	-8.18987
▁개	-8.19106
▁아이	-8.19134
워	-8.19341
▁인도	-8.19431
▁주요	-8.19627
▁사람들이	-8.19634
다고	-8.19697
▁18	-8.19734
▁된다	-8.19792
▁사건	-8.1983
든	-8.19843
▁매	-8.19855
.”	-8.1991
▁입	-8.19915
부터	-8.19921
▁정부가	-8.20084
건	-8.20181
달러	-8.20211
▁프로그램	-8.20282
임	-8.20308
래	-8.20526
▁차	-8.20624
▁메	-8.20717
M	-8.20763
▁내용	-8.2087
r	-8.20885
▁다시	-8.21198
)’	-8.21343
요	-8.21356
▁감독	-8.21899
ing	-8.21959
▁인해	-8.2202
되어	-8.221
5	-8.22123
▁차량	-8.22311
▁승리	-8.2235
형	-8.22549
▁보고	-8.22879
입니다	-8.23028
▁코	-8.2342
▁않은	-8.24099
▁of	-8.24266
▁회사	-8.24319
▁동	-8.24615
였다	-8.24755
▁13	-8.24943
▁투표	-8.25012
▁열	-8.251
론	-8.25196
거	-8.25848
돼	-8.25849
▁경	-8.26024
두	-8.26475
▁혐의로	-8.26527
p	-8.26528
ed	-8.26588
▁있다는	-8.26794
번	-8.26934
네	-8.27276
er	-8.27599
▁어	-8.27888
▁우	-8.28218
7	-8.2822
발	-8.28355
▁활동	-8.28399
▁혐의	-8.28445
배	-8.28515
▁지지	-8.28624
▁시간	-8.2878
▁반대	-8.28828
반	-8.29148
▁독일	-8.29286
▁중단	-8.29332
▁예정	-8.29377
▁전쟁	-8.29459
되지	-8.29618
▁생각	-8.2972
▁합의	-8.29776
품	-8.30042
들과	-8.3022
▁상원의원	-8.30352
▁명	-8.3039
▁산	-8.30418
▁하고	-8.3108
▁이미	-8.31286
g	-8.31352
▁선	-8.31499
▁대학	-8.31586
저	-8.31594
▁위	-8.31734
▁14	-8.31735
▁호주	-8.31747
▁됐다	-8.31915
km	-8.32221
▁위치한	-8.32248
▁대선	-8.32571
▁받았다	-8.32573
▁이용	-8.32588
▁관리	-8.32781
▁뉴욕	-8.32827
▁탈레반	-8.33112
장은	-8.33244
▁상태	-8.33285
▁우려	-8.33316
민	-8.3332
년간	-8.33579
▁팔레스타인	-8.3388
했지만	-8.3416
스트	-8.34292
▁W	-8.34353
▁없는	-8.34507
습니다	-8.34653
▁in	-8.3477
병	-8.34796
▁여러	-8.35069
▁페	-8.35165
▁우주	-8.35418
▁호	-8.35499
▁석방	-8.35592
청	-8.35782
▁최고	-8.36092
▁부상	-8.36112
▁아직	-8.36243
에따라	-8.36476
▁조지	-8.36498
▁여	-8.36591
/	-8.36663
▁TV	-8.36924
너	-8.37563
▁소속	-8.37642
이라며	-8.37823
▁잘	-8.38237
급	-8.38354
작	-8.38379
로부터	-8.38418
▁추가	-8.38531
4	-8.38688
I	-8.38848
▁사실을	-8.39046
▁25	-8.39291
됐다고	-8.39319
▁위협	-8.3948
이며	-8.39536
▁연	-8.39679
▁폭탄	-8.39757
▁이어	-8.39887
료	-8.39919
▁매케인	-8.40048
속	-8.40061
▁가족	-8.4007
al	-8.40118
▁관계자는	-8.40306
▁손	-8.40591
▁점	-8.4062
지는	-8.40742
▁않고	-8.40945
▁단	-8.41006
▁사용	-8.41011
or	-8.41103
▁확인	-8.41281
▁노력	-8.41414
▁17	-8.41486
▁포함	-8.41495
달	-8.41577
▁많	-8.41669
판	-8.41676
릴	-8.41868
▁방송	-8.41868
▁인터넷	-8.42132
E	-8.42144
▁지적했다	-8.42217
▁''	-8.42253
▁레	-8.423
f	-8.43071
류	-8.4313
▁저	-8.43292
▁지금	-8.43351
▁한다고	-8.43364
▁도시	-8.43416
통	-8.43424
▁이슬람	-8.43688
▁남부	-8.43914
?	-8.43921
▁판매	-8.43997
금	-8.44105
▁비난	-8.44321
▁인근	-8.44322
▁적	-8.44371
출	-8.44427
▁정치	-8.44528
친	-8.44823
▁매우	-8.44841
명은	-8.44879
ar	-8.44948
범	-8.44997
▁사이	-8.45098
했었다	-8.45343
▁폭발	-8.45346
T	-8.45402
▁C	-8.45486
▁사람	-8.45573
천	-8.45628
▁올림픽	-8.45814
an	-8.45931
▁하나	-8.45998
▁기술	-8.46003
▁버	-8.46184
▁개발	-8.46285
▁당국은	-8.46359
온	-8.46375
▁보도	-8.46389
▁새	-8.46393
스는	-8.46439
▁입장	-8.46465
▁대부분	-8.46469
▁김	-8.46658
▁발견	-8.46951
▁사망	-8.47316
▁B	-8.47419
▁증가	-8.4748
▁장	-8.47626
▁반군	-8.47635
개월	-8.47902
양	-8.47932
량	-8.47954
N	-8.48183
슨	-8.48228
en	-8.48389
%	-8.4844
▁없다고	-8.48442
생	-8.48473
메	-8.48622
된다	-8.48684
했고	-8.48868
F	-8.48942
▁정책	-8.4899
▁올	-8.49203
▁받은	-8.49285
▁감	-8.49384
▁살	-8.49389
K	-8.4955
▁자동차	-8.49657
▁2006	-8.49821
처럼	-8.49924
되었다	-8.49949
▁볼	-8.50123
▁않는다	-8.50157
▁못했다	-8.5024
츠	-8.50391
▁명의	-8.50756
▁100	-8.50817
립	-8.50954
증	-8.51003
위원회	-8.51088
▁준비	-8.51323
▁남	-8.51575
강	-8.51635
▁이는	-8.51925
클	-8.52154
▁연방	-8.52198
▁루	-8.52367
▁24	-8.52516
▁남자	-8.52517
▁성명	-8.52765
▁날	-8.52823
▁어떤	-8.52934
편	-8.52976
▁생산	-8.52977
베	-8.53072
▁발생	-8.53274
▁P	-8.53407
했으나	-8.53496
▁오늘	-8.5352
▁금융	-8.53591
결	-8.53747
▁건물	-8.53924
▁집	-8.53957
▁기자	-8.54034
탄	-8.54293
B	-8.54362
울	-8.54549
▁앞	-8.54622
▁이름	-8.54731
▁하지만	-8.54799
▁있던	-8.54799
이었다	-8.54841
개의	-8.54942
▁21	-8.54953
▁오후	-8.55236
▁본	-8.55594
▁지도자	-8.55719
8	-8.55737
▁해결	-8.55833
색	-8.5619
▁교	-8.5624
▁언론	-8.56386
h	-8.56448
▁베	-8.56581
▁방	-8.56608
▁당국	-8.56759
▁제작	-8.56851
▁의사	-8.57034
▁평화	-8.57086
▁방법	-8.5709
블	-8.57197
▁심	-8.57205
하기로	-8.57272
▁50	-8.57368
▁검찰	-8.57683
날	-8.57814
O	-8.57864
G	-8.58128
▁23	-8.58152
하는데	-8.58153
▁27	-8.58265
▁미얀마	-8.58567
▁자신	-8.58794
▁법원	-8.5888
▁변화	-8.5894
▁앞서	-8.59143
▁공개	-8.59211
▁필요	-8.5937
▁행사	-8.59422
▁안전	-8.5944
▁대표	-8.59516
복	-8.59536
와의	-8.59618
▁북부	-8.5977
▁있어	-8.60018
▁법	-8.60026
▁22	-8.6029
는데	-8.60303
▁보호	-8.60312
격	-8.60456
▁토	-8.60602
▁아시아	-8.61115
처	-8.61135
▁치료	-8.61139
▁인터뷰에서	-8.61181
절	-8.61197
▁병원	-8.61217
졌다	-8.61528
▁종	-8.61536
▁이에	-8.61583
▁컴퓨터	-8.61818
:	-8.62054
▁강조했다	-8.62171
▁다음	-8.62175
기를	-8.62262
▁상승	-8.62323
▁분	-8.62769
▁단체	-8.62776
▁갖고	-8.6282
각	-8.62844
예	-8.62867
지역	-8.62992
▁이러	-8.63006
영	-8.63139
▁그들은	-8.63276
▁살해	-8.63278
▁처음	-8.63286
▁공화당	-8.63364
▁하지	-8.63628
▁백악관	-8.63631
층	-8.63725
▁현	-8.63745
▁들어	-8.63781
▁M	-8.63806
▁떨어진	-8.63966
▁치	-8.64181
언	-8.64247
▁것에	-8.6431
▁요구	-8.64366
▁학교	-8.64422
▁힐러리	-8.6445
렌	-8.64667
▁원문기사보기	-8.64692
▁있도록	-8.647
▁건강	-8.64708
▁2005	-8.64867
▁추	-8.64982
▁오전	-8.64986
▁사태	-8.65276
팀	-8.65403
▁마지막	-8.65424
▁거래	-8.65507
▁조직	-8.65615
투	-8.65776
합	-8.65844
▁비난했다	-8.66105
▁여행	-8.66117
져	-8.66208
하도록	-8.66214
▁논의	-8.66347
▁정보	-8.66585
▁터키	-8.66631
▁발언	-8.66687
▁금지	-8.66812
▁상황	-8.67134
▁가진	-8.67161
▁지구	-8.67284
▁만	-8.67418
▁북한이	-8.67457
테	-8.67647
▁은행	-8.67839
집	-8.67882
▁경찰이	-8.67915
▁T	-8.68283
이라는	-8.68318
in	-8.68415
▁오는	-8.68469
▁최대	-8.685
▁납치	-8.68674
▁요청	-8.68863
하면	-8.69093
▁미국과	-8.69127
▁팀	-8.69132
업	-8.6916
하자	-8.69301
됐	-8.6941
▁진행	-8.69684
▁처음으로	-8.6982
거나	-8.69861
▁장관은	-8.70009
▁자신이	-8.70349
▁연기	-8.70371
▁그녀	-8.70468
▁그녀는	-8.70483
▁진	-8.70516
L	-8.70656
▁충돌	-8.70706
▁판결	-8.70715
▁출신	-8.70729
▁막	-8.70759
망	-8.70849
으로부터	-8.70898
and	-8.70905
번째	-8.70983
▁사회	-8.70995
▁버락	-8.7124
▁이를	-8.7129
▁규모	-8.71337
▁온	-8.71506
퍼	-8.71548
열	-8.71619
▁지난달	-8.71666
머	-8.71707
▁불법	-8.7184
됐으며	-8.71977
▁생	-8.7198
▁a	-8.7199
▁용의자	-8.72042
▁F	-8.72172
▁없었다	-8.72187
▁D	-8.7226
▁행동	-8.72289
▁이탈리아	-8.72301
▁친	-8.72459
▁최소	-8.7248
▁26	-8.7261
▁40	-8.7285
on	-8.72865
▁보내	-8.72972
▁결	-8.7301
▁국민	-8.73081
▁자금	-8.7338
리는	-8.73551
▁성공	-8.73662
▁있지만	-8.73687
▁유지	-8.73728
▁난	-8.73738
▁앞으로	-8.73749
▁영향	-8.73773
하던	-8.73795
R	-8.73822
박	-8.73874
▁야당	-8.73906
▁발사	-8.7405
▁없이	-8.74114
▁서울	-8.7425
▁지역에서	-8.74326
▁공항	-8.74334
▁보인다	-8.74483
▁투자	-8.74708
매	-8.74782
▁CNN	-8.74813
▁번	-8.75053
b	-8.7507
먼	-8.75172
▁사망했다	-8.75186
▁주둔	-8.75233
▁관한	-8.75284
함	-8.75468
▁공급	-8.75524
v	-8.75643
▁각	-8.75721
림	-8.75761
▁예	-8.75766
추	-8.75842
▁군사	-8.75948
상을	-8.76052
▁N	-8.76111
▁투	-8.76123
▁스페인	-8.76327
5%	-8.76393
k	-8.76463
위를	-8.76569
▁죽	-8.76611
락	-8.76669
▁환경	-8.76688
▁들	-8.76689
▁의회	-8.76714
~	-8.76822
령	-8.7698
승	-8.77084
▁좋은	-8.77095
해서	-8.77152
▁사망자	-8.77187
초	-8.77257
it	-8.77275
▁공식	-8.77462
▁회장	-8.77516
▁않다	-8.77524
▁검사	-8.77531
▁미사일	-8.77654
▁지방	-8.77844
▁폴	-8.77878
▁제공	-8.77987
우리는	-8.77993
▁가격	-8.78112
_	-8.78202
▁통	-8.7821
▁걸	-8.78217
▁만에	-8.78239
▁사람들	-8.78326
▁돈	-8.78458
▁현지	-8.78503
▁수사	-8.78596
▁담	-8.78674
▁무샤라프	-8.78698
포인트	-8.78765
▁29	-8.78931
▁돌	-8.79012
▁출연	-8.79063
re	-8.79083
le	-8.79088
외	-8.79118
▁인정	-8.7912
▁하루	-8.79138
등	-8.79282
▁문	-8.79335
겨	-8.7952
▁L	-8.79608
▁된	-8.79694
▁런던	-8.79697
▁공동	-8.79712
▁비행기	-8.79808
▁가능성	-8.79834
케	-8.79883
▁관심	-8.79917
▁팔	-8.8009
미국	-8.80161
▁사람들은	-8.80249
▁미국이	-8.80289
▁선수	-8.80415
▁동영상	-8.80452
자들은	-8.80529
▁영	-8.80592
▁코리아	-8.80762
▁밤	-8.80876
한다고	-8.80896
런	-8.81194
입	-8.81227
음	-8.81244
article	-8.8131
▁28	-8.81399
후	-8.81611
▁행위	-8.81616
▁변	-8.81644
▁범죄	-8.81777
▁알려졌다	-8.81891
긴	-8.82012
▁인질	-8.82041
주의	-8.82042
▁관	-8.82166
▁AP	-8.82276
▁이들은	-8.8228
w	-8.82308
0	-8.82532
▁무기	-8.82582
▁우승	-8.82783
자가	-8.82886
▁하락	-8.82898
▁벌이	-8.83097
본	-8.83242
정부	-8.83475
at	-8.83615
▁불구하고	-8.83669
▁중요한	-8.83808
커	-8.84073
▁정상	-8.84428
▁오바마는	-8.84436
▁정치적	-8.84447
받	-8.84484
▁H	-8.8455
있는	-8.84568
▁바그다드	-8.84582
▁말했습니다	-8.84647
▁G	-8.8476
▁나라	-8.84896
▁위험	-8.84924
▁남성	-8.84943
▁박사는	-8.84984
록	-8.85069
▁장관	-8.85116
▁게임	-8.85138
▁발생했다	-8.85192
축	-8.8521
▁체포	-8.85316
▁사진	-8.85319
▁빌	-8.85323
▁사망한	-8.85399
▁독립	-8.85424
▁대통령과	-8.85529
▁고위	-8.85538
▁이전	-8.85659
▁속	-8.85799
▁자살	-8.85808
▁것입니다	-8.8592
50	-8.86058
간의	-8.86077
준	-8.86155
측	-8.86163
▁미국은	-8.86312
독	-8.86331
▁여부	-8.86478
▁이런	-8.86493
▁통과	-8.86498
▁시도	-8.86522
▁헤	-8.86567
▁인용	-8.86676
른	-8.8679
un	-8.86811
▁역할	-8.86824
▁의원	-8.86834
▁밀	-8.8688
▁2008	-8.87108
▁반면	-8.87152
▁병력	-8.87271
일간	-8.8735
▁강화	-8.87398
시켰다	-8.8751
표	-8.87511
▁정도	-8.87516
▁운동	-8.8752
▁폐쇄	-8.87524
▁워싱턴	-8.87599
▁보안	-8.87653
▁눈	-8.88037
▁직접	-8.8814
▁회의	-8.88431
▁이야기	-8.88461
▁곳	-8.88502
회의	-8.88566
▁부토	-8.88605
되기	-8.88654
ch	-8.88687
▁예상	-8.88694
하겠다고	-8.88817
’’	-8.8884
▁부족	-8.88841
▁평	-8.88861
▁자유	-8.88903
▁역사	-8.88938
2005.08	-8.89139
족	-8.89237
▁부인	-8.8926
▁사실	-8.8927
말	-8.89277
▁기업	-8.89408
▁잡	-8.89467
▁천	-8.89552
목	-8.89876
ic	-8.89965
▁사망했다고	-8.90301
남	-8.90372
CNN	-8.90434
백	-8.90506
마리	-8.90729
▁딸	-8.90771
했을	-8.90837
▁서비스	-8.90844
자인	-8.90918
혀	-8.90935
으나	-8.91064
▁누	-8.91575
만명	-8.91591
▁의하면	-8.91666
렸다	-8.91716
▁모습을	-8.91724
▁기간	-8.91839
▁알카에다	-8.91859
▁확보	-8.91893
▁되	-8.9202
플	-8.9221
▁표	-8.92245
▁해안	-8.92395
▁재판	-8.92439
▁감소	-8.92473
▁골	-8.92615
▁것이라는	-8.92617
시킬	-8.92619
랜드	-8.92674
▁사업	-8.92787
▁자신들	-8.93045
▁힘	-8.93085
▁아이들	-8.93101
억원	-8.93125
▁보다	-8.93249
▁뉴스	-8.93388
▁2005.08	-8.93422
▁높은	-8.93501
▁더욱	-8.93507
▁통신	-8.93602
▁가능성이	-8.93678
사는	-8.93727
▁뜻	-8.93857
▁드	-8.93979
▁국경	-8.93991
▁지나	-8.94074
쳐	-8.94091
▁잠	-8.94109
▁상원	-8.94119
▁전체	-8.94129
▁지난주	-8.94232
곳	-8.94281
’(	-8.94407
▁참여	-8.94419
as	-8.94424
H	-8.94441
▁청	-8.94704
골	-8.94761
▁애	-8.94889
▁보고서	-8.94894
▁하마스	-8.95137
▁못	-8.95167
▁출전	-8.95205
▁성명에서	-8.95214
▁길	-8.95231
만달러	-8.95293
▁별	-8.95347
리아	-8.95484
▁아버지	-8.95613
▁아들	-8.95617
▁비행	-8.95705
▁참가	-8.95709
▁언급	-8.95786
장을	-8.95796
차례	-8.95834
▁의견	-8.95838
▁건	-8.95992
▁&	-8.96055
▁위기	-8.9614
▁왔다	-8.9616
▁전화	-8.96297
▁호텔	-8.96309
졌	-8.96383
▁구조	-8.9646
▁아침	-8.96524
▁신문	-8.96548
▁c	-8.96619
이번	-8.96619
▁지역에	-8.96655
▁맥	-8.96773
▁아니다	-8.97
▁승인	-8.97123
▁인쇄	-8.97132
였던	-8.97142
▁야	-8.97151
▁것이며	-8.97162
▁거리	-8.97238
▁베이징	-8.9736
▁2004	-8.97496
합니다	-8.97521
▁for	-8.97675
▁마을	-8.97806
하려	-8.97844
▁총리가	-8.9789
▁말을	-8.98011
▁한나라당	-8.98083
▁않는	-8.98232
▁패	-8.98271
▁알고	-8.98312
▁마련	-8.98501
▁이와	-8.98574
▁s	-8.98612
▁석유	-8.98831
▁않았다고	-8.98856
▁주택	-8.98874
▁제안	-8.98897
있다	-8.98968
현	-8.99141
태	-8.99156
▁폭탄테러	-8.99222
▁캘리포니아	-8.99319
▁화재	-8.99534
세의	-8.99631
▁건설	-8.99892
▁철수	-8.9993
나는	-9.00069
▁시신	-9.00072
▁기자회견에서	-9.00149
▁핵무기	-9.00204
▁어제	-9.00381
자들이	-9.00485
▁않	-9.00575
설명	-9.00584
▁국회	-9.00692
▁시작했다	-9.00832
▁키	-9.00849
is	-9.00912
성을	-9.00971
▁보였다	-9.01009
애	-9.01107
▁필요한	-9.01482
▁라이스	-9.01504
▁요	-9.01519
▁사람이	-9.01577
▁관련된	-9.01594
도록	-9.01604
▁아니라	-9.01739
“	-9.01818
▁올라	-9.01883
▁번째	-9.01891
왔다	-9.01899
▁결혼	-9.0191
에서도	-9.0192
▁너무	-9.01955
es	-9.01974
▁수행	-9.02103
▁디	-9.02263
▁선택	-9.02317
▁국방부	-9.02328
▁증거	-9.02352
레이	-9.02396
▁테	-9.02475
▁생활	-9.02545
▁되는	-9.02615
튼	-9.02651
▁해외	-9.02726
그러나	-9.02922
▁재개	-9.02973
하라	-9.03268
단체	-9.03326
JO	-9.03385
년대	-9.03448
▁사르코지	-9.0357
us	-9.03601
▁순	-9.03693
▁쓰	-9.0379
▁박	-9.03865
▁도착	-9.03942
맨	-9.04089
▁협력	-9.04091
▁브라운	-9.04093
▁시설	-9.04205
ri	-9.0424
▁타고	-9.04355
▁교육	-9.04448
기로	-9.04454
INS	-9.04456
▁남편	-9.04486
▁인권	-9.04523
불	-9.04602
▁넘	-9.04672
▁받을	-9.0477
▁원문	-9.04923
▁우리는	-9.04926
▁있고	-9.0501
▁티베트	-9.05112
▁이동	-9.05156
돌	-9.05243
년까지	-9.05252
▁전에	-9.05351
▁아프가니스탄	-9.05371
▁작전	-9.05382
▁시위대	-9.05454
스타	-9.05507
폭	-9.05527
▁연합	-9.05528
▁노무현	-9.05543
▁개최	-9.05621
▁결국	-9.0564
ation	-9.05671
▁콜롬비아	-9.05759
▁도로	-9.05817
인한	-9.06021
▁거부	-9.06059
▁역시	-9.06393
▁변호사	-9.06436
▁삼	-9.06594
▁참	-9.06612
▁주변	-9.06734
▁직원	-9.069
▁에너지	-9.07017
▁K	-9.07084
기도	-9.07292
▁비용	-9.07352
&	-9.07465
탈	-9.07488
▁허	-9.07511
▁목표	-9.07716
▁내년	-9.07762
▁2003	-9.07798
▁경쟁	-9.07846
▁친구	-9.0787
▁곧	-9.07882
▁이유로	-9.0789
et	-9.07893
▁열리는	-9.07953
▁크	-9.07994
항	-9.08047
▁네	-9.08126
▁숨졌다	-9.08151
극	-9.08229
별	-9.08233
환	-9.08234
▁참석	-9.08324
▁체	-9.08456
봉	-9.08475
액	-9.085
갈	-9.08526
▁수준	-9.08538
▁몰	-9.086
혈	-9.08889
▁인도네시아	-9.08889
▁f	-9.08902
▁국무부	-9.0891
비아	-9.09069
▁격	-9.09171
▁사건에	-9.09202
▁타임즈	-9.09269
▁몸	-9.09338
▁60	-9.09367
쿠	-9.09435
▁Korea	-9.09516
습	-9.09545
년에	-9.09561
렸	-9.09569
▁산업	-9.09629
▁암	-9.09794
회사	-9.09948
▁연설	-9.10107
독해	-9.10514
들에	-9.10619
th	-9.10695
사를	-9.10933
▁이제	-9.10993
▁운영	-9.11012
▁예정이라고	-9.11051
▁어떻게	-9.11184
▁광	-9.11261
▁왕	-9.11276
▁최초	-9.11329
▁판사	-9.11342
▁편	-9.11356
▁re	-9.11403
▁훈련	-9.11571
▁화요일	-9.11571
▁문제에	-9.11607
평	-9.11667
엔	-9.1172
장이	-9.11974
▁있	-9.12002
▁탄	-9.12226
▁소유	-9.12229
링	-9.1235
▁회복	-9.12354
▁시스템	-9.12379
▁경선	-9.12403
30	-9.12427
▁개인	-9.12432
▁근	-9.12504
ro	-9.12522
▁알리	-9.12642
▁같다	-9.12643
▁행	-9.12708
▁원인	-9.12733
자는	-9.12835
▁전망	-9.12956
▁대회	-9.12981
글	-9.13002
▁레바논	-9.13095
▁경고	-9.1312
▁R	-9.13222
율	-9.13405
se	-9.13452
▁여론조사	-9.13538
▁전문가들은	-9.13636
▁한국인	-9.1366
▁성장	-9.13768
▁동물	-9.13797
침	-9.1381
센터	-9.13884
▁임무	-9.13964
▁지명	-9.14037
▁국영	-9.14044
▁또는	-9.14119
하려는	-9.14186
▁방안	-9.14195
▁학생	-9.14251
W	-9.14268
▁태국	-9.14405
▁인구	-9.14415
▁빈	-9.14514
▁정보를	-9.1452
▁이같	-9.14536
com	-9.14563
▁일정	-9.14576
▁요구했다	-9.14636
잡	-9.14659
▁커	-9.14718
▁만나	-9.14803
▁있게	-9.14855
▁사임	-9.14881
명과	-9.14908
▁I	-9.14917
만원	-9.14933
▁있기	-9.14981
▁음악	-9.15023
취	-9.15048
▁멕시코	-9.15129
▁데이비드	-9.15129
로서	-9.1513
▁대선후보	-9.15135
▁농	-9.15296
▁태	-9.15316
st	-9.15463
▁31	-9.15537
▁선고	-9.15614
▁제재	-9.1572
▁대신	-9.15779
▁2000	-9.15811
▁수상	-9.16101
▁국민들	-9.1615
▁200	-9.16153
우리	-9.16159
씨는	-9.16224
▁중심	-9.16253
델	-9.16304
측은	-9.16437
▁주말	-9.16491
▁아프리카	-9.16502
▁과학자들	-9.16562
▁어린이	-9.16614
▁받아	-9.1662
▁벌	-9.16623
누	-9.16709
▁비디오	-9.16752
▁앞두고	-9.16752
▁무장	-9.16806
ur	-9.16991
하거나	-9.16992
▁정권	-9.17027
▁대변인	-9.17043
▁양국	-9.17057
▁수술	-9.17089
▁여객기	-9.17162
▁비롯	-9.17167
▁파괴	-9.1718
▁사망하고	-9.17279
▁칼	-9.17452
▁발견했다	-9.17511
자들	-9.17521
▁추락	-9.176
▁생각한다	-9.17685
▁배우	-9.17742
시키는	-9.1792
▁질	-9.18042
▁사과	-9.18045
▁나타났다	-9.18075
▁구성	-9.18102
▁바로	-9.18112
냈다	-9.18223
▁부분	-9.18361
▁샤	-9.18414
▁민간인	-9.18416
▁대사관	-9.18482
빌	-9.18514
▁극	-9.18858
▁관할	-9.18899
앙	-9.19089
▁동부	-9.19111
▁아기	-9.19149
익	-9.1918
▁촬영	-9.19236
▁제품	-9.19484
▁US	-9.19514
▁전투	-9.19552
능	-9.19555
▁항공	-9.19615
▁갈	-9.19664
▁폭력	-9.19667
▁있었던	-9.19701
▁전세계	-9.19708
▁여자	-9.19716
▁금	-9.19806
▁콜	-9.19819
▁U	-9.19873
▁일이	-9.19879
▁포함한	-9.20002
틀	-9.20031
▁감시	-9.20032
페	-9.20085
▁자리	-9.20145
채	-9.20167
▁행정부	-9.20197
▁북	-9.20217
▁도움	-9.20246
▁작업	-9.20266
억달러	-9.20275
▁정당	-9.20357
▁대규모	-9.20519
▁까지	-9.20656
▁고려	-9.20669
▁소식	-9.20831
패	-9.20996
▁주도	-9.20997
▁용	-9.21
업체	-9.21039
▁쿠	-9.21076
▁처	-9.21165
▁만들어	-9.2122
▁아닌	-9.21387
▁주민	-9.2141
▁국내	-9.21434
한다는	-9.21507
ra	-9.21566
사건	-9.21624
▁독	-9.21669
▁b	-9.21734
▁총격	-9.21747
▁여전	-9.2198
▁약속	-9.22022
▁로버트	-9.2222
▁기대	-9.22233
안을	-9.22415
▁책임	-9.22527
리스	-9.22538
월에	-9.22602
▁살고	-9.22629
▁수치	-9.22652
▁교수는	-9.22843
▁가지	-9.22881
▁특별	-9.2291
▁갖	-9.2297
랑	-9.22975
▁찾아	-9.23029
▁무장세력	-9.23087
▁가지고	-9.23239
▁장면	-9.23253
▁내려	-9.23316
▁의원은	-9.23318
▁촉구했다	-9.23459
▁퍼	-9.23462
▁밝혀졌다	-9.23533
퍼센트	-9.23543
▁보여주	-9.2361
9	-9.23649
20	-9.23758
올	-9.23763
센	-9.23778
톤	-9.23893
▁온라인	-9.23959
▁작품	-9.23978
▁계약	-9.24
▁세력	-9.24001
▁2002	-9.24009
▁부대	-9.24012
▁복	-9.24173
규	-9.24282
)'	-9.24295
▁실시	-9.2439
▁규정	-9.24402
200	-9.24416
시켜	-9.24443
▁출	-9.24454
▁수단	-9.24782
▁총선	-9.2479
▁가자지구	-9.24843
▁특히	-9.2492
▁선정	-9.25056
창	-9.25108
▁게	-9.25172
▁인간	-9.25278
▁붕괴	-9.25286
▁연료	-9.25342
관계	-9.25349
▁그들의	-9.25387
▁수감	-9.25456
▁안보	-9.25487
▁맡	-9.25634
▁입은	-9.25646
▁입었다	-9.25689
흐	-9.25728
▁월요일	-9.25732
▁수입	-9.25792
▁스타	-9.25822
▁앤	-9.26002
ion	-9.26141
곡	-9.26166
궁	-9.2618
▁악	-9.26211
▁LA	-9.26252
자회담	-9.26266
▁놓	-9.26312
▁경기에서	-9.26413
경기	-9.26463
▁인수	-9.26525
el	-9.26578
▁말한다	-9.26611
▁부통령	-9.26631
▁설치	-9.26642
술	-9.26707
▁받았	-9.2672
해왔다	-9.26838
▁안에	-9.2696
척	-9.27066
샤	-9.2707
힌	-9.27079
▁홍콩	-9.27083
▁노동	-9.27193
▁부부	-9.27225
▁차지	-9.27243
▁이상이	-9.27383
▁책	-9.27451
▁작은	-9.27486
▁웹사이트	-9.27496
▁시기	-9.27544
▁나이	-9.27561
▁최종	-9.27566
▁시험	-9.27588
▁관계자가	-9.276
▁p	-9.2761
▁심각한	-9.27932
시장	-9.27934
▁푸틴	-9.27998
수가	-9.28251
▁열차	-9.28359
셔	-9.28453
펠	-9.28453
▁세금	-9.28471
엘	-9.28488
▁기소	-9.28492
▁증시	-9.28579
▁담당	-9.28789
▁외교	-9.28858
▁필요하다	-9.28859
▁미국인	-9.28885
▁메시지	-9.28916
▁밝힌	-9.28919
▁대의원	-9.28937
▁경고했다	-9.29016
줄	-9.29195
▁인기	-9.2929
ter	-9.29297
▁창	-9.29303
▁가치	-9.29342
▁없을	-9.29377
▁파업	-9.29456
하겠다	-9.29458
▁글	-9.29489
▁숨	-9.29507
책	-9.29555
▁개선	-9.29605
▁플로리다	-9.29613
▁환자	-9.29615
기구	-9.29704
▁최	-9.29807
▁반응	-9.29858
▁과거	-9.29888
하다고	-9.30037
▁E	-9.30153
▁아무	-9.30155
였	-9.3021
▁기념	-9.30294
▁가족들	-9.30318
▁주식	-9.30432
▁캐	-9.30468
슈	-9.30478
▁병	-9.30622
▁학생들	-9.30702
▁캐나다	-9.30779
슬	-9.30987
향	-9.31
례	-9.31017
▁발표한	-9.3103
▁일을	-9.31086
때	-9.31147
▁엘	-9.31178
▁마이클	-9.31252
▁움직임	-9.31257
션	-9.31264
▁암살	-9.31289
▁다양	-9.31374
▁문화	-9.3138
▁국가들	-9.31387
드는	-9.31387
랜	-9.31435
대로	-9.31459
▁광고	-9.31496
▁임명	-9.31532
여명	-9.3156
변	-9.31568
▁중인	-9.31585
▁벌였다	-9.31607
밀	-9.3162
▁비해	-9.31628
릭	-9.31668
▁외국인	-9.31694
▁라디오	-9.31725
허	-9.31855
북	-9.32038
▁얼마	-9.32106
엄	-9.32195
시키	-9.32242
폐	-9.32437
▁섬	-9.32522
총	-9.32571
씨	-9.32702
▁폭	-9.32775
▁프로	-9.32894
▁보수	-9.32918
죄	-9.33023
▁대만	-9.33057
▁돌아	-9.33363
▁서부	-9.33519
염	-9.33555
x	-9.33625
레스	-9.33628
▁기록했다	-9.33654
쉬	-9.33797
▁통제	-9.33813
년부터	-9.33892
▁강제	-9.33894
▁국	-9.33989
▁지역의	-9.34051
▁브라질	-9.34129
▁식량	-9.34167
▁0	-9.34185
▁위반	-9.34207
자와	-9.34221
▁서로	-9.34228
▁중동	-9.34279
빈	-9.34372
▁관리들	-9.34381
▁이라크에서	-9.345
500	-9.34511
▁지지자들	-9.34513
▁진압	-9.34531
▁헬기	-9.34568
▁스미스	-9.34618
▁어머니	-9.34629
▁힐	-9.34638
▁여름	-9.3464
ent	-9.34728
▁휴	-9.34982
시키기	-9.34993
▁이유	-9.35009
▁취소	-9.3511
▁케냐	-9.35112
▁실험	-9.35134
▁지불	-9.35207
▁가스	-9.35221
▁머리	-9.35272
이었던	-9.35298
▁파리	-9.35369
▁수출	-9.35422
▁그런	-9.35472
거리	-9.35473
겼다	-9.35522
▁선언	-9.3555
▁외국	-9.35605
▁w	-9.3562
광	-9.35647
▁명령	-9.3565
▁선출	-9.35667
▁국무장관	-9.35669
▁추진	-9.35734
▁짐바브웨	-9.35778
▁법안	-9.35785
▁내렸다	-9.35911
럼	-9.36041
▁같이	-9.36117
▁각각	-9.36128
▁위치	-9.36242
▁기관	-9.36251
스터	-9.3629
▁관광	-9.36295
▁시아파	-9.36594
되	-9.36615
▁소송	-9.36623
▁해군	-9.36839
▁울	-9.36859
▁제한	-9.36902
▁밖에	-9.36976
▁브	-9.37019
▁대변인이	-9.37053
▁평균	-9.37102
▁감염	-9.37104
▁제출	-9.3711
▁권리	-9.37151
▁뉴	-9.37184
▁후보가	-9.37243
국가	-9.37291
la	-9.37391
▁장소	-9.37426
▁하원	-9.37563
▁포기	-9.37612
▁일반	-9.37627
=2	-9.37782
▁시즌	-9.37795
▁위성	-9.37819
▁축구	-9.37917
▁배치	-9.37951
이자	-9.37968
협회	-9.37994
▁접근	-9.38105
▁인상	-9.38123
▁경험	-9.38124
▁목적	-9.38169
▁프리	-9.38252
▁수십	-9.38291
▁미국에서	-9.38318
▁제기	-9.38325
동안	-9.38445
▁전달	-9.38596
▁쇼	-9.38636
▁과정에서	-9.38702
▁나온	-9.38762
▁탈	-9.38872
▁했다고	-9.38906
▁텍사스	-9.38909
착	-9.38932
▁않아	-9.38968
▁역	-9.39046
느	-9.39078
담	-9.39139
▁차례	-9.3914
▁처리	-9.39411
것	-9.39466
름	-9.39563
▁항의	-9.39625
▁발견됐다	-9.39699
▁구속	-9.39738
▁파병	-9.39752
▁사원	-9.39764
벨	-9.39788
▁임	-9.39896
▁전시	-9.39958
▁차이	-9.40048
일까지	-9.40073
텔	-9.40121
▁내무부	-9.40146
▁결의안	-9.40156
▁사건이	-9.4016
ir	-9.40166
▁신고	-9.40301
▁무역	-9.40316
▁공연	-9.40327
▁사형	-9.40338
▁향	-9.40595
▁걸쳐	-9.40688
▁버스	-9.40756
▁자료	-9.40793
▁당신	-9.40794
▁일본의	-9.40799
시키고	-9.40838
니다	-9.4084
개국	-9.40856
이란	-9.40912
▁나는	-9.41086
사가	-9.41118
▁급	-9.41171
▁파견	-9.41223
▁귀	-9.41277
▁제조	-9.41301
대가	-9.41434
▁경찰에	-9.41514
턴	-9.41569
▁다리	-9.41653
▁항공사	-9.41708
▁2007	-9.41742
하지만	-9.41793
었	-9.41821
▁의미	-9.41944
▁제시	-9.4198
▁상황이	-9.42085
퇴	-9.42122
▁전국	-9.42234
▁헌법	-9.42256
▁음식	-9.42262
5000	-9.42376
지도	-9.42527
▁사이에	-9.42595
▁주재	-9.42645
▁식	-9.42675
▁살인	-9.42707
▁사실이	-9.42708
▁설립	-9.42766
▁개혁	-9.42779
▁설명	-9.42798
▁거주	-9.4281
▁허용	-9.42832
▁사랑	-9.42836
▁집중	-9.42846
▁대비	-9.42857
10	-9.42881
했다는	-9.42887
▁대상으로	-9.42981
▁긴장	-9.43015
▁안정	-9.4326
▁이에앞서	-9.43295
▁논쟁	-9.43295
▁수요일	-9.43324
▁평가	-9.43375
▁센터	-9.43391
중인	-9.43402
▁주지사	-9.43478
▁500	-9.43483
▁발전	-9.43561
었습니다	-9.43578
▁80	-9.4361
하였다	-9.43684
▁대피	-9.43741
가지	-9.4378
▁부상했다	-9.43815
▁바이러스	-9.43831
▁사퇴	-9.43891
▁J	-9.43984
▁부모	-9.4405
송	-9.4405
스가	-9.44083
▁것과	-9.44148
은행	-9.44176
▁넘어	-9.44268
움	-9.44313
세기	-9.44328
▁관계자들은	-9.44367
▁성폭행	-9.44368
학자	-9.44388
▁공습	-9.44433
▁위원회	-9.44587
▁교수	-9.44725
▁희망	-9.44755
▁그룹	-9.4481
▁아내	-9.44867
률	-9.44874
냐	-9.44894
▁결정했다	-9.44906
▁교황	-9.44925
▁알려진	-9.44947
▁대해서는	-9.44983
▁인물	-9.4507
트는	-9.45109
킹	-9.45193
▁받는	-9.45204
▁/	-9.45317
조사	-9.45352
십	-9.45367
▁발견된	-9.45437
▁The	-9.45446
▁차베스	-9.45452
▁후세인	-9.45457
▁환영	-9.45467
▁혼란	-9.45478
▁압력	-9.45492
▁집회	-9.45613
▁터	-9.4585
장에서	-9.4592
째	-9.45953
▁목	-9.45968
▁완전	-9.46002
▁관해	-9.46066
▁단계	-9.46109
▁유일	-9.46132
킨	-9.46155
알	-9.46171
쳤다	-9.46275
▁당선	-9.46467
▁신원	-9.46477
낼	-9.46491
▁바란다	-9.46551
▁기지	-9.46596
▁상대로	-9.46621
손	-9.46682
▁익명	-9.46685
▁요청했다	-9.46692
ID	-9.4672
▁한다는	-9.46755
▁교통	-9.46757
▁교전	-9.46763
▁황	-9.4679
이라크	-9.46829
▁EU	-9.46838
▁마약	-9.46851
▁씨	-9.46873
▁그들이	-9.46874
명으로	-9.4702
납	-9.47084
▁교회	-9.4709
었다고	-9.47271
▁주민들	-9.47285
라며	-9.47293
했	-9.47332
벌	-9.47343
lo	-9.4735
문제	-9.47354
▁변호사는	-9.47391
있	-9.47427
▁대응	-9.4768
▁야후	-9.47686
▁집단	-9.4779
ate	-9.478
▁예상된다	-9.47839
▁죽음	-9.47866
▁질문	-9.48029
칠	-9.48053
▁이래	-9.48184
▁복귀	-9.48222
▁기사	-9.48227
▁시리아	-9.48322
il	-9.48342
악	-9.48354
기가	-9.48431
▁왕자	-9.48488
험	-9.48567
▁이명박	-9.48777
▁밝혔습니다	-9.48782
▁구매	-9.4886
2%	-9.48965
▁아직까지	-9.48969
▁로마	-9.48988
▁크게	-9.49
3%	-9.49069
▁불만	-9.4908
▁후보는	-9.49158
▁남북	-9.4925
▁탑승	-9.49319
▁미래	-9.4932
롤	-9.49331
▁북핵	-9.49345
▁있지	-9.4935
▁끝	-9.49419
찰	-9.49527
▁중앙	-9.49531
▁고용	-9.49563
하기도	-9.49645
볼	-9.49646
▁on	-9.49703
방송	-9.49724
▁받지	-9.49727
▁필	-9.49757
▁정신	-9.49848
▁남한	-9.49877
▁일어나	-9.49915
▁폭력사태	-9.49916
▁절	-9.49943
▁나가	-9.50021
▁되어	-9.50042
▁이곳	-9.50065
▁접	-9.50072
이지만	-9.50073
되었습니다	-9.50185
▁가정	-9.5024
▁인터뷰	-9.50312
▁특	-9.5032
▁심장	-9.50359
위로	-9.50436
햄	-9.50481
▁저장	-9.50504
▁내리	-9.50611
되었다고	-9.50629
수를	-9.50665
▁임시	-9.50676
▁사람은	-9.50694
▁뇌	-9.50804
일부터	-9.50908
▁부정	-9.5096
왔	-9.50995
▁중국은	-9.51035
Y	-9.51055
▁이집트	-9.51057
▁시민	-9.51058
▁효과	-9.51068
▁따라	-9.51078
▁표현	-9.51079
▁연결	-9.51118
▁허가	-9.51184
▁비밀	-9.5121
▁업체	-9.51227
▁베네수엘라	-9.51242
녀	-9.51271
▁증	-9.51278
견	-9.51301
기관	-9.51365
충	-9.51491
▁사람들을	-9.51569
▁아니라고	-9.51571
롭	-9.51598
▁민주주의	-9.51646
▁따른	-9.51648
으로서	-9.51731
존	-9.51841
▁위해서는	-9.52098
▁마크	-9.52132
▁목요일	-9.52215
▁교도소	-9.52216
▁홀	-9.52263
▁여론	-9.52295
▁관계자	-9.52335
ol	-9.5236
리자	-9.52362
▁명이	-9.524
▁정부와	-9.52414
▁때까지	-9.52536
▁여사	-9.52674
대의	-9.5271
▁따	-9.52756
칭	-9.52771
▁검토	-9.52801
▁시카고	-9.52803
▁최악	-9.52809
▁권력	-9.52813
▁모델	-9.52853
▁사이트	-9.52886
▁쿠바	-9.52891
▁받게	-9.52897
서는	-9.52929
시아	-9.52951
▁실패	-9.52964
▁팬들	-9.52969
me	-9.5307
▁여기	-9.53075
▁적이	-9.53203
까	-9.533
욕	-9.53336
▁과정	-9.5346
▁슈	-9.53461
te	-9.53464
▁취하	-9.53511
▁2001	-9.53523
▁계	-9.53548
▁임기	-9.53606
▁만들	-9.53655
▁비판	-9.53707
으	-9.53809
낸	-9.53899
폰	-9.53949
▁높이	-9.5398
▁프라이머리	-9.5398
▁무장단체	-9.53997
▁라이	-9.54111
▁판	-9.54136
▁분야	-9.54166
그는	-9.54272
순	-9.54282
▁가졌다	-9.54335
▁깊	-9.54336
▁합니다	-9.54411
▁매년	-9.54417
자로	-9.5442
▁측	-9.54466
▁내부	-9.54482
곤	-9.54526
▁이해	-9.54546
북한	-9.54589
ut	-9.54603
▁진출	-9.54632
▁못하고	-9.54647
다면	-9.54698
▁유명	-9.54726
▁사라	-9.54791
▁슬	-9.54811
▁수색	-9.54845
▁입원	-9.54924
▁해리	-9.54928
▁상원의원이	-9.54942
▁병사	-9.5497
▁동료	-9.54994
sp	-9.55058
4%	-9.55097
헌	-9.55112
▁계획이다	-9.5512
▁be	-9.55125
▁완	-9.55131
되면서	-9.5514
▁일요일	-9.55176
▁분쟁	-9.55194
▁사무실	-9.55194
▁거대	-9.55292
겠다	-9.55318
▁예측	-9.55328
▁달리	-9.55379
▁두고	-9.55387
▁자체	-9.55425
▁언급했다	-9.55435
▁시행	-9.55449
ers	-9.55456
▁보냈다	-9.55561
▁넣	-9.55602
▁철	-9.55683
▁강력한	-9.55686
▁공격으로	-9.55709
▁유권자들	-9.55769
▁필리핀	-9.55776
▁이끄는	-9.5578
찬	-9.55794
▁아랍	-9.55801
▁뿐	-9.55824
▁선박	-9.55838
거래	-9.55842
▁수많은	-9.55886
▁보건	-9.55895
▁분석	-9.55904
▁웨	-9.55946
▁소방	-9.55956
▁못한	-9.56074
▁g	-9.5608
▁나왔다	-9.56111
▁들어가	-9.56165
었던	-9.56189
▁도움이	-9.56192
▁밝혀	-9.5621
op	-9.56323
▁사는	-9.56346
‘	-9.56372
▁버지니아	-9.56382
▁지도자들	-9.56402
쟁	-9.56423
법원	-9.56567
▁밝히지	-9.56691
인지	-9.56816
▁h	-9.5689
좌	-9.56978
▁보고서는	-9.57024
리그	-9.57038
▁오른	-9.57082
기간	-9.57085
만이	-9.57123
▁의료	-9.57161
▁장기	-9.57194
▁민	-9.572
인들이	-9.57201
성이	-9.57204
▁사항	-9.5721
▁향해	-9.57226
▁벤	-9.57362
ist	-9.57455
-1	-9.57467
▁의장	-9.57542
다른	-9.57584
▁관계자들	-9.57591
▁한반도	-9.57607
▁선두	-9.57706
▁강한	-9.57738
▁떠나	-9.57812
▁항공기	-9.5785
▁이루	-9.57861
▁보여	-9.57862
800	-9.57926
▁바다	-9.57929
▁전력	-9.58008
▁수익	-9.58088
논	-9.58147
▁확인했다	-9.58154
철	-9.58239
객	-9.58277
▁폐	-9.58385
▁심리	-9.58428
ment	-9.5845
▁상대	-9.58479
▁군대	-9.58498
▁과학	-9.58518
▁관광객	-9.58559
몬	-9.58599
얼	-9.58822
▁비슷	-9.58844
딘	-9.58844
▁빠져	-9.58846
▁흑인	-9.58859
▁긴급	-9.58861
▁약물	-9.58883
▁힘들	-9.58897
▁학	-9.58904
▁누구	-9.58943
▁레이	-9.59101
스크	-9.5911
▁주가	-9.59239
▁작년	-9.59297
▁UN	-9.59312
▁가져	-9.59389
위에	-9.59418
희	-9.59441
▁제거	-9.59452
▁나머지	-9.5947
▁정부에	-9.59514
▁형	-9.59654
▁종교	-9.59722
▁주지사는	-9.59765
▁전략	-9.59799
▁지진	-9.59853
▁칸	-9.59887
▁저지	-9.60013
ow	-9.60085
▁올랐다	-9.60098
▁사우디	-9.6012
▁맺	-9.60134
검	-9.60163
▁전자	-9.60207
▁범인	-9.6022
경찰	-9.60231
▁소년	-9.60241
▁되고	-9.60314
이라	-9.60358
▁소리	-9.60468
▁막기	-9.60626
▁목숨	-9.60731
▁숨지고	-9.60735
▁유권자	-9.60745
▁고통	-9.60766
▁소재	-9.60878
▁선수들	-9.60885
▁부상자	-9.60891
▁오르	-9.60964
▁대중	-9.61027
여명이	-9.61199
▁육	-9.61213
▁소비자	-9.61273
음을	-9.61297
관리	-9.61347
▁희생자	-9.61353
▁도쿄	-9.61368
▁진행되	-9.61377
▁국립	-9.61401
▁다음달	-9.61427
▁만든	-9.61464
새	-9.61518
인들은	-9.61575
숙	-9.61622
지수	-9.61866
▁1000	-9.61928
▁대사	-9.61986
만한	-9.61991
▁정상회담	-9.62017
▁국방장관	-9.62113
섬	-9.6222
▁감사	-9.62312
▁작	-9.6254
▁집행	-9.62592
랄	-9.62648
▁제임스	-9.62655
▁어느	-9.62694
▁근무	-9.62722
ce	-9.62806
▁제외	-9.62811
▁없었	-9.62839
ot	-9.62991
ive	-9.63004
▁악화	-9.63009
▁혼	-9.63023
▁받았다고	-9.63058
▁올리	-9.6306
▁사람들에게	-9.63063
▁주장하고	-9.63129
▁가능한	-9.63157
▁있다며	-9.63182
베이	-9.632
자금	-9.63462
▁북한에	-9.63474
▁법정	-9.63532
분기	-9.6356
▁인질들	-9.63712
40	-9.63785
주의자	-9.63872
▁경찰관	-9.63918
▁이라크전	-9.6395
▁싶다	-9.63957
▁외무부	-9.63957
▁충격	-9.63976
▁출발	-9.63997
▁준	-9.64104
▁O	-9.64108
당한	-9.64164
▁총기	-9.64184
▁착륙	-9.64187
70	-9.64239
▁질문에	-9.64245
▁de	-9.64325
▁만큼	-9.64369
▁넘는	-9.64371
▁노조	-9.64498
행위	-9.64542
▁아니	-9.64575
▁현대	-9.64583
▁백	-9.64603
컨	-9.64614
▁적어도	-9.64616
▁군부	-9.64651
▁뛰어	-9.64668
▁정도로	-9.64715
▁것이라	-9.64923
겠다고	-9.64966
▁끝에	-9.65128
▁동의	-9.65259
▁곳에서	-9.65298
▁작가	-9.65332
▁보낸	-9.65339
▁충	-9.65339
▁항	-9.65352
▁풍	-9.65444
마다	-9.65472
▁불안	-9.65482
▁여당	-9.65508
▁가까	-9.65559
캐	-9.65706
ig	-9.65731
들도	-9.6576
되며	-9.65774
▁작업을	-9.65936
▁어떠한	-9.65943
▁허리케인	-9.65943
▁패배	-9.65995
▁의혹	-9.66002
장관	-9.66038
▁붙	-9.66051
▁공장	-9.66088
▁수천	-9.66168
▁인사	-9.66259
▁직원들	-9.66369
안에	-9.6643
▁접촉	-9.66618
▁수천명	-9.66678
황	-9.66715
▁동결	-9.66727
▁떠	-9.66787
▁공공	-9.66861
▁m	-9.66879
한다면	-9.66914
둔	-9.66959
▁후에	-9.67012
▁발생했다고	-9.67027
▁마리	-9.6722
▁무엇	-9.67266
였습니다	-9.67269
씩	-9.6729
▁일자리	-9.67348
▁되었다	-9.67351
▁출마	-9.67405
▁자국	-9.67432
▁보장	-9.67503
▁전문가	-9.67655
▁전기	-9.67666
어질	-9.67721
귀	-9.67735
▁여성들	-9.67737
▁다이애나	-9.67774
금을	-9.67847
값	-9.67959
▁끌어	-9.6797
▁없어	-9.67971
▁확대	-9.67971
▁모른다	-9.67972
▁폭풍	-9.67978
▁압박	-9.67984
▁유명한	-9.67998
▁양측	-9.67999
7%	-9.68027
▁삶	-9.68088
▁이달	-9.68218
▁승객	-9.68224
▁나와	-9.68275
이것은	-9.68382
대통령	-9.68385
통신	-9.68402
▁발생해	-9.68408
▁중에	-9.68446
스키	-9.68517
all	-9.68624
컵	-9.68653
▁증언	-9.68679
▁방문한	-9.68688
스톤	-9.68758
▁입고	-9.68793
▁합의했다	-9.6886
▁푸	-9.68863
▁고문	-9.6888
▁여성이	-9.68922
▁300	-9.69083
J	-9.69123
ly	-9.69268
빙	-9.69278
스와	-9.69289
▁st	-9.69295
▁어려움	-9.6935
▁사진을	-9.69397
▁사상	-9.69401
▁완화	-9.69426
▁유죄	-9.69439
▁찰스	-9.69559
▁구호	-9.69565
▁자연	-9.69596
▁수백	-9.69603
▁되지	-9.69631
▁지속	-9.69728
▁유로	-9.69741
▁동원	-9.69755
▁35	-9.69764
▁쉬	-9.69818
id	-9.69943
▁오바마가	-9.69965
▁피해자	-9.69981
▁외무장관	-9.7004
▁확신	-9.70134
▁아주	-9.70181
▁작성	-9.70184
▁합	-9.70189
▁묻	-9.70319
▁지배	-9.70343
▁환	-9.70354
마일	-9.70373
▁대표는	-9.70603
테러	-9.70611
▁직	-9.70639
▁로켓	-9.70731
▁소말리아	-9.70739
▁목소리	-9.70739
▁홍보	-9.70745
▁미군이	-9.70765
▁소녀	-9.7078
▁경매	-9.7081
▁대해서	-9.70885
▁것인지	-9.70928
▁등의	-9.70966
표를	-9.70976
▁지도자인	-9.70986
ay	-9.70992
▁듯	-9.70994
였다고	-9.71004
근	-9.71081
▁십	-9.71131
스러운	-9.7116
▁병원에	-9.71167
▁끝나	-9.71168
▁마음	-9.71171
백만	-9.71254
▁모르	-9.71312
▁군인	-9.71368
▁않았지만	-9.71443
▁시상식	-9.71444
▁능력	-9.71448
▁체포됐다	-9.71475
▁대화	-9.71479
▁바람	-9.71523
니스	-9.71529
▁주민들이	-9.71533
▁존스	-9.71545
▁전반	-9.71546
▁분리	-9.71553
▁현장	-9.71601
▁못하	-9.71646
센트	-9.71648
▁가질	-9.71709
▁공군	-9.71753
▁그리스	-9.71765
운동	-9.71823
▁바라	-9.71833
▁연장	-9.72097
▁의원들	-9.72139
▁신뢰	-9.72167
▁망명	-9.72192
월부터	-9.72195
▁평양	-9.72201
스코	-9.72214
▁숨진	-9.72253
▁나오	-9.72281
▁총재	-9.72307
▁심각	-9.7231
▁등록	-9.72315
ve	-9.72324
▁적용	-9.72348
60	-9.72363
▁해제	-9.72451
▁시간이	-9.72476
ia	-9.72478
ho	-9.72551
▁언론은	-9.72696
막	-9.72704
징	-9.72807
효	-9.72813
힐	-9.72817
▁취임	-9.7282
켓	-9.72843
균	-9.72851
▁게이츠	-9.72869
▁주의	-9.72869
타임	-9.72893
▁머물	-9.72909
▁절차	-9.72932
조치	-9.72977
▁화	-9.73085
▁법적	-9.73117
▁보이는	-9.7314
▁연구소	-9.73157
▁왔	-9.73203
▁타이	-9.73273
▁카운티	-9.73274
▁관련해	-9.73306
시티	-9.7344
▁카메라	-9.73456
드로	-9.73457
▁대법원	-9.73475
해졌다	-9.73496
쇼	-9.73538
▁사건은	-9.73574
▁말레이시아	-9.73586
▁프로젝트	-9.73586
싼	-9.73586
▁걱정	-9.73586
▁휴대폰	-9.73588
▁트럭	-9.73589
▁존재	-9.73736
▁서명	-9.73774
▁목표로	-9.73824
▁아베	-9.73833
▁반대하는	-9.73856
▁강력	-9.7389
했는데	-9.73942
▁기억	-9.73948
▁그것은	-9.74009
▁유세	-9.74022
▁승	-9.74073
▁상당	-9.74107
▁소비	-9.74111
▁잔	-9.7413
6%	-9.74134
럽	-9.74198
▁최고의	-9.74202
닝	-9.74311
▁느끼	-9.74311
▁청와대	-9.74312
영화	-9.74334
▁아무런	-9.74334
▁여왕	-9.74334
스턴	-9.744
▁물론	-9.74458
80	-9.74561
▁오래	-9.74564
▁당선인	-9.74655
▁하기	-9.74793
중국	-9.74927
▁젊은	-9.74943
갑	-9.74994
세트	-9.75004
홍	-9.75023
The	-9.75048
▁힐튼	-9.75059
▁순간	-9.75146
▁항상	-9.75159
도시	-9.75245
19	-9.75334
▁크리스	-9.75348
ap	-9.75353
▁영어	-9.75392
▁전문	-9.75409
람	-9.75475
선거	-9.75488
▁추정	-9.75683
▁신화통신	-9.75776
웰	-9.75776
▁마드리드	-9.75776
▁운전	-9.75777
#	-9.75799
활동	-9.75829
연합	-9.75859
정책	-9.75956
해주	-9.76065
▁옷	-9.76072
으려	-9.76085
▁사기	-9.76116
▁즐	-9.76149
▁경제적	-9.76306
젤	-9.76517
▁밝혀지지	-9.76518
▁들고	-9.76525
▁술	-9.76534
▁운행	-9.76536
▁지역을	-9.76553
▁오픈	-9.76554
▁투입	-9.76559
▁지하	-9.76564
▁놓고	-9.76674
▁이라크에	-9.7668
▁신청	-9.76684
물을	-9.76711
▁수석	-9.76741
▁등을	-9.76792
▁자주	-9.76821
전에	-9.76837
U	-9.76849
▁그린	-9.76857
▁수용	-9.76881
▁티	-9.76965
▁박물관	-9.77042
념	-9.77179
젠	-9.77263
▁국제사회	-9.77289
▁법률	-9.7729
▁상징	-9.77308
장에	-9.77359
▁법안을	-9.77386
시설	-9.7741
관은	-9.77411
▁고래	-9.77434
▁촉구	-9.7744
공격	-9.77446
▁도중	-9.77523
대표	-9.77612
75	-9.77657
▁시작된	-9.77802
럴	-9.77982
싱	-9.78014
▁챔피언	-9.78015
▁나타나	-9.78016
▁수니파	-9.78017
▁이수지	-9.78045
제를	-9.78078
▁판단	-9.78088
▁미국인들	-9.78095
왕	-9.78101
▁선거에서	-9.78106
▁집권	-9.78138
국장은	-9.78148
▁도전	-9.7817
▁만약	-9.78194
접	-9.78195
웃	-9.78198
▁좀	-9.78231
회사인	-9.78273
11	-9.78306
▁비상	-9.78414
▁확산	-9.78595
▁있음을	-9.78608
▁굴	-9.78713
짓	-9.78727
뤄	-9.78767
팅	-9.78772
▁얼굴	-9.78772
▁베컴	-9.78786
▁토론	-9.788
학교	-9.78811
▁연속	-9.78868
▁본부	-9.78871
▁미군은	-9.78913
▁집계	-9.78937
▁이전에	-9.78971
▁피터	-9.78972
)/	-9.7906
▁벌금	-9.79088
▁90	-9.79123
▁윌리엄	-9.792
▁정부군	-9.79297
▁회담에서	-9.7942
▁비자	-9.79437
▁동시	-9.79474
▁수반	-9.79481
▁늘어	-9.79482
▁조건	-9.79505
으면	-9.79514
▁올메르트	-9.79536
▁잉글랜드	-9.79536
닐	-9.79536
님	-9.79536
▁아파트	-9.79537
▁억류	-9.79541
▁애플	-9.79568
▁헌	-9.79578
로써	-9.79627
▁부패	-9.7964
▁구입	-9.79643
▁정말	-9.79673
▁전까지	-9.79684
▁진정	-9.79796
산업	-9.7986
드리	-9.79938
▁가수	-9.80028
장관은	-9.8004
스카	-9.80124
▁연설에서	-9.80278
▁스포츠	-9.80305
▁기회	-9.80324
▁영상	-9.80367
▁연합군	-9.80393
▁찬성	-9.80431
▁분노	-9.80472
▁자녀	-9.80474
만명이	-9.8051
쪽	-9.806
셀	-9.80613
▁물질	-9.8063
▁소식통	-9.80694
슨은	-9.80711
▁부문	-9.80718
▁차기	-9.80722
들로	-9.80723
▁사상자	-9.80756
▁있는지	-9.80801
자들의	-9.80884
▁해야	-9.80895
▁전통	-9.81047
j	-9.8108
▁겪고	-9.8108
뿐만아니라	-9.8108
▁크리스마스	-9.8108
▁직후	-9.81102
었으며	-9.81129
▁확실	-9.8115
▁마무리	-9.81186
V	-9.8125
▁깨	-9.81333
▁체포했다	-9.81361
▁대형	-9.81377
보호	-9.81512
mo	-9.81571
▁한미	-9.81583
▁민주	-9.81659
▁낮	-9.81708
cat	-9.81826
▁땅	-9.81844
▁블레어	-9.81861
▁블랙	-9.81862
▁강조	-9.81866
▁축하	-9.8192
▁곳에	-9.81928
시킨	-9.81956
▁주민들은	-9.81985
▁외교부	-9.82027
700	-9.82032
▁핵심	-9.82048
▁대처	-9.82068
▁당했다	-9.82176
▁모여	-9.82196
9%	-9.82393
▁마감	-9.82404
킬	-9.82438
▁시대	-9.82445
ver	-9.82466
▁수정	-9.8247
▁선포	-9.82627
▁고양이	-9.82651
트리	-9.82673
▁임신	-9.82723
▁휴전	-9.82818
놓	-9.82871
▁경계	-9.8288
▁밝히	-9.82952
▁사살	-9.82983
▁늘	-9.83072
▁가능	-9.83073
est	-9.83175
▁개의	-9.83188
▁한국은	-9.83253
▁동맹	-9.83273
▁구제	-9.83287
▁맞아	-9.83442
▁비상사태	-9.83448
라운드	-9.83448
▁몇몇	-9.8345
▁언제	-9.8345
▁스스로	-9.83452
▁영국의	-9.83489
▁원자로	-9.83495
▁산불	-9.835
▁요원	-9.83524
▁그러	-9.83561
▁보이고	-9.8359
몰	-9.83725
었고	-9.83761
지르	-9.8382
달하는	-9.83821
▁나토	-9.83839
▁놀	-9.83845
▁소장	-9.83866
▁때문	-9.83908
었지만	-9.83912
▁병원에서	-9.84006
▁약간	-9.84011
▁찬	-9.84087
해진	-9.84088
▁성인	-9.84103
옥	-9.84177
▁이밖에	-9.84242
▁빠른	-9.84243
▁클럽	-9.84243
▁탁신	-9.84244
▁빠르	-9.84245
▁BBC	-9.84252
▁처벌	-9.84258
▁감축	-9.843
▁최신	-9.84317
▁난민	-9.84321
▁소지	-9.84371
▁노출	-9.8438
▁보이지	-9.84387
니아	-9.84488
했는지	-9.8449
어진	-9.84567
암	-9.84582
▁씨는	-9.84612
▁녹	-9.84622
특	-9.84654
끼	-9.847
▁팬	-9.84728
▁문서	-9.84748
▁무사	-9.84776
틴	-9.84782
▁실시된	-9.84866
▁보안관	-9.84953
▁높다	-9.85049
▁떨어져	-9.85049
▁협정	-9.85049
▁할리우드	-9.85049
▁일어난	-9.85049
▁업무	-9.85054
▁고속도로	-9.85066
함으로써	-9.85073
▁절반	-9.85087
▁풀	-9.851
▁헬	-9.85112
필	-9.85153
▁머	-9.85161
▁유사	-9.85172
▁단지	-9.85231
▁조금	-9.85232
이었다고	-9.85373
▁현상	-9.85417
▁트레	-9.85435
혹	-9.85453
▁차지했다	-9.85504
뉴	-9.85554
▁이틀	-9.85611
▁돌아가	-9.85662
ies	-9.85733
▁대책	-9.85806
선수	-9.85819
텐	-9.85855
joins	-9.8586
▁스피어스	-9.85862
겐	-9.85862
▁코소보	-9.85862
▁나타냈다	-9.85943
▁오랜	-9.85956
▁장군	-9.86053
▁조작	-9.86057
▁엔	-9.86066
▁내각	-9.86142
▁이란이	-9.8618
▁알려지	-9.86207
▁중이다	-9.86209
▁강타	-9.86223
▁발생할	-9.86223
▁실수	-9.86275
▁가량	-9.86289
▁치안	-9.86331
월까지	-9.86385
택	-9.8639
▁의원이	-9.864
▁아마	-9.86423
▁나무	-9.86521
▁받기	-9.86573
▁대화를	-9.86624
▁이와같	-9.86626
였으며	-9.86652
하길	-9.86656
렉	-9.86681
▁찾기	-9.86682
▁크리스토퍼	-9.86682
▁샤리프	-9.86682
▁민병대	-9.86683
ight	-9.86691
▁이미지	-9.86697
▁북한과	-9.86715
▁케	-9.86724
▁결론	-9.86767
▁압	-9.86768
▁공원	-9.86856
▁부인했다	-9.86903
▁받	-9.86913
▁사망했으며	-9.86922
▁개정	-9.86923
Ch	-9.86935
▁낮은	-9.86983
헤	-9.87005
피트	-9.87039
▁윌리엄스	-9.87044
im	-9.87103
뉴스	-9.87111
▁지켜	-9.87134
▁그들	-9.87177
▁그에게	-9.87186
▁실제	-9.87232
지역에서	-9.87236
▁놀라	-9.87277
▁초기	-9.87349
▁않겠다	-9.87409
한국	-9.87458
▁아카데미	-9.87508
▁오랫동안	-9.87508
꺼	-9.87508
cnn	-9.87509
▁태양	-9.87553
▁개봉	-9.87574
니는	-9.87578
▁Korean	-9.8758
▁보좌관	-9.87602
▁확실히	-9.87612
ht	-9.87625
▁매일	-9.8764
▁노래	-9.87689
국인	-9.87699
압	-9.87845
▁원조	-9.87881
▁벨	-9.87887
▁70	-9.87893
▁의심	-9.87959
▁소식을	-9.88161
라이트	-9.88221
▁알게	-9.88296
▁그렇게	-9.88341
▁지지율	-9.88396
▁대표팀	-9.88406
▁개입	-9.88428
▁추방	-9.88488
▁부르	-9.88513
▁위기에	-9.88534
▁고든	-9.88534
상태	-9.88549
경제	-9.88623
▁상황에서	-9.88676
▁말하고	-9.88706
▁후반	-9.88722
▁수백명	-9.88748
▁약속했다	-9.88978
▁케이	-9.89026
▁이용해	-9.89044
▁해당	-9.89084
▁보기	-9.89126
tp	-9.89131
덕	-9.89179
X	-9.89182
▁나섰다	-9.89182
▁네덜란드	-9.89182
▁집에서	-9.89221
▁다쳤다	-9.89266
▁기자회견	-9.89316
▁화성	-9.89355
▁보유	-9.89426
▁증가했다	-9.89438
▁기반	-9.89449
▁소식통은	-9.8946
▁민간	-9.89469
▁원유	-9.89481
▁목사	-9.89492
▁블로그에	-9.89509
▁이혼	-9.89616
풍	-9.8963
▁지키	-9.89641
▁손상	-9.89697
완	-9.89703
▁단어	-9.89822
▁성적	-9.89865
▁대통령에게	-9.89899
▁월드컵	-9.89976
▁경찰과	-9.90002
://	-9.90028
▁확정	-9.90029
▁무가베	-9.90031
▁먼저	-9.90032
▁하워드	-9.90051
▁마르	-9.90052
웨이	-9.90071
▁담배	-9.90108
▁보험	-9.90114
▁예산	-9.90155
▁탐사	-9.90195
▁둔	-9.90231
▁즉	-9.90243
▁지도	-9.90273
▁참석한	-9.90352
▁데이	-9.90461
up	-9.90494
▁시점	-9.90533
▁희생	-9.90538
▁수백만	-9.9057
▁실종	-9.90626
▁150	-9.90626
TV	-9.90676
▁기회를	-9.90679
▁모습	-9.90685
사인	-9.9081
▁방해	-9.90869
Total	-9.90884
▁캠프	-9.90884
▁세르비아	-9.90884
code	-9.90887
겠지만	-9.90898
▁배럴	-9.90921
▁있었으며	-9.90927
▁철회	-9.90954
▁후보에	-9.90981
▁사례	-9.90993
사태	-9.90995
▁알아	-9.91019
▁요구한	-9.91022
▁속에	-9.91084
우스	-9.91168
▁크기	-9.91295
▁대북	-9.91317
▁연구진	-9.91339
▁대체	-9.9135
▁후보로	-9.91363
▁휴가	-9.91379
▁쥐	-9.91383
▁외교관	-9.91395
▁박사	-9.91402
▁증명	-9.91427
▁금리	-9.91461
▁구성된	-9.91566
▁조정	-9.91566
주년	-9.91578
항공	-9.91624
탕	-9.91628
▁날씨	-9.91651
▁베이	-9.91687
▁못할	-9.91722
▁펜실베이니아	-9.91746
▁우크라이나	-9.91746
▁사용하는	-9.91749
▁태풍	-9.91757
▁알려져	-9.91763
▁대기	-9.91787
▁통합	-9.91803
▁위험한	-9.91805
하려고	-9.91826
됐지만	-9.91852
▁그것	-9.91898
▁연루	-9.91899
▁교체	-9.91902
▁위원장은	-9.91937
▁대표단	-9.91939
ck	-9.92014
버그	-9.92031
▁명단	-9.92035
줬다	-9.92068
▁지급	-9.92089
▁보상	-9.92468
위원회는	-9.92514
▁2009	-9.92532
▁있는데	-9.92566
촌	-9.9261
▁모하메드	-9.92616
▁스티븐	-9.92616
▁침체	-9.92619
파운드	-9.92638
▁1999	-9.92649
▁진입	-9.92674
▁남성이	-9.92771
▁기후	-9.92776
▁손실	-9.92807
▁군인들	-9.92852
▁벌인	-9.92923
▁재산	-9.92949
▁이행	-9.9296
▁휘	-9.92964
▁홍수	-9.92978
▁함	-9.9298
▁실시한	-9.92999
▁니콜라	-9.93131
▁폐기	-9.93157
▁다수	-9.93186
▁시작됐다	-9.93338
▁#	-9.9345
픽	-9.93493
▁빨리	-9.93493
▁정확한	-9.93493
몽	-9.93493
▁조종사	-9.93494
필드	-9.93498
▁마이크	-9.93504
▁분위기	-9.93506
자들에게	-9.93536
▁질병	-9.93551
▁웹사이트에	-9.93575
▁해변	-9.93588
▁진술	-9.93617
▁경찰서	-9.93631
▁전역	-9.93672
ne	-9.93673
▁의한	-9.93702
▁삼성	-9.9371
▁그래	-9.93713
▁어린	-9.9374
▁분명	-9.93761
▁영향력	-9.9377
▁45	-9.93794
▁진전	-9.93845
▁표시	-9.93902
▁재정	-9.93993
25	-9.94055
▁400	-9.94075
력이	-9.94079
브라	-9.94186
▁NASA	-9.94241
닉	-9.94376
▁인정했다	-9.94376
쯤	-9.94378
▁부동산	-9.94379
▁스티브	-9.94379
▁엄마	-9.94382
▁흔들	-9.94386
▁규제	-9.9439
▁국왕	-9.94391
라스	-9.94398
▁경영	-9.94415
▁견	-9.94449
짜리	-9.94524
▁중국이	-9.94558
▁특사	-9.94562
▁얻었다	-9.94586
▁기자는	-9.94602
▁전망이	-9.94646
▁32	-9.94694
으로써	-9.94702
▁신용	-9.94775
▁현장에	-9.94855
참	-9.9489
▁그중	-9.94935
세계	-9.9498
▁들었다	-9.9499
▁당선자	-9.95049
▁사무총장은	-9.9523
딩	-9.95255
어야	-9.95256
▁저녁	-9.9527
▁장난감	-9.95271
같은	-9.95271
▁자살폭탄테러	-9.95274
▁콘돌	-9.95282
▁대답	-9.95312
널	-9.95358
▁알려	-9.95476
▁하락했다	-9.9551
▁테러로	-9.95522
▁위해서	-9.95563
▁통치	-9.95584
▁충분	-9.95648
▁응	-9.95657
▁무력	-9.95666
▁위원장	-9.95815
▁있었	-9.95832
라도	-9.95877
▁왜	-9.95895
▁말한	-9.95899
▁태도	-9.96035
▁스테	-9.96048
ill	-9.96068
윈	-9.96099
잔	-9.96131
멘	-9.96155
렛	-9.96171
▁줄어들	-9.96173
▁아바스	-9.96174
▁며칠	-9.96184
▁형태	-9.96192
▁승무원	-9.96201
▁장애	-9.96234
▁In	-9.96267
▁지도부	-9.96287
▁예방	-9.96316
▁근처	-9.96356
▁인식	-9.96367
ry	-9.96379
사람	-9.96401
혼	-9.96425
mp	-9.96441
▁않기	-9.96472
▁가격이	-9.96503
▁도착했다	-9.96574
프라	-9.96655
▁이웃	-9.96719
▁아부	-9.96778
푸	-9.96943
▁시청	-9.96982
▁긴	-9.97071
▁토요일	-9.97082
▁네팔	-9.97089
2009.06	-9.97096
개월간	-9.97133
냈	-9.9727
▁최소한	-9.97395
▁살해한	-9.97517
▁떨어졌다	-9.97597
웨	-9.97633
졌으며	-9.97636
▁않으면	-9.9764
▁방어	-9.97677
▁수사관	-9.97704
▁강도	-9.97784
▁아직도	-9.97799
▁공정	-9.97825
▁징역	-9.97972
▁자신들이	-9.9799
▁파타	-9.97995
▁시리즈	-9.98
▁테이프	-9.98001
더라도	-9.98036
▁노대통령	-9.98044
▁점령	-9.98079
▁문제로	-9.98187
▁반발	-9.98263
▁시민들	-9.98313
▁생명	-9.98323
▁지출	-9.98339
▁FBI	-9.98358
▁입국	-9.98394
▁콘	-9.984
65	-9.98456
▁기타	-9.98599
▁무시	-9.98602
▁낙	-9.98605
▁색	-9.98794
▁지휘	-9.98842
▁쿠르드	-9.9891
;	-9.98924
▁순찰	-9.98944
▁장악	-9.98964
▁노벨	-9.98985
▁형성	-9.99086
구역	-9.99103
▁만들었다	-9.99163
53	-9.99236
되면	-9.99323
▁내린	-9.99326
44	-9.99376
ity	-9.99442
위원	-9.99461
▁사용할	-9.99495
사회	-9.99526
▁con	-9.99545
▁송	-9.99567
▁결승	-9.99745
▁대상	-9.99784
주간	-9.99798
64	-9.99799
잉	-9.99802
▁근거	-9.99824
▁쉽게	-9.99861
15	-9.99876
▁침해	-9.99876
▁일본은	-9.99882
걸	-9.99897
▁탈출	-9.999
오바마	-9.99952
계획	-9.99962
▁타격	-9.99979
▁감행	-10.0001
▁즉시	-10.0001
▁통화	-10.001
▁살아	-10.0013
▁솔	-10.0025
de	-10.0025
ess	-10.0025
혔다	-10.003
업자	-10.0032
▁요구하는	-10.0045
▁오하이오	-10.0054
▁상황에	-10.0072
ma	-10.0072
덴	-10.0077
▁꾸	-10.0079
셰	-10.008
州	-10.008
▁나타내	-10.008
번째로	-10.0081
▁한번	-10.0083
▁유럽연합	-10.0084
▁연락	-10.0089
폴	-10.0091
▁실망	-10.0092
▁싸	-10.0092
▁직면	-10.0092
▁복제	-10.0096
▁기준	-10.0097
그룹	-10.0098
77	-10.0105
▁몰아	-10.0107
▁추측	-10.0109
▁끼	-10.0119
der	-10.0121
▁웹	-10.0122
age	-10.0127
▁사령관	-10.0129
▁것처럼	-10.0131
▁전문가들	-10.0137
▁당한	-10.0139
▁돼	-10.014
▁의문	-10.0143
준다	-10.0144
진다	-10.015
400	-10.016
▁방식	-10.016
대회	-10.0164
Z	-10.0175
▁엘리자베스	-10.0175
램	-10.0175
▁폭격	-10.0179
▁선거운동	-10.018
베리	-10.0182
▁만족	-10.0183
▁복용	-10.0186
비치	-10.019
▁의장은	-10.0191
▁남북한	-10.0198
▁연관	-10.0198
▁상품	-10.0199
▁공화당의	-10.0203
▁중요하다	-10.0204
▁한국과	-10.0212
▁우주선	-10.0213
▁토니	-10.0214
▁지지자	-10.0231
린다	-10.0235
▁영국군	-10.0241
▁차관	-10.0241
달러에	-10.0243
52	-10.0255
▁말라	-10.0268
들어	-10.0271
▁소프트웨어	-10.0272
▁협조	-10.0272
컬	-10.0272
▁활용	-10.0272
▁스위스	-10.0272
▁론스타	-10.0272
▁잭슨	-10.0272
▁예술	-10.0275
육	-10.0276
▁끝난	-10.0276
▁육군	-10.0278
▁화산	-10.0279
▁구글	-10.0281
▁MS	-10.0289
쳤	-10.0292
▁이르는	-10.0297
▁속에서	-10.0299
▁대출	-10.0301
▁현장에서	-10.0305
▁자산	-10.0312
된다고	-10.0313
드라	-10.0317
46	-10.0325
▁회담은	-10.0327
▁짐	-10.033
▁실제로	-10.0347
▁결과가	-10.035
▁매장	-10.0355
괴	-10.0355
▁총선에서	-10.0357
▁밝	-10.0361
이션	-10.0363
▁주에서	-10.0363
▁핵실험	-10.0369
▁페르베	-10.0369
▁김정일	-10.0369
▁축제	-10.037
▁갖추	-10.0372
함에따라	-10.0383
▁자격	-10.0389
▁신경	-10.0402
▁대사는	-10.0403
ant	-10.0404
▁우선	-10.0413
▁""	-10.0435
▁홈	-10.0446
▁모습이	-10.0453
닌	-10.0459
▁장치	-10.0461
털	-10.0466
▁일으키	-10.0467
▁기독교	-10.0467
▁사이클론	-10.0468
▁지적	-10.0468
▁1997	-10.047
주에서	-10.0472
▁귀국	-10.048
▁결혼식	-10.048
▁공식적으로	-10.0485
▁신속	-10.0488
▁동물원	-10.0489
▁일부는	-10.049
▁시위자들	-10.0495
려고	-10.0496
▁조사하고	-10.0497
▁상점	-10.0507
▁주로	-10.0513
▁킹	-10.0514
▁아래	-10.0514
▁관광객들	-10.0514
▁주는	-10.0537
▁잘못	-10.0537
▁되면	-10.0538
▁유리	-10.055
▁지연	-10.0557
▁Iraq	-10.0566
▁뉴질랜드	-10.0566
▁헤럴드	-10.0566
▁매들린	-10.0566
▁North	-10.0566
▁1998	-10.0568
▁사우스	-10.0573
▁내놓	-10.0576
득	-10.0579
600	-10.058
▁체포된	-10.0582
▁받아들이	-10.0593
▁구체적인	-10.0594
▁아르헨티나	-10.0598
칸	-10.0599
생활	-10.06
개발	-10.0604
정보	-10.0611
▁요구를	-10.0625
▁총리와	-10.063
▁걸어	-10.0635
▁포함되어	-10.0648
장인	-10.0649
대사	-10.0651
▁CBS	-10.0666
▁드러났다	-10.0666
▁이끌어	-10.0666
7000	-10.0668
▁있으나	-10.0669
▁올렸다	-10.0672
▁의료진	-10.0676
▁수용소	-10.0677
▁마치	-10.068
▁가입	-10.0681
▁압둘라	-10.0681
▁나달	-10.0698
▁길이	-10.07
만큼	-10.0704
▁지지하는	-10.0705
ak	-10.0705
▁권고	-10.0709
▁해산	-10.0712
▁해고	-10.0712
▁가는	-10.0726
▁성화	-10.0727
BA	-10.0733
▁대단	-10.0739
▁인하	-10.0744
▁중이라고	-10.0752
tor	-10.0754
려는	-10.0759
`	-10.0767
▁얘기	-10.0767
▁캠페인	-10.0767
켄	-10.0767
PPP	-10.0767
카르	-10.0767
▁가르	-10.0777
47	-10.0778
▁벗어나	-10.0778
▁변경	-10.078
▁국제적	-10.0795
▁강경	-10.0798
▁기구	-10.0799
▁즐기	-10.08
▁이곳에서	-10.08
▁성공했다	-10.0802
▁빛	-10.0806
▁보석	-10.0807
제도	-10.0808
▁좋아	-10.0816
객들	-10.0829
▁이민	-10.0833
▁V	-10.0841
▁중국과	-10.0847
되었	-10.0854
포트	-10.0858
혁	-10.0862
▁달성	-10.0863
co	-10.0868
▁리버풀	-10.0869
▁싱가포르	-10.0869
▁좋지	-10.0869
▁케네디	-10.0869
꾼	-10.0869
쾌	-10.0869
▁답변	-10.087
▁에이즈	-10.087
▁루이스	-10.0872
▁주인공	-10.0872
▁불참	-10.0874
▁폭행	-10.0876
kg	-10.0878
▁민주화	-10.0878
▁지진으로	-10.0879
▁만드는	-10.0879
▁행정	-10.088
▁투자자들	-10.0882
▁등장	-10.0885
▁상업	-10.0886
▁관여	-10.0888
▁비교	-10.0889
▁실행	-10.0893
▁대부분은	-10.0896
▁경선에서	-10.0901
▁기자들	-10.0902
▁영국에서	-10.0904
▁포함해	-10.0904
▁어린이들	-10.0906
▁학대	-10.0908
ab	-10.0909
▁해결하기	-10.0913
▁소개	-10.0917
▁의도	-10.0919
▁중요	-10.0926
▁곳으로	-10.0934
어스	-10.0939
▁주석	-10.0951
소득	-10.0953
탁	-10.0962
슬리	-10.0962
ain	-10.0968
뜨	-10.0969
당국	-10.097
렬	-10.0971
훈	-10.0972
▁DNA	-10.0972
▁맞서	-10.0972
▁맨체스터	-10.0972
▁우라늄	-10.0972
▁열린우리당	-10.0972
55	-10.0972
▁드라마	-10.0972
▁벌어진	-10.0973
▁안보리	-10.0974
▁음반	-10.0975
▁않도록	-10.0975
▁방침	-10.0977
▁1980	-10.0979
▁전해	-10.0986
결과	-10.0987
바르	-10.0987
▁반정부	-10.0989
▁터키군	-10.0989
▁결승전	-10.0991
▁행진	-10.0991
▁소요	-10.0994
▁지수는	-10.0996
4000	-10.0997
▁장식	-10.1001
원들이	-10.1003
조직	-10.1005
▁혹	-10.1009
▁그와	-10.1017
▁목격	-10.1017
트라	-10.1019
12	-10.1022
EU	-10.1025
▁회담에	-10.1032
68	-10.1034
검사	-10.1035
▁수영	-10.1036
▁회원국	-10.1051
67	-10.1058
분간	-10.1069
핑	-10.107
man	-10.1073
▁포르투갈	-10.1076
▁휘발유	-10.1076
▁페일린	-10.1076
▁첼시	-10.1077
▁질환	-10.1079
▁포드	-10.108
▁가득	-10.1081
▁음모	-10.1081
▁요구하고	-10.1085
▁때문이다	-10.1085
부시	-10.1091
▁화학	-10.1091
겼	-10.1092
▁조각	-10.1096
▁잔해	-10.1106
▁언급하지	-10.112
ang	-10.112
▁감정	-10.1121
▁장비	-10.1125
▁자세	-10.113
56	-10.1137
폭탄	-10.1138
▁중에는	-10.1149
▁덮	-10.1174
▁거절	-10.1175
▁테러가	-10.1176
▁영화제	-10.1177
포드	-10.1177
측이	-10.1179
▁기본	-10.118
▁훨씬	-10.1181
흉	-10.1181
▁베트남	-10.1181
죠	-10.1181
해리포터	-10.1181
▁저는	-10.1182
qu	-10.1182
▁국제유가	-10.1182
▁향후	-10.1184
▁1990	-10.1186
▁크리스티	-10.1188
▁기울	-10.1207
▁is	-10.1207
당국은	-10.1216
▁음	-10.122
▁유치	-10.1223
▁거주하는	-10.1228
오늘	-10.1244
▁폐지	-10.1248
▁250	-10.1254
▁한국군	-10.1254
스티	-10.1258
▁계획이	-10.1265
장치	-10.1266
▁생존자	-10.1267
픈	-10.1282
흑	-10.1285
켈	-10.1286
▁샌프란시스코	-10.1288
▁획득	-10.1288
▁페더러	-10.1288
▁로봇	-10.1288
▁묘사	-10.1288
▁운항	-10.1289
▁공개했다	-10.129
▁경기에	-10.1294
라드	-10.1294
▁밀란	-10.1299
▁병사들	-10.1301
▁영토	-10.1302
▁예정이며	-10.1304
▁주인	-10.1305
▁테러범	-10.1307
▁장관이	-10.1308
▁불리는	-10.131
▁지목	-10.1313
▁파악	-10.1323
▁기상	-10.1323
▁추적	-10.1326
▁지시	-10.1326
▁회담이	-10.133
▁광장	-10.133
▁전면	-10.134
회담	-10.1341
▁치르	-10.1347
콘	-10.1347
콜	-10.1349
▁소니	-10.135
▁외부	-10.1361
▁입수	-10.1366
네스	-10.1367
▁존슨	-10.1377
주일	-10.1381
▁노동자	-10.1382
헨	-10.1394
핀	-10.1395
!	-10.1395
▁모스크바	-10.1395
▁밖으로	-10.1395
룰	-10.1395
▁콘서트	-10.1395
▁랭킹	-10.1395
▁반기문	-10.1395
▁검색	-10.1395
▁얼음	-10.1395
▁맨유	-10.1396
▁나쁜	-10.1397
▁초대	-10.1398
▁빚	-10.1402
▁작동	-10.1402
▁pro	-10.1404
▁폭우	-10.1408
▁집에	-10.141
49	-10.1412
▁이것이	-10.1412
작전	-10.1413
▁시절	-10.1424
▁대결	-10.1425
▁샌	-10.1426
▁중부	-10.1427
▁워싱턴에서	-10.1429
▁주장하는	-10.143
▁빅	-10.1438
▁편지	-10.144
▁희생자들	-10.1441
81	-10.1454
▁행성	-10.1457
▁단체는	-10.1462
맥	-10.1462
듯	-10.1464
됐고	-10.1479
▁학생들이	-10.1483
▁도달	-10.1488
58	-10.1494
▁목격자들	-10.1499
▁무대	-10.1504
튜	-10.1504
▁South	-10.1504
둥	-10.1504
▁온난화	-10.1504
▁세계대전	-10.1504
▁금요일	-10.1504
▁중재	-10.1505
▁이메일	-10.1505
▁목격자	-10.1507
▁전개	-10.1507
▁둘러	-10.1508
▁접속	-10.1508
▁이사	-10.1512
▁야생	-10.1512
▁토론회	-10.1513
▁것보다	-10.1513
▁소환	-10.1514
▁입양	-10.1519
▁밑	-10.1523
""	-10.1527
▁예비	-10.1531
▁남쪽	-10.1537
▁지정	-10.1537
▁탐	-10.1541
z	-10.1542
▁고객	-10.1547
▁방문할	-10.155
▁잃었다	-10.1555
▁당선인은	-10.1556
▁주간	-10.1566
미군	-10.1569
펜	-10.1576
▁심슨	-10.1577
들로부터	-10.1577
▁방법으로	-10.1578
▁충분한	-10.1579
▁꿈	-10.1581
▁잡지	-10.1583
대학	-10.1589
▁바그다드에서	-10.1589
▁방지	-10.1591
적이고	-10.1602
기술	-10.1603
년에는	-10.1608
모든	-10.1609
아메리칸	-10.1614
현지시각	-10.1614
▁특파원	-10.1614
▁9.11	-10.1614
▁측근	-10.1615
▁앨범	-10.1616
▁주식시장	-10.1616
▁취할	-10.1617
▁영변	-10.1617
▁주문	-10.1618
▁학살	-10.162
▁성향	-10.1623
▁리비아	-10.1625
TA	-10.1629
▁말합니다	-10.1632
▁협회	-10.1637
▁밖에서	-10.1639
▁부근	-10.1651
ear	-10.1654
▁신체	-10.1654
▁방문했다	-10.1656
▁사법	-10.1667
▁남아	-10.1669
▁생각하고	-10.1673
▁선물	-10.1675
39	-10.1678
▁의무	-10.169
▁조사에서	-10.1692
그들은	-10.1692
100	-10.1695
▁의원들은	-10.1701
▁진행된	-10.1712
▁용의자들	-10.1715
되자	-10.1716
탑	-10.1725
아메리카	-10.1725
▁리콜	-10.1729
▁허락	-10.173
▁사무총장	-10.173
▁합동	-10.1732
▁저항	-10.1732
▁CIA	-10.1735
▁카페	-10.1735
▁내전	-10.1746
▁경기장	-10.1753
스틴	-10.1754
▁이란은	-10.1755
▁수집	-10.1758
▁예상했다	-10.1762
▁출시	-10.1764
▁공중	-10.1764
▁체니	-10.1765
▁주목	-10.1765
▁이들이	-10.1767
▁생존	-10.1771
▁특별한	-10.1772
-3	-10.1773
▁논란	-10.1778
므로	-10.1779
련	-10.1781
우드	-10.1783
▁시작한	-10.1788
14	-10.179
▁속도	-10.1794
작업	-10.1803
▁윤	-10.1807
지구	-10.1809
▁원하는	-10.1813
82	-10.1815
▁성과	-10.1825
▁Re	-10.1827
▁레이스	-10.1831
컴	-10.1835
롬	-10.1837
▁않았으며	-10.1837
▁유나이티드	-10.1837
밍	-10.1837
▁편집	-10.1843
▁이익	-10.1849
▁모양	-10.1858
41	-10.1861
▁자기	-10.1861
▁계획에	-10.1888
▁후임	-10.1894
▁38	-10.1898
▁철도	-10.1901
▁다니	-10.1913
▁마시	-10.1917
놀	-10.1924
싸	-10.1928
빠	-10.1933
▁에어	-10.1937
▁사건과	-10.1939
▁대부분이	-10.1949
넬	-10.195
럭	-10.195
▁헤즈볼라	-10.1951
롱	-10.1951
▁쿠데타	-10.1951
▁회견	-10.1951
▁대다수	-10.1952
▁봄	-10.1953
ong	-10.1955
▁핵시설	-10.1956
▁사건으로	-10.1963
▁기능	-10.1966
▁격차	-10.1966
▁다우	-10.1976
사항	-10.1981
tr	-10.1982
mb	-10.1985
▁처음이다	-10.1985
▁서방	-10.1987
자리	-10.1989
▁에드	-10.199
▁이번주	-10.2004
▁보면	-10.2015
ial	-10.2031
300	-10.2038
조차	-10.2039
▁발표된	-10.2048
공사	-10.205
▁아일랜드	-10.2053
▁폭발물	-10.2053
▁바라고	-10.206
90	-10.2064
▁멸종	-10.2066
[	-10.2066
▁with	-10.2066
▁우주비행사	-10.2066
▁장례식	-10.2066
첸	-10.2066
▁여자친구	-10.2066
▁아이오와	-10.2066
▁겨울	-10.2066
▁수요	-10.2069
cm	-10.207
량이	-10.2072
▁교사	-10.2072
▁마틴	-10.2073
▁걸릴	-10.2075
▁체결	-10.2077
▁만날	-10.2078
▁복구	-10.2079
▁나서	-10.2081
▁전투기	-10.2083
▁가까이	-10.2087
▁차드	-10.2088
▁평화적	-10.2099
▁산타	-10.2103
▁어디	-10.2114
po	-10.2122
▁파티	-10.2122
▁의회의	-10.2125
▁클라	-10.2125
▁이송	-10.213
▁톰	-10.2147
어져	-10.2152
▁현재까지	-10.2153
▁중국에서	-10.2158
res	-10.216
쓰	-10.2162
▁Co	-10.2166
▁경찰서장	-10.217
지수는	-10.2171
딜	-10.2182
▁다이아몬드	-10.2182
▁떨어지	-10.2182
▁알래스카	-10.2182
▁옮겨	-10.2182
엑	-10.2182
▁적십자	-10.2182
▁일환으로	-10.2182
▁다르푸르	-10.2182
▁그레	-10.2183
져야	-10.2188
63	-10.2189
되어야	-10.2189
our	-10.2193
▁프라	-10.2193
연맹	-10.2195
▁37	-10.2196
▁특정	-10.2198
▁나누	-10.22
▁동반	-10.2201
▁물러	-10.2202
▁심문	-10.2204
ke	-10.2206
45	-10.2212
out	-10.2221
▁이스라엘군	-10.2226
▁수감자	-10.2226
▁신호	-10.2227
▁추정되는	-10.2229
85	-10.2229
ine	-10.2232
차전	-10.2233
▁절대	-10.2244
▁CEO	-10.2252
심한	-10.2259
▁최초로	-10.2259
요원	-10.2261
아나	-10.2263
민주당	-10.2295
▁자치	-10.2299
▁다우존스	-10.23
▁달라이라마	-10.23
듀	-10.23
▁설득	-10.23
▁FTA	-10.2302
타르	-10.2304
▁교환	-10.2306
▁증권	-10.2312
▁치러진	-10.2313
▁오염	-10.2313
▁일주일	-10.2315
▁식당	-10.2316
76	-10.2322
▁물건	-10.2325
▁회원	-10.2326
▁보통	-10.2334
▁사실상	-10.2338
▁파산	-10.2345
▁니콜	-10.2349
▁답	-10.235
▁웨스트	-10.2351
▁잠시	-10.2351
▁불과	-10.2359
했기	-10.236
▁요인	-10.2366
▁36	-10.2372
13	-10.2397
▁열리	-10.24
삼	-10.2406
농	-10.2409
홀	-10.2409
▁둘	-10.2412
춘	-10.2415
54	-10.2415
받았다	-10.2416
딕	-10.2416
▁이스라엘과	-10.2417
섭	-10.2417
퀴	-10.2419
]	-10.2419
▁얻어	-10.2419
▁더불어	-10.2419
▁쇼핑	-10.2419
▁발굴	-10.2421
▁바꾸	-10.2421
▁폭락	-10.2423
▁행복	-10.2425
ational	-10.2426
▁어려운	-10.2428
▁않지만	-10.2429
▁커피	-10.2429
▁50%	-10.243
▁친구들	-10.2431
시키려	-10.2433
▁아이들이	-10.2437
▁달라	-10.2442
▁강요	-10.2447
▁프레	-10.245
▁세워	-10.2451
▁재건	-10.2452
▁제안했다	-10.2452
▁통신은	-10.2454
라이브	-10.2456
are	-10.2464
러스	-10.2465
▁경보	-10.2471
원제	-10.2474
▁기업들	-10.2482
▁그리	-10.249
▁보고했다	-10.249
▁광산	-10.2492
▁St	-10.2494
부대	-10.2503
▁업계	-10.2504
▁목적으로	-10.2521
▁국회의원	-10.2521
▁원한다	-10.2523
해왔	-10.2527
닥	-10.2531
▁지점	-10.2533
묘	-10.2537
뿐	-10.2537
ha	-10.2538
▁됩니다	-10.2539
▁스리랑카	-10.2539
▁앉아	-10.2539
▁에드워즈	-10.2539
▁코미디	-10.2539
▁갑자	-10.2541
▁사냥	-10.2542
▁북극	-10.2542
▁소비자들	-10.2548
▁출석	-10.2548
▁매각	-10.2554
▁FARC	-10.2554
▁항소	-10.2555
▁생물	-10.2556
▁도입	-10.2559
▁배출	-10.2559
▁조합	-10.2561
▁담당자	-10.2564
후드	-10.2564
▁밝히고	-10.2565
▁확산되	-10.2568
츠는	-10.2571
▁신임	-10.2571
▁거두	-10.2572
▁계속되고	-10.2575
▁적절한	-10.2579
▁멜	-10.2581
▁가자	-10.2585
PA	-10.2588
▁투어	-10.26
▁사무	-10.2611
▁사용한	-10.2618
▁기도	-10.2628
59	-10.263
▁결정은	-10.2631
▁있어서	-10.2631
▁의식	-10.264
만약	-10.264
▁기분	-10.2641
▁의회는	-10.2643
▁지상	-10.2644
최	-10.2645
룬	-10.2656
▁고대	-10.2657
멸	-10.2661
쇠	-10.2661
떼	-10.2661
▁방글라데시	-10.2661
렐	-10.2661
콤	-10.2661
▁오스트리아	-10.2661
▁칠레	-10.2662
둘	-10.2662
▁NBC	-10.2662
▁윈	-10.2664
이슬람	-10.2664
▁것이라며	-10.2664
라면	-10.2664
▁시장에서	-10.2665
▁회사들	-10.2666
▁데이터	-10.2666
▁단순	-10.2666
빠진	-10.2668
▁성관계	-10.2672
▁기존	-10.2673
▁자본	-10.2681
▁벽	-10.2684
▁서울에서	-10.2684
▁된다고	-10.27
▁북측	-10.2707
18	-10.2709
▁외교적	-10.2727
▁윌	-10.2732
▁호세	-10.2733
페이지	-10.2738
▁사전	-10.2739
▁아동	-10.274
국민	-10.274
▁제도	-10.2741
▁부근에서	-10.2754
▁그림	-10.2758
▁넓	-10.2759
▁테러리스트	-10.277
▁소수	-10.2772
ure	-10.2784
랭	-10.2785
▁노스캐롤라이나	-10.2785
▁봉쇄	-10.2785
▁예상되	-10.2786
조원	-10.2788
▁공산당	-10.2788
▁합류	-10.2789
파키스탄	-10.2791
▁폭동	-10.2795
▁치열	-10.2795
▁방영	-10.2796
정부는	-10.2796
ell	-10.2799
▁부담	-10.2799
▁의존	-10.28
▁시드	-10.2802
▁화물	-10.2802
세력	-10.2805
▁적은	-10.2812
▁해양	-10.2816
▁피난	-10.2816
▁각국	-10.2817
측에	-10.2822
▁美	-10.2825
▁청소년	-10.2828
▁버마	-10.2829
▁노력하고	-10.2831
▁48	-10.2831
▁사인	-10.2832
2008.0	-10.2832
▁이하	-10.284
▁sh	-10.2841
▁고소	-10.2844
900	-10.2845
▁중독	-10.2845
43	-10.2849
▁상승했다	-10.2859
▁수송	-10.2861
▁후원	-10.2864
▁부여	-10.2868
▁본사	-10.288
▁말까지	-10.2887
▁사용되	-10.2891
▁아르	-10.2894
▁책임자	-10.2895
ress	-10.2899
▁해병대	-10.2899
께	-10.2902
▁세상	-10.2905
냉	-10.2909
흘	-10.291
룩	-10.291
▁없으며	-10.291
▁나이지리아	-10.291
▁카르자이	-10.291
▁마카오	-10.291
▁흡연	-10.291
▁재무장관	-10.291
▁검거	-10.291
▁실시되	-10.291
mm	-10.2912
▁하늘	-10.2912
▁농축	-10.2914
▁노동자들	-10.2915
▁가옥	-10.2916
▁식품	-10.2917
아야	-10.2926
▁승리했다	-10.2927
▁측정	-10.2927
▁나갈	-10.293
▁대항	-10.2931
▁통계	-10.2932
▁현실	-10.2932
했음	-10.2932
▁51	-10.2935
▁소설	-10.294
상황	-10.2942
▁어려	-10.2943
▁묵	-10.2946
된다면	-10.2952
▁펜	-10.2953
84	-10.2954
▁조성	-10.2956
▁만화	-10.2957
▁골드	-10.2964
관련	-10.2965
머니	-10.2965
레나	-10.2967
▁스키	-10.2974
▁세우	-10.2974
▁많다	-10.2976
됐었다	-10.2983
▁공항에서	-10.2986
씨가	-10.2988
▁잇	-10.2989
▁북쪽	-10.3
▁연주	-10.3
▁구조대	-10.3001
▁오브	-10.3003
▁보관	-10.3005
▁소식이	-10.3008
one	-10.302
tion	-10.3021
▁낸	-10.3026
▁일본에서	-10.303
▁전날	-10.3031
16	-10.3033
▁의회에	-10.3034
▁고등학교	-10.3036
▁네트워크	-10.3036
▁훌륭	-10.3036
큐	-10.3036
▁파예드	-10.3036
▁카스트로	-10.3036
▁습격	-10.3037
▁취재	-10.3037
▁관람	-10.3039
▁복잡	-10.3039
▁목록	-10.304
▁혁명	-10.3041
생물학	-10.3042
▁건축	-10.3042
▁극복	-10.3042
ie	-10.3044
브레	-10.3045
▁시드니	-10.3045
칼	-10.3047
휴	-10.3048
▁인류	-10.3049
정도	-10.3051
▁최선	-10.3056
▁페루	-10.3059
▁구출	-10.3062
러시아	-10.3066
▁보복	-10.3068
▁증가하고	-10.3072
▁개방	-10.3073
▁로한	-10.3082
78	-10.3088
▁내릴	-10.3091
79	-10.3094
▁모인	-10.3101
▁체제	-10.3106
▁기다리고	-10.311
▁국경지역	-10.3111
▁트리	-10.3124
▁의지	-10.313
▁이유는	-10.3136
▁베르	-10.3137
▁자리에서	-10.3139
▁야기	-10.3142
▁수상자	-10.3148
▁사드르	-10.3151
▁왕세자	-10.3156
▁부과	-10.3157
끄	-10.3164
넷	-10.3164
▁훼손	-10.3164
덜	-10.3164
▁스웨덴	-10.3164
▁거뒀다	-10.3164
▁북동부	-10.3164
▁혜택	-10.3165
IOC	-10.3165
New	-10.3165
▁숫자	-10.3165
▁유대인	-10.3168
▁콩고	-10.3168
▁패션	-10.3168
▁남아공	-10.3168
▁말하는	-10.317
▁클레	-10.3171
▁출판	-10.3172
▁있었고	-10.3175
▁순방	-10.318
▁인종	-10.3181
▁움직이	-10.3181
▁풀어	-10.3183
▁모색	-10.3186
▁발병	-10.3186
69	-10.3187
▁돌려	-10.3187
▁상처	-10.3188
워터	-10.3189
▁선언했다	-10.3192
▁의학	-10.3208
▁방화	-10.3208
▁그동안	-10.3219
▁조기	-10.3222
▁불러	-10.3232
지난	-10.3233
▁유감	-10.3233
▁경쟁자	-10.3241
가격	-10.3242
전쟁	-10.325
위원장	-10.3257
▁태평양	-10.3265
▁노리	-10.3272
▁분석가	-10.3277
62	-10.3278
▁피랍	-10.328
흔	-10.3291
흥	-10.3294
첨	-10.3294
혜	-10.3294
▁덴마크	-10.3294
▁얻기	-10.3294
▁이렇게	-10.3294
▁정확히	-10.3294
▁펼치	-10.3294
나갔다	-10.3294
릿	-10.3294
FRB	-10.3294
▁이재민	-10.3294
닷컴	-10.3295
▁이뤄지	-10.3295
▁고향	-10.3304
▁2010	-10.3306
▁의회에서	-10.3306
기업	-10.3309
▁사담	-10.331
▁명예	-10.331
▁비율	-10.3316
답	-10.3318
▁진실	-10.3319
ard	-10.332
▁지도자들은	-10.332
▁AC	-10.3324
▁세포	-10.3333
현재	-10.3333
▁베이징에서	-10.3337
▁경호원	-10.3342
▁10%	-10.3344
▁현금	-10.3345
▁지진이	-10.3347
시위	-10.3348
▁로비	-10.3354
▁올린	-10.3357
▁환자들	-10.3375
▁시내	-10.3396
플레	-10.3398
▁tr	-10.3402
명에게	-10.3403
▁플레이	-10.3418
AN	-10.342
콩	-10.3422
웅	-10.3424
NATO	-10.3426
▁마찬가지	-10.3426
▁챔피언스리그	-10.3426
UEFA	-10.3426
▁will	-10.3427
▁커플	-10.3431
▁레알	-10.3432
▁영업	-10.3434
▁자극	-10.3442
▁일리노이주	-10.3443
▁입증	-10.3443
▁인공	-10.3446
▁대가로	-10.3446
▁만난	-10.3447
▁고발	-10.3454
▁주제	-10.3456
▁발생했으며	-10.3462
연구소	-10.3464
▁선발	-10.3473
▁말리키	-10.3478
▁취해	-10.3478
▁권한	-10.3485
해줄	-10.3487
▁거부했다	-10.3488
▁유력	-10.349
▁향하	-10.351
▁시위대는	-10.3512
▁주최	-10.3512
▁제공하는	-10.3518
▁실패했다	-10.3532
▁앨	-10.3537
ts	-10.3557
▁마치고	-10.3557
▁Japan	-10.3559
▁예루살렘	-10.3559
갤	-10.3559
▁청문회	-10.3559
▁남동부	-10.3559
▁plan	-10.3559
▁엄청	-10.356
2008.12	-10.356
▁코커스	-10.3561
▁새끼	-10.3563
섹스	-10.3563
지금	-10.3565
▁장착	-10.3566
▁과격	-10.3569
▁보안군	-10.3577
▁체계	-10.3578
▁노예	-10.3578
-2	-10.3579
▁임금	-10.3582
스테	-10.3595
팔	-10.3595
▁배경	-10.3596
IS	-10.3601
▁진화	-10.3601
▁초점	-10.3603
▁남아있	-10.3621
▁본선	-10.3635
▁공화국	-10.3638
▁숙	-10.3639
드시	-10.3639
본부	-10.3645
▁보인다고	-10.3646
▁발생하지	-10.3649
▁말해	-10.3662
▁카드	-10.3665
▁IAEA	-10.3679
민주	-10.3679
뱀	-10.3694
웬	-10.3694
▁성화봉송	-10.3694
▁외교통상부	-10.3694
▁활주로	-10.3694
▁디즈니	-10.3694
▁폴란드	-10.3694
▁그것이	-10.3695
▁완벽	-10.3695
▁다니엘	-10.3696
▁봉사	-10.3697
▁민족	-10.3698
ice	-10.3699
▁노인	-10.3702
▁멀	-10.3705
▁분열	-10.3705
▁사장은	-10.371
▁소매	-10.3712
▁압수	-10.3712
▁받아야	-10.3717
▁이양	-10.3725
▁가했다	-10.3727
▁중순	-10.3728
▁대회에서	-10.3731
▁수업	-10.3735
마르	-10.3737
천만	-10.3738
▁달려	-10.3742
▁있다면	-10.3748
37	-10.3748
미니	-10.3749
축구	-10.3768
▁셀	-10.3776
▁600	-10.378
디스	-10.378
안보	-10.3782
리스트	-10.3786
74	-10.3791
▁열대	-10.3792
▁방향	-10.38
▁대선에서	-10.3809
26	-10.3813
▁납치된	-10.3823
▁중간	-10.3829
▁인디애나	-10.3831
▁크루즈	-10.3831
렘	-10.3831
▁아이디어	-10.3831
▁리조트	-10.3832
▁삭제	-10.3832
▁모기지	-10.3832
▁싸움	-10.3833
▁전통적	-10.3833
▁타이틀	-10.3833
▁관찰	-10.3835
▁합병	-10.3837
ood	-10.3837
▁있었지만	-10.3838
▁생긴	-10.384
▁보잉	-10.384
▁관영	-10.3841
▁철군	-10.3841
행사	-10.3841
▁출산	-10.3844
▁복무	-10.3844
▁빙하	-10.3845
▁아니면	-10.3846
6000	-10.3846
▁무죄	-10.3846
▁분명히	-10.3847
▁PC	-10.3853
▁고립	-10.3855
▁연행	-10.3856
▁따르	-10.3858
▁실적	-10.3859
디아	-10.3863
▁견해	-10.3865
▁드러	-10.3865
수록	-10.3865
▁군정	-10.3869
▁대량	-10.3873
▁구금	-10.3874
▁높아지	-10.3876
되었고	-10.3877
▁발간	-10.3881
▁이중	-10.3883
범죄	-10.3889
▁공유	-10.39
FA	-10.3904
▁캘리포니아주	-10.3905
▁유전자	-10.3907
으면서	-10.3912
▁인사들	-10.3912
▁기차	-10.3916
▁승객들	-10.3921
금지	-10.3923
▁런던에서	-10.3925
▁난사	-10.3928
▁방송국	-10.3936
짜	-10.3941
▁수상했다	-10.3958
▁표했다	-10.3959
쉽	-10.3964
곰	-10.397
▁라스베이거스	-10.397
▁태어난	-10.397
▁토마스	-10.397
▁운송	-10.3971
▁회동	-10.3972
▁채택	-10.3975
▁뉴욕에서	-10.3976
▁착용	-10.3979
▁지시했다	-10.398
▁독재	-10.398
▁은퇴	-10.3981
▁계획이라고	-10.3984
▁일반적으로	-10.3985
버스	-10.3986
▁돌아오	-10.399
▁과학자	-10.3992
▁청구	-10.3993
▁주지사가	-10.4
▁총격전	-10.4001
ide	-10.4007
▁갖게	-10.4009
시대	-10.4011
▁제조업체	-10.4014
▁서신	-10.4017
응	-10.4018
짐	-10.4021
영국	-10.4022
▁위조	-10.4023
벤	-10.4026
앤	-10.4026
미터	-10.4028
▁재단	-10.4041
▁크라이슬러	-10.4048
평화	-10.405
▁기대하고	-10.4057
av	-10.4058
▁보고서에서	-10.4062
99	-10.4064
▁안전한	-10.4068
▁부서	-10.4069
▁사장	-10.4075
▁의미한다	-10.408
▁누리	-10.4082
▁위원회는	-10.4089
▁수감자들	-10.4101
IC	-10.4105
캔	-10.411
▁같	-10.411
▁사우디아라비아	-10.4111
▁쏟아	-10.4111
▁협박	-10.4111
댄	-10.4111
일본	-10.4111
▁이루어지	-10.4111
▁심지어	-10.4111
▁면담	-10.4112
▁보여줬다	-10.4112
▁하원의원	-10.4113
▁빈곤	-10.4114
▁매춘	-10.4114
▁응급	-10.4115
▁2012	-10.4118
▁항구	-10.4122
▁명백	-10.4124
▁보낼	-10.4126
▁카불	-10.4126
▁고어	-10.4126
▁거쳐	-10.4131
▁지역으로	-10.4135
▁실종된	-10.4139
▁대학교	-10.4148
▁기금	-10.4151
▁재난	-10.4152
▁보유하고	-10.4156
22	-10.4157
타운	-10.4165
▁유발	-10.4166
김	-10.4172
카운티	-10.4173
▁크레	-10.4175
현지	-10.4175
담당	-10.4193
▁자세한	-10.4196
▁이사회	-10.4201
▁로스	-10.4205
명도	-10.4213
▁무선	-10.4229
▁나오는	-10.4236
▁치러	-10.4242
▁펼쳐	-10.4254
▁휴대전화	-10.4254
▁바르셀로나	-10.4254
겸	-10.4254
▁논평	-10.4254
▁엄격	-10.4254
▁누군가	-10.4254
▁베를린	-10.4254
느냐	-10.4256
▁1994	-10.4257
▁케이블	-10.4257
▁해결책	-10.426
▁철저	-10.426
▁하와이	-10.4262
▁작용	-10.4266
▁뼈	-10.4267
▁마쳤다	-10.4268
war	-10.4272
▁단속	-10.4272
▁형제	-10.4277
▁생각하는	-10.4279
▁로드	-10.4281
▁승리한	-10.4283
달라고	-10.4284
▁추정된다	-10.4285
▁신발	-10.4289
▁무료	-10.4292
달간	-10.4304
▁만들어진	-10.4308
▁시사	-10.4315
▁못하게	-10.4317
스타인	-10.4319
밤	-10.4322
▁영장	-10.4323
▁호텔에서	-10.4327
위안	-10.4333
da	-10.4358
기록	-10.4361
oll	-10.4381
▁동성애자	-10.4392
▁요리	-10.4397
셉	-10.4399
▁동티모르	-10.4399
▁펼쳤다	-10.4399
끈	-10.4399
쓸	-10.4399
좁	-10.4399
춤	-10.4399
WHO	-10.4399
▁쓰나미	-10.4399
▁파트너	-10.4399
▁주한미군	-10.4399
▁에어버스	-10.4399
▁외환은행	-10.4399
▁바스라	-10.44
▁두바이	-10.4401
▁급등	-10.4404
▁디자인	-10.4406
버리	-10.4416
되었으며	-10.4417
차량	-10.4419
▁사령관은	-10.442
▁대학생	-10.4422
병원	-10.4423
▁42	-10.4426
▁중심부	-10.4434
▁시각	-10.4437
▁골프	-10.4438
베나	-10.4441
▁여권	-10.4442
▁신중	-10.4445
더스	-10.4447
▁간단	-10.4451
▁한때	-10.4452
▁3000	-10.4454
되었던	-10.4455
17	-10.4456
스케	-10.4457
28	-10.4458
었으나	-10.4467
▁책임이	-10.4473
▁의석	-10.4474
▁논란이	-10.4476
▁회의에서	-10.4477
있었다	-10.4478
아버지	-10.4482
▁기계	-10.4483
학자들	-10.4493
▁처해	-10.4509
▁말하며	-10.4515
활	-10.4516
▁공간	-10.4523
이었으며	-10.4525
▁발생하는	-10.4525
▁신부	-10.4536
▁보트	-10.4543
밥	-10.4546
▁그렇지	-10.4546
▁불능화	-10.4546
▁이루어졌다	-10.4546
▁일으킨	-10.4546
엠	-10.4546
킬로미터	-10.4546
틱	-10.4546
▁차관보는	-10.4546
▁송환	-10.4548
▁(=	-10.4548
▁저지른	-10.4549
▁바닥	-10.4556
학생	-10.4556
▁기밀	-10.4563
▁참석했다	-10.4563
▁나올	-10.4567
돼있다	-10.4572
▁존중	-10.458
▁첫번째	-10.458
▁맛	-10.4583
▁당신이	-10.4583
▁사회적	-10.4586
▁점차	-10.4586
▁공포	-10.4595
▁못한다	-10.4603
▁자문	-10.461
▁응답자	-10.4615
▁마비	-10.4617
▁운전자	-10.4619
▁지켜보	-10.4619
▁우리당	-10.4623
슈퍼	-10.4623
▁케리	-10.4624
▁도시에서	-10.4627
이스라엘	-10.4628
솔	-10.4628
규모	-10.4632
따	-10.4638
▁유전	-10.4643
▁130	-10.4644
교회	-10.4645
▁높아	-10.4645
▁마감했다	-10.4656
▁예수	-10.4664
▁이곳에	-10.4667
ast	-10.4667
▁리처드	-10.4681
짝	-10.4695
▁레스토랑	-10.4695
▁선거캠프	-10.4695
▁휩싸	-10.4695
꽃	-10.4695
▁김대중	-10.4695
▁흥분	-10.4695
▁벌어지	-10.4696
▁우리나라	-10.4696
▁적극적	-10.4697
▁여학생	-10.4698
8000	-10.4699
▁못해	-10.4703
▁검은	-10.4705
▁받았으며	-10.4706
▁북미	-10.471
▁종류	-10.471
▁세계은행	-10.4712
▁이것	-10.4712
제대로	-10.4715
▁노동당	-10.4715
▁개표	-10.4717
▁발전소	-10.4718
▁특수	-10.4728
▁표명	-10.473
▁부정적	-10.4738
▁유출	-10.4745
▁상공	-10.4746
▁답했다	-10.4746
연대	-10.4755
▁아니었다	-10.4761
▁제기했다	-10.4767
▁공약	-10.4768
▁가구	-10.4775
빛	-10.4788
자들과	-10.4793
▁불가능	-10.4801
95	-10.4802
▁국방	-10.4815
▁비판했다	-10.4816
▁압둘	-10.4824
▁일리노이	-10.4827
▁생일	-10.4835
촉	-10.4845
0,000	-10.4847
▁만났다	-10.4847
▁곤잘레스	-10.4847
▁콜로라도	-10.4847
▁핵프로그램	-10.4848
▁헨리	-10.4848
▁백인	-10.4849
▁것이었다	-10.4849
▁숀	-10.485
▁고위관리	-10.485
▁강풍	-10.4853
총리	-10.4856
ence	-10.4856
▁테스트	-10.4858
▁경영진	-10.4858
▁1970	-10.4859
▁인생	-10.4861
▁그래서	-10.4864
35	-10.4865
변화	-10.4867
▁이슬람교	-10.4871
▁보도에따르면	-10.4873
▁도망	-10.4874
▁총장은	-10.4875
ail	-10.4877
▁따라서	-10.4877
▁요소	-10.4885
▁벗	-10.4889
▁뇌물	-10.489
▁예전	-10.4894
▁불길	-10.4897
▁상어	-10.4897
▁기자들에게	-10.4898
▁차단	-10.49
▁나이트	-10.4905
▁다루	-10.4908
▁서울시	-10.4917
국제	-10.4926
ance	-10.4936
▁신분	-10.4945
▁지질	-10.4946
iz	-10.4947
▁사망자수	-10.4959
▁당수	-10.4967
▁근로자	-10.4971
▁파손	-10.4994
흡	-10.4997
▁들어갔다	-10.5001
틸	-10.5001
▁나스닥	-10.5001
▁북서부	-10.5001
▁와인하우스	-10.5001
▁침입	-10.5001
▁자원	-10.5001
▁방콕	-10.5001
▁ABC	-10.5003
▁화장실	-10.5004
▁자유롭	-10.5004
▁직업	-10.5005
▁출입	-10.5006
▁개장	-10.5007
▁미국측	-10.5008
▁40%	-10.5013
▁진영	-10.5013
▁사막	-10.5014
▁산림	-10.5016
▁화면	-10.5023
▁법안이	-10.5024
▁쓴	-10.5027
▁칼리	-10.5033
ther	-10.5033
▁돌파	-10.5033
▁올려	-10.5037
▁세대	-10.504
▁전역에	-10.504
▁해임	-10.5052
▁미술	-10.5052
▁사용될	-10.5054
▁논의하기	-10.5057
▁가능하다	-10.5067
▁내정	-10.5071
▁선전	-10.5084
▁돼지	-10.509
핵	-10.5102
멜	-10.5103
▁고객들	-10.511
▁해적	-10.5114
▁사용자	-10.5123
▁집으로	-10.5125
▁리치	-10.5131
▁33	-10.5136
▁주기	-10.5138
▁시민들이	-10.5139
▁두번째	-10.5144
해질	-10.5145
▁약화	-10.515
▁요르단	-10.5155
랙	-10.5157
▁President	-10.5157
▁떠났다	-10.5157
▁맞추	-10.5157
▁블라디미	-10.5157
▁스코틀랜드	-10.5157
▁없지만	-10.5157
룸	-10.5157
▁법무부	-10.5157
▁촉발	-10.5157
▁활약	-10.5157
▁둘러싸	-10.5157
▁축소	-10.5158
▁성직자	-10.5159
▁라이벌	-10.5159
▁자치정부	-10.516
▁언어	-10.516
▁대륙	-10.516
▁필립	-10.5163
▁급증	-10.5164
▁환호	-10.5166
▁아프가니스탄에서	-10.5166
▁엘리	-10.5168
act	-10.5169
▁열어	-10.517
▁체중	-10.5173
▁왕실	-10.5174
▁리드	-10.5177
▁경비	-10.5179
베르	-10.5181
▁다우지수	-10.5182
▁성격	-10.5183
▁가졌	-10.5184
▁불편	-10.5192
▁정전	-10.5196
▁꼭	-10.5202
▁직전	-10.5205
▁자랑	-10.5207
no	-10.5208
▁연금	-10.5215
▁상호	-10.522
▁맥주	-10.5223
▁일어났	-10.5225
페이스	-10.5225
▁공모	-10.5229
즉각적인	-10.5243
▁보호하기	-10.5248
▁자신에게	-10.5248
여성	-10.5252
▁연안	-10.5253
▁성공적	-10.5268
▁개인적	-10.5269
▁포함된	-10.5273
붙	-10.5275
▁독도	-10.5283
▁감지	-10.5287
▁생각했다	-10.5291
▁코트	-10.5292
위성	-10.5293
매우	-10.53
▁진술했다	-10.53
▁120	-10.5305
▁이라크군	-10.5308
▁개시	-10.5313
옹	-10.5315
▁가택연금	-10.5316
▁샤라포바	-10.5316
넨	-10.5316
Q	-10.5316
▁패트릭	-10.5316
퀸	-10.5316
▁겨냥	-10.5316
▁남서부	-10.5316
▁리차드	-10.5316
▁받아들일	-10.5316
▁봉송	-10.5316
▁촉진	-10.5316
▁월스트리트	-10.5316
▁천주교	-10.5316
▁거듭	-10.5316
▁수석대표	-10.5317
▁붙잡	-10.5318
▁걸리	-10.5331
▁낸시	-10.5335
▁벌여	-10.5335
후보	-10.5335
▁몰려	-10.5336
▁구축	-10.5337
투표	-10.5339
48	-10.5343
▁월드	-10.5346
▁들여	-10.5348
레이크	-10.5355
우주	-10.536
▁대치	-10.5365
▁백악관에서	-10.5378
스럽게	-10.5379
▁주장하며	-10.5379
▁인원	-10.538
▁Mo	-10.5382
▁조약	-10.5392
▁날아	-10.5396
83	-10.5402
▁농장	-10.5402
연구원	-10.5407
▁전환	-10.5409
▁여행객	-10.541
▁즉각	-10.5416
▁대상이	-10.5416
▁만들고	-10.5419
▁사람에게	-10.5424
▁나왔	-10.5432
동맹	-10.5433
풀	-10.5434
헤드	-10.5437
됐으나	-10.5439
▁다르	-10.5456
▁지내	-10.5464
▁동쪽	-10.5471
▁가해	-10.5471
lu	-10.5473
삭	-10.5476
겁	-10.5477
*	-10.5477
▁쌍둥이	-10.5477
▁오사마빈라덴	-10.5477
▁알코올	-10.5477
▁탄핵	-10.5478
▁다섯	-10.5478
▁상하이	-10.5478
▁영웅	-10.5479
▁케빈	-10.5479
▁감염된	-10.548
▁애도	-10.5483
▁자사	-10.5483
▁타임스	-10.5484
▁나토군	-10.5485
▁정착	-10.5495
▁주었다	-10.5496
▁폭파	-10.5497
▁스타일	-10.55
▁것인가	-10.5503
업체들	-10.5506
▁일제	-10.5507
▁초반	-10.551
▁선보	-10.5514
▁카터	-10.5519
▁들어오	-10.5525
▁비난하고	-10.5531
▁맡은	-10.5535
▁레드	-10.554
▁su	-10.5542
▁하락세	-10.5544
▁자제	-10.5547
▁떨어졌	-10.5548
▁국민들에게	-10.5549
돼야	-10.556
▁입법	-10.5568
▁던지	-10.5573
재판소	-10.5574
때문에	-10.559
였지만	-10.5592
▁평가했다	-10.5597
자동차	-10.5604
▁확실한	-10.5605
버렸다	-10.5607
▁폭스	-10.5624
▁공개된	-10.5628
나무	-10.5634
컷	-10.564
▁유튜브	-10.5641
▁마이애미	-10.5641
▁미시시피	-10.5641
▁애리조나	-10.5641
▁천연가스	-10.5641
▁캄보디아	-10.5641
빼	-10.5641
왓	-10.5641
턱	-10.5641
▁디지털	-10.5641
▁사찰단	-10.5641
▁비타민	-10.5641
▁침몰	-10.5641
▁중앙일보	-10.5641
▁오딩가	-10.5641
▁로이터	-10.5641
▁졸업	-10.5642
▁지하철	-10.5642
▁새벽	-10.5643
▁날짜	-10.5643
▁소련	-10.5646
▁산사태	-10.5646
▁채널	-10.5646
▁급격	-10.5647
▁도착한	-10.5651
▁취임식	-10.5652
▁종합	-10.5654
▁엔진	-10.5655
▁게재	-10.5657
▁연예	-10.5657
▁분류	-10.5659
▁감금	-10.5659
▁전세계적으로	-10.5661
▁완전한	-10.5662
▁연구팀	-10.5664
▁뛰	-10.5669
▁추모	-10.5671
안전	-10.5675
제품	-10.5678
▁쌀	-10.5682
부르크	-10.5684
▁미칠	-10.5686
▁향상	-10.5695
▁전부터	-10.5711
▁상승세	-10.5711
▁경력	-10.572
▁원화	-10.5729
장소	-10.5731
▁역사적	-10.5732
▁가리	-10.5742
▁증상	-10.5743
▁와인	-10.5746
▁정신적	-10.5752
벽	-10.577
▁합의했다고	-10.5783
▁출동	-10.5783
▁서쪽	-10.5786
▁경호	-10.5789
▁프레스	-10.5795
▁걸린	-10.5796
▁벌였	-10.5806
낭	-10.5807
▁결선투표	-10.5807
▁쓰촨성	-10.5807
놈	-10.5807
쌍	-10.5807
▁비핵화	-10.5807
▁이뤄졌다	-10.5807
▁뉴저지	-10.5807
▁가즈니	-10.5808
▁재무부	-10.5808
▁호랑이	-10.5808
▁흥미	-10.5808
▁over	-10.5808
▁근육	-10.5809
▁무리	-10.581
▁부총리	-10.5814
▁받으며	-10.5815
▁돌입	-10.5817
▁다윈	-10.5818
▁오늘날	-10.5822
▁끝내	-10.5823
해야만	-10.5827
▁가상	-10.5828
연방	-10.5828
2009.0	-10.5829
▁소집	-10.583
▁부채	-10.5831
년만에	-10.5836
▁포경	-10.5841
▁호소	-10.5842
▁공개적으로	-10.5846
▁조류	-10.5846
쪽으로	-10.5854
▁대립	-10.5856
▁2-1	-10.5858
▁들어있	-10.586
▁마무	-10.5868
▁가동	-10.587
▁방식으로	-10.5874
당신	-10.5878
▁기다리	-10.5883
전문	-10.5892
ca	-10.5896
역사적인	-10.59
▁형사	-10.59
▁변호인	-10.5906
CC	-10.5906
비용	-10.5923
▁후보들	-10.593
카드	-10.5933
략	-10.5941
맹	-10.5952
▁만들기	-10.5957
첼	-10.5961
▁나오지	-10.5968
▁당국자	-10.5968
물질	-10.5968
감독	-10.597
얀	-10.5972
▁전복	-10.5972
속도로	-10.5976
▁최저	-10.5977
쁘	-10.5977
▁브라이언	-10.5977
▁블라고예비치	-10.5977
▁알렉산더	-10.5977
▁인플레이션	-10.5977
▁토네이도	-10.5977
▁필라델피아	-10.5977
▁골키퍼	-10.5977
▁에베레스트	-10.5977
▁키바키	-10.5977
줘	-10.5977
▁원숭이	-10.5977
▁리히터	-10.5977
▁스캔들	-10.5977
▁오히려	-10.5977
.8%	-10.5977
▁합법적	-10.5978
▁갖춘	-10.5978
▁탄압	-10.5979
▁국가안보	-10.5983
▁무엇보다	-10.5987
▁일간지	-10.5988
▁만남	-10.599
▁보스턴	-10.599
▁구조대원들	-10.5996
위기	-10.6007
▁물품	-10.601
▁반영	-10.6012
ti	-10.6012
▁들어간	-10.6013
여행	-10.6023
▁소문	-10.603
▁참여한	-10.603
▁정치인들	-10.6042
▁표명했다	-10.6049
써	-10.6059
▁그대로	-10.6062
▁노선	-10.6074
▁간부	-10.6094
▁사람들과	-10.6101
▁것임	-10.6102
▁동기	-10.6122
▁주연	-10.6127
▁소위	-10.6132
언론	-10.6147
즘	-10.6148
잭	-10.6149
▁이슬라마바드	-10.6149
슐	-10.6149
▁남자친구	-10.6149
▁마이크로소프트	-10.6149
▁은신처	-10.6149
▁아름다	-10.6149
▁통일부	-10.615
▁블루	-10.615
▁화이트	-10.615
port	-10.6151
▁보여준다	-10.6151
▁상상	-10.6151
▁있었으나	-10.6153
▁중대한	-10.6154
▁순례	-10.6154
▁징역형	-10.6154
▁라이언	-10.6155
▁벗어	-10.6159
▁다음날	-10.6163
▁종결	-10.6165
▁지휘관	-10.6169
수술	-10.6171
▁체코	-10.6171
▁클리	-10.6172
▁기소됐다	-10.6172
▁젊은이들	-10.6173
▁로저	-10.6173
▁결심	-10.6177
▁해병	-10.6179
▁초청	-10.6182
리언	-10.6185
▁소형	-10.6186
▁기각	-10.6189
▁알카에다와	-10.6202
▁매력	-10.6224
▁조사에따르면	-10.6225
▁게시	-10.6231
▁호수	-10.6238
▁공대	-10.6241
▁시체	-10.6246
▁키스	-10.625
우디	-10.6252
▁홍수로	-10.6254
BC	-10.6259
▁정식	-10.6261
▁국무	-10.6309
시스템	-10.6312
랍	-10.6314
펀	-10.6324
첩	-10.6325
븐	-10.6325
숲	-10.6325
▁국제공항	-10.6325
▁후진타오	-10.6325
▁법무장관	-10.6325
▁선관위	-10.6325
▁펀드	-10.6325
▁불가피	-10.6326
▁원칙	-10.6327
▁성장률	-10.6328
▁1996	-10.633
▁소탕	-10.6331
▁황금	-10.6334
▁출생	-10.6334
▁남극	-10.6334
▁브리	-10.6335
▁사육	-10.6336
▁가담	-10.634
▁보고서에따르면	-10.6343
▁배후	-10.6345
▁브랜드	-10.6346
▁지속적	-10.6346
▁제공할	-10.6346
▁음주	-10.635
▁피고인	-10.6359
▁물러나	-10.6359
▁근로자들	-10.6362
▁가게	-10.6365
▁진단	-10.6365
▁일으켰다	-10.6372
▁기온	-10.6372
시킨다	-10.6384
▁비행사	-10.6387
▁화해	-10.6399
▁카라	-10.6401
▁날개	-10.6403
▁주최측	-10.6404
▁제공한	-10.6411
▁불어	-10.6411
▁부산	-10.6418
▁일어났다	-10.6426
▁받는다	-10.6439
▁확인됐다	-10.6442
▁양국간	-10.6461
많은	-10.6465
▁일치	-10.6465
▁직장	-10.647
렸으며	-10.6503
▁뭄바이	-10.6503
▁탱크	-10.6503
얄	-10.6503
톱	-10.6503
▁줄리아니	-10.6503
▁섭취	-10.6503
▁화상	-10.6504
▁감바리	-10.6504
▁교통사고	-10.6504
▁택시	-10.6505
▁구멍	-10.6505
겠습니다	-10.6506
▁캐롤	-10.6506
▁소규모	-10.6507
▁플라	-10.6508
▁1993	-10.6508
▁인권단체	-10.6509
▁라덴	-10.651
▁벨기에	-10.6511
▁할머니	-10.6513
▁사생활	-10.6514
▁폭설	-10.6515
긍정적인	-10.6516
▁영양	-10.6517
▁보존	-10.6521
▁GM	-10.6521
▁신문사	-10.6522
09	-10.6523
▁관측	-10.6524
▁기원	-10.6529
▁기대한다	-10.6532
생산	-10.6534
91	-10.6538
▁발생하고	-10.6543
▁수퍼	-10.655
▁악어	-10.6559
▁가방	-10.6579
▁살아있	-10.6593
사업	-10.6603
▁급속	-10.6606
▁자택	-10.6618
▁착수	-10.6621
▁연구원들	-10.6626
조건	-10.6631
▁총상	-10.6644
▁참석할	-10.6654
▁근처에서	-10.6657
▁피부	-10.6658
켜	-10.666
▁1%	-10.6663
ian	-10.6663
▁산악	-10.6673
▁생기	-10.6676
ish	-10.6684
▁China	-10.6685
▁무슬림	-10.6685
▁재검토	-10.6685
▁횡령	-10.6685
▁기쁘다	-10.6685
▁테일러	-10.6685
▁쓰레기	-10.6685
▁다시한번	-10.6685
▁침공	-10.6686
▁플래	-10.6686
▁가벼	-10.6686
▁비난하는	-10.6686
▁설문	-10.6687
민감한	-10.6687
▁예멘	-10.6689
▁지붕	-10.6689
▁괴한	-10.6689
▁감옥	-10.669
▁1991	-10.6691
▁his	-10.6691
▁농업	-10.6693
폴리스	-10.6694
▁아이폰	-10.6694
▁포럼	-10.6696
▁결함	-10.6697
▁초안	-10.6702
▁에릭	-10.6707
▁관중	-10.6708
▁판정	-10.6712
▁적발	-10.6712
▁방송사	-10.6714
per	-10.6716
▁반복	-10.6725
▁종식	-10.6725
▁선포했다	-10.6727
▁개정안	-10.6728
▁곳이다	-10.6729
▁마친	-10.6733
▁재임	-10.6736
▁비교적	-10.6737
잘못된	-10.6739
▁북쪽으로	-10.6741
▁극장	-10.6745
▁국적	-10.6746
▁늘어나	-10.6757
신문	-10.6758
▁사용하지	-10.6759
직원	-10.6776
통제	-10.6781
▁부실	-10.679
▁모아	-10.679
▁국장	-10.6793
▁대피했다	-10.6805
▁근거로	-10.6812
▁세계적으로	-10.6812
▁총회	-10.6814
구조	-10.682
▁구체적	-10.6823
만개	-10.6826
되거나	-10.6831
Mar	-10.6836
등급	-10.6842
▁사용했다	-10.6849
▁재판관	-10.6855
1,000	-10.687
▁DVD	-10.687
▁안전보장이사회	-10.687
▁협약	-10.687
슛	-10.687
팝	-10.687
헐	-10.687
▁광범위	-10.687
▁메르켈	-10.687
▁파나마	-10.6871
▁스트레스	-10.6871
▁미디어	-10.6871
▁거짓말	-10.6871
▁세인트	-10.6871
▁발휘	-10.6873
리서치	-10.6873
▁호흡	-10.6873
part	-10.6875
▁억제	-10.6877
▁미치는	-10.6878
▁싸우	-10.6881
교육	-10.6882
▁차별	-10.6885
▁금연	-10.6887
▁신규	-10.6888
▁정찰	-10.6889
▁중이었다	-10.6891
▁치명적인	-10.6895
▁이륙	-10.6901
폭력	-10.6904
▁반박	-10.6905
▁제목	-10.6911
▁수십명	-10.6911
▁정상화	-10.6914
▁관계당국	-10.6915
▁제출했다	-10.6927
▁원주민	-10.6936
▁자행	-10.6936
97	-10.6945
워드	-10.6947
▁혼자	-10.6965
▁최고치	-10.6966
▁생각하지	-10.697
▁성당	-10.6971
▁많아	-10.6971
단계	-10.698
▁차지하고	-10.698
▁계속될	-10.6993
▁고장	-10.7004
▁지점에서	-10.7012
▁실업	-10.7014
▁적절	-10.7018
커스	-10.7048
▁사용해	-10.7051
않	-10.7054
▁식료품	-10.7059
▁nuclear	-10.7059
▁다큐멘터리	-10.7059
▁불러일으	-10.7059
▁왼쪽	-10.7059
▁쿠웨이트	-10.7059
왈	-10.7059
꼈	-10.7059
▁전당대회	-10.7059
▁과반수	-10.7059
▁일어날	-10.7059
▁데이비스	-10.7059
▁옹호	-10.7059
▁균형	-10.7059
▁공산주의	-10.7059
▁위안부	-10.706
▁승려들	-10.706
▁롬니	-10.706
▁난민촌	-10.706
▁61	-10.706
▁검문소	-10.7062
▁귀환	-10.7063
▁1995	-10.7066
▁문제들	-10.7066
▁완료	-10.7066
▁탑승객	-10.7066
▁표준	-10.7068
굴	-10.7068
day	-10.7068
▁출두	-10.7071
분만에	-10.7074
돈	-10.7075
▁화려	-10.7078
▁인민	-10.7079
않게	-10.708
▁스타디움에서	-10.7081
▁서안	-10.7084
▁동생	-10.7085
▁선원	-10.7095
▁조언	-10.7095
380	-10.7096
▁제정	-10.7096
▁신사	-10.7101
▁모래	-10.7105
▁모임	-10.7105
슬러	-10.7108
킨스	-10.7109
▁있어야	-10.7115
코프	-10.7119
▁진행자	-10.7126
Al	-10.7139
▁주장한다	-10.7152
▁조용	-10.7154
ph	-10.7154
동물	-10.7159
▁보냈	-10.7165
▁달러화	-10.7171
발전	-10.7175
▁모리	-10.7185
▁달린	-10.719
▁AT	-10.7193
▁부상당	-10.7194
▁실시할	-10.7196
ary	-10.7205
▁하미	-10.7214
겠	-10.7214
▁경관	-10.7225
▁단체들	-10.7237
86	-10.7245
▁않았던	-10.7251
▁어렵다	-10.7251
▁에콰도르	-10.7251
▁이산화탄소	-10.7251
▁캐릭터	-10.7251
▁국제원자력기구	-10.7251
▁매사추세츠	-10.7251
▁펠로시	-10.7251
▁매니저	-10.7251
▁받아들여	-10.7251
▁코끼리	-10.7251
▁나타난	-10.7251
▁조지아주	-10.7252
▁퇴임	-10.7252
▁득표율	-10.7252
▁범행	-10.7254
▁침대	-10.7255
▁낮추	-10.7255
21	-10.7257
▁급락	-10.7258
▁쉽지	-10.7259
▁친척	-10.7259
▁떠난	-10.726
▁레이건	-10.7261
▁당황	-10.7261
▁복역	-10.7264
예비선거	-10.7266
▁일련	-10.7266
팬	-10.7272
IAEA	-10.7273
니까	-10.7274
아일랜드	-10.7274
▁당초	-10.7275
▁신조	-10.7281
뇌	-10.7282
▁케이트	-10.7285
▁상영	-10.7287
▁정원	-10.7287
그녀	-10.7291
▁운영하고	-10.7292
ound	-10.7299
▁매체	-10.73
▁운영하	-10.73
▁군사적	-10.7304
▁인력	-10.7306
▁생산량	-10.7315
▁요금	-10.7317
▁조건으로	-10.7317
▁계속되는	-10.7318
아시아	-10.732
▁텍사스주	-10.7331
▁투르	-10.7331
었는지	-10.7332
▁포함돼	-10.7337
▁창문	-10.7338
▁다르다	-10.7348
▁아난	-10.7349
▁운전사	-10.7364
24	-10.7376
▁공개됐다	-10.7378
▁피해자들	-10.7379
ite	-10.7407
▁늘리	-10.7409
▁발견되었다	-10.7418
▁확신한다	-10.7421
▁뉴욕시	-10.7441
엇	-10.7442
템	-10.7447
▁from	-10.7447
▁샌디에이고	-10.7447
▁일으킬	-10.7447
▁마라톤	-10.7447
▁외무성	-10.7447
▁여겨지	-10.7448
▁이뤄진	-10.7448
▁구제금융	-10.7448
▁어깨	-10.7448
▁드러냈다	-10.7449
▁상륙	-10.745
▁테니스	-10.7451
▁용납	-10.7452
▁생방송	-10.7453
▁끝날	-10.7454
▁부활	-10.7455
▁무장대원	-10.7457
▁창출	-10.7457
▁최저치	-10.7458
▁탄생	-10.7459
버린	-10.746
▁추구하	-10.7461
▁분석가들은	-10.7462
▁1960	-10.7463
▁중단했다	-10.7464
▁분량	-10.7468
▁방출	-10.7468
자이자	-10.747
▁음성	-10.7472
▁거부권	-10.7475
NASA	-10.7478
▁밝혀진	-10.7479
넣	-10.7483
▁발포	-10.7491
▁알렸다	-10.7491
▁증세	-10.7491
앞으로	-10.7494
▁모건	-10.7495
▁거절했다	-10.7497
▁조명	-10.7501
▁오하이오주	-10.7502
해지고	-10.7503
ust	-10.7506
▁비난하며	-10.7508
▁진보	-10.7509
▁회원국들	-10.751
▁전달했다	-10.7511
▁마리아	-10.7513
▁예정이었다	-10.752
▁상태이다	-10.7527
▁자택에서	-10.7532
na	-10.7558
▁투명	-10.7564
▁기여	-10.757
ub	-10.7571
▁주위	-10.7584
▁위대	-10.7594
널리	-10.7616
▁사용된	-10.7617
▁촉구하	-10.7628
ag	-10.7629
▁세부	-10.7633
뢰	-10.7636
▁포기하	-10.7637
내내	-10.7646
▁느낄	-10.7647
▁유혈사태	-10.7647
▁줄기세포	-10.7647
▁프리미어리그	-10.7647
▁휩쓸	-10.7647
콰	-10.7647
▁앤드류	-10.7647
▁자카르타	-10.7647
쿨	-10.7647
▁샘플	-10.7647
▁new	-10.7648
FDA	-10.7648
▁돌고래	-10.7648
▁축출	-10.7648
▁홈페이지	-10.7648
▁실업률	-10.7648
▁중동평화	-10.7649
▁탐험	-10.7649
▁다국적군	-10.7649
▁MBC	-10.765
▁특징	-10.765
▁밝혔지만	-10.765
▁계좌	-10.765
▁빌딩	-10.7651
▁회계	-10.7651
▁동일한	-10.7651
▁로딕	-10.7651
▁표결	-10.766
▁남겨	-10.7662
에이커	-10.7663
▁건너	-10.7663
▁처방	-10.7668
▁측면	-10.7673
▁부위	-10.7677
▁서양	-10.768
▁선임	-10.7683
힘	-10.7688
1000	-10.7689
▁치러지	-10.769
▁원래	-10.769
93	-10.7694
유럽	-10.7697
▁선호	-10.7699
▁발행	-10.7701
진압	-10.7702
▁해당하는	-10.7704
pr	-10.7706
▁2500	-10.7724
▁식사	-10.7729
대책	-10.7736
▁취한	-10.777
98	-10.7775
대원들	-10.7778
▁외치	-10.778
▁소유하고	-10.7785
내용	-10.7794
▁보조	-10.7812
▁뉴욕주	-10.7813
▁실종자	-10.7819
▁동의했다	-10.7842
봐	-10.7845
▁청사	-10.7848
2006.01	-10.7852
▁HIV	-10.7852
▁멤버	-10.7852
▁않았으나	-10.7852
▁애완견	-10.7852
▁윔블던	-10.7852
▁프랭크	-10.7852
넌	-10.7852
쏘	-10.7852
햇	-10.7852
▁노르웨이	-10.7852
▁마흐디	-10.7852
▁항공우주국	-10.7852
▁힘입어	-10.7852
▁격렬한	-10.7852
▁영화배우	-10.7852
▁예를들어	-10.7852
▁좌절	-10.7852
▁검증	-10.7852
▁득점	-10.7852
▁정거장	-10.7852
▁잇따	-10.7852
▁브리핑	-10.7852
2007.11	-10.7853
▁암컷	-10.7853
▁떠올	-10.7854
▁밝혔으며	-10.7855
off	-10.7855
▁음료	-10.7857
▁용기	-10.7857
▁녹음	-10.7859
▁화합	-10.7859
▁쿠퍼	-10.786
▁오마르	-10.786
▁내려졌다	-10.786
▁not	-10.7861
▁포착	-10.7863
▁통증	-10.7867
▁외환	-10.7867
▁열렸다	-10.7869
▁리처드슨	-10.787
▁종료	-10.7872
▁발표됐다	-10.7874
▁개편	-10.788
▁접전	-10.7881
▁매달	-10.7882
▁키우	-10.7887
태평양	-10.7899
프랑스	-10.79
윤	-10.7902
▁보이며	-10.7921
▁고무	-10.7922
▁1500	-10.7926
때까지	-10.7927
▁재직	-10.7936
▁사설	-10.7938
▁추세	-10.794
▁실시했다	-10.7945
▁88	-10.795
연구	-10.7963
▁판다	-10.7966
▁외국인들	-10.7967
▁못했	-10.7969
▁화장	-10.797
▁부유	-10.7982
하우스	-10.7983
버트	-10.8022
▁포장	-10.8022
▁ex	-10.8029
▁국기	-10.8031
▁움직	-10.8031
96	-10.8037
▁지지한다	-10.8043
프레드	-10.8055
덩	-10.806
▁government	-10.806
▁세웠다	-10.806
▁않았고	-10.806
▁없습니다	-10.806
▁피라미드	-10.806
붐	-10.806
팩	-10.806
▁라파엘	-10.806
▁마돈나	-10.806
▁비틀즈	-10.806
▁자선단체	-10.806
드립니다	-10.806
▁침략	-10.806
▁2-0	-10.806
▁원자력	-10.806
▁배터리	-10.806
▁탈북자	-10.806
▁서식지	-10.806
▁데이빗	-10.806
▁객실	-10.806
▁여섯	-10.8061
2005.09	-10.8061
▁졸리	-10.8062
▁1992	-10.8064
▁빠지	-10.8065
min	-10.8066
▁금액	-10.8066
▁탈락	-10.8067
▁테러조직	-10.8067
▁막아	-10.8068
Ma	-10.8069
분께	-10.8071
▁산책	-10.8072
07	-10.8072
▁아마디	-10.8075
ung	-10.8077
▁않는다면	-10.8079
▁전국적으로	-10.8081
NS	-10.8081
▁인형	-10.8085
▁통행	-10.8085
▁상당히	-10.8089
▁30%	-10.8096
▁부모들	-10.8096
▁본토	-10.8097
▁고급	-10.81
▁남용	-10.8108
▁피살	-10.8116
탈레반	-10.8117
▁강행	-10.8117
▁방향으로	-10.8118
음악	-10.8123
▁보급	-10.8124
04	-10.8137
▁여진	-10.8139
▁자동	-10.8141
▁잡아	-10.8148
▁운명	-10.815
▁불구	-10.8151
▁플로리다주	-10.8164
혔	-10.8171
▁잃었	-10.8172
bu	-10.8173
▁유산	-10.8183
▁잡스	-10.8207
▁의사들	-10.8244
▁긍정적	-10.8257
▁승무원들	-10.8266
▁배심원	-10.8268
졸	-10.8269
훔	-10.8273
▁경기부양책	-10.8273
▁관타나모	-10.8273
▁오토바이	-10.8273
▁우주왕복선	-10.8273
▁울포위츠	-10.8273
▁자유무역협정	-10.8273
▁준결승	-10.8273
▁파바로티	-10.8273
▁펜실베니아	-10.8273
▁플라스틱	-10.8273
社	-10.8273
툴	-10.8273
펄	-10.8273
OPEC	-10.8273
▁퍼거슨	-10.8273
▁롤링	-10.8273
CDC	-10.8273
▁헌법재판소	-10.8274
▁벌써	-10.8274
▁낙태	-10.8276
▁오른쪽	-10.828
▁의뢰	-10.828
▁저희	-10.8281
▁점검	-10.8281
▁드러내	-10.8281
▁넘겨	-10.8282
▁풀려	-10.8286
▁상대방	-10.8287
ical	-10.8288
▁백신	-10.8288
▁NK	-10.829
▁집권당	-10.829
▁Ar	-10.8293
▁놓여	-10.8297
▁군함	-10.8302
▁매출	-10.8303
con	-10.8306
▁군복	-10.8308
▁멀리	-10.8309
▁고속	-10.8313
▁표면	-10.8321
▁포함됐다	-10.8322
▁운동가들	-10.8325
▁요구하며	-10.8326
▁존경	-10.8327
▁연계	-10.8328
업계	-10.8332
▁실린	-10.834
금융	-10.834
서비스	-10.8341
▁도심	-10.8341
▁모금	-10.8357
몬드	-10.8357
▁이틀간	-10.836
▁밀어	-10.8369
▁내려진	-10.837
▁중요성	-10.8374
▁한국인들	-10.8378
▁밝혔	-10.8383
▁다음주	-10.839
줬	-10.8407
▁갈라	-10.8418
ber	-10.8421
▁로브	-10.8422
▁140	-10.8427
▁제시했다	-10.8428
▁사망했	-10.8436
▁기소된	-10.8444
사무소	-10.8478
▁스파이	-10.8486
칙	-10.8487
닷	-10.849
▁Obama	-10.849
▁루아얄	-10.849
▁뮤지컬	-10.849
딴	-10.849
랩	-10.849
킴	-10.849
톨	-10.849
펴	-10.849
▁경기침체	-10.849
▁아테네	-10.849
▁테네시	-10.849
▁허커비	-10.849
▁게릴라	-10.849
▁옐친	-10.849
▁포르노	-10.849
▁징후	-10.849
▁2005.10	-10.849
▁시라크	-10.849
▁불가리아	-10.849
▁공룡	-10.8492
▁벽돌	-10.8492
▁본격적	-10.8493
▁살아남	-10.8493
▁데일리	-10.8494
▁탄광	-10.8495
베르토	-10.8499
▁있었습니다	-10.85
▁함유	-10.8503
▁범위	-10.8505
American	-10.8507
▁제압	-10.8508
▁국방성	-10.8509
▁형식	-10.851
▁160	-10.8511
▁히트	-10.8517
▁점거	-10.8522
▁승부	-10.8522
▁자신감	-10.8523
▁한국은행	-10.853
▁조절	-10.8533
▁얼마전	-10.8535
▁벌어졌다	-10.8535
▁좋아하는	-10.8541
▁접수	-10.8541
▁공판	-10.8542
▁호소했다	-10.8547
▁통보	-10.8548
▁발표했습니다	-10.8548
늘	-10.8549
▁희망한다	-10.8553
▁연간	-10.8553
▁소동	-10.8554
▁실무	-10.8556
아프간	-10.8566
어떤	-10.8567
사령관	-10.8571
▁우즈	-10.8572
▁취했다	-10.8572
2000	-10.8574
▁정기적	-10.8583
▁동맹국	-10.8588
▁동성	-10.8601
▁사체	-10.8607
▁감소했다	-10.862
업자들	-10.864
▁내렸	-10.8694
덤	-10.8707
▁덧붙	-10.871
2006.08	-10.8712
▁금메달	-10.8712
▁디자이너	-10.8712
▁루이지애나	-10.8712
▁아닙니다	-10.8712
▁지지선언	-10.8712
▁카트리나	-10.8712
▁보이콧	-10.8712
▁멈추	-10.8712
▁앤더슨	-10.8712
▁알렉스	-10.8712
▁흘러	-10.8713
▁징계	-10.8713
▁막대한	-10.8713
강전에서	-10.8713
▁이자율	-10.8713
▁퇴원	-10.8714
▁잠재적	-10.8714
▁흔적	-10.8717
▁개막	-10.8717
▁기상청	-10.8717
▁디스크	-10.8718
▁떠날	-10.8719
쳤으며	-10.872
▁핵개발	-10.872
기때문에	-10.8722
▁통과시켰다	-10.8723
▁양곤	-10.8725
▁경향	-10.8725
▁래리	-10.8726
▁오스카	-10.8729
AM	-10.873
▁상담	-10.8731
▁미첼	-10.8732
▁않으며	-10.8733
▁사이클	-10.8733
▁플레이어	-10.8735
▁레바논군	-10.8736
▁러드	-10.8736
▁인터	-10.8741
▁테러리스트들	-10.8746
▁포함하여	-10.8746
▁서류	-10.875
▁준수	-10.8752
▁장교	-10.8752
▁발발	-10.8753
29	-10.8756
▁탄소	-10.8761
기위해	-10.8764
▁도청	-10.8768
▁대법원장	-10.877
▁참석하지	-10.877
way	-10.8798
▁정보부	-10.8802
▁살해했다	-10.8804
89	-10.8821
▁계기	-10.8838
▁dis	-10.8934
뒀	-10.8939
World	-10.8939
▁베네딕	-10.8939
▁싶어하	-10.8939
▁아마디네자드	-10.8939
▁에티오피아	-10.8939
▁오클라호마	-10.8939
▁이브라힘	-10.8939
▁최첨단	-10.8939
▁평화유지군	-10.8939
▁히틀러	-10.8939
뚫	-10.8939
▁로드리게스	-10.894
▁빼앗	-10.894
셨	-10.894
▁심장마비	-10.894
▁의약품	-10.894
▁따뜻	-10.894
PGA	-10.894
▁압바스	-10.894
▁중남미	-10.894
▁2008.10	-10.894
▁인터폴	-10.894
▁스크린	-10.894
▁품목	-10.894
2007.12	-10.894
▁농민들	-10.8941
▁이루어진	-10.8942
▁터널	-10.8942
천명	-10.8942
▁NBA	-10.8943
▁1989	-10.8945
▁술집	-10.8945
▁가짜	-10.8947
▁새롭	-10.8948
▁세탁	-10.8949
▁들어갈	-10.8951
▁연례	-10.8951
▁거짓	-10.8952
▁부탁	-10.8953
▁회수	-10.8954
▁플로	-10.8956
▁채취	-10.8957
▁구름	-10.8958
▁계산	-10.8958
▁테러단체	-10.8963
old	-10.8963
▁암호	-10.8964
▁조항	-10.8967
▁뿐이다	-10.8968
▁풍부	-10.8974
▁보건부	-10.8977
▁발급	-10.8977
▁단행	-10.8981
▁언급하며	-10.8982
▁문구	-10.8985
▁경비원	-10.8989
▁휴대	-10.8994
▁대대적	-10.9001
▁선거법	-10.9005
▁변호	-10.9011
▁스토	-10.902
▁임대	-10.9021
죽	-10.9025
공화국	-10.9036
쥐	-10.9037
▁해체	-10.9046
못	-10.9048
푸르	-10.9134
▁때문이라	-10.9143
해달라	-10.9155
같	-10.9159
뷰	-10.9172
2,000	-10.9172
5,000	-10.9172
▁고이즈미	-10.9172
▁뉴올리언스	-10.9172
▁느낌	-10.9172
▁망원경	-10.9172
▁맞이하	-10.9172
▁불확실	-10.9172
▁시나리오	-10.9172
▁저질렀다	-10.9172
▁조승희	-10.9172
샬	-10.9172
옳	-10.9172
칩	-10.9172
▁두려움	-10.9172
▁성추행	-10.9172
▁우울증	-10.9172
▁again	-10.9172
▁노트북	-10.9172
▁쇠고기	-10.9172
▁기숙사	-10.9172
▁무승부	-10.9172
▁수류탄	-10.9172
▁허드슨	-10.9172
▁소행성	-10.9172
▁빠졌다	-10.9172
▁활발	-10.9172
▁무너지	-10.9172
▁저항세력	-10.9173
▁당부했다	-10.9173
▁남아프리카	-10.9174
▁맥캔	-10.9174
▁교섭	-10.9176
▁구호단체	-10.9176
호프	-10.9177
▁무덤	-10.9177
▁받아왔다	-10.9179
▁사라졌다	-10.9179
▁박탈	-10.918
US	-10.9182
▁아니지만	-10.9183
▁동성애	-10.9185
▁머무	-10.9186
▁타밀	-10.9187
▁체류	-10.9188
▁붙여	-10.919
▁고위급	-10.919
▁모술	-10.9192
▁바탕	-10.9195
▁시인했다	-10.9195
연패	-10.9198
▁경비대	-10.92
▁낮아	-10.9204
▁전반적인	-10.9205
▁밀려	-10.921
▁예약	-10.9213
▁위하여	-10.9216
▁열심	-10.9216
▁구류	-10.9221
▁신도들	-10.9223
▁서장	-10.9223
▁경쟁력	-10.9226
▁모터	-10.9234
▁가중	-10.925
▁유통	-10.9251
▁착수했다	-10.9256
▁전해지	-10.9272
▁여행객들	-10.928
탐	-10.928
최근	-10.9283
▁실종됐다	-10.9285
▁부검	-10.9309
▁달한다	-10.9322
OS	-10.9366
스럽다	-10.9367
▁두려워	-10.9385
▁부족하다	-10.9387
깃	-10.941
▁talks	-10.941
▁맡았다	-10.941
▁비서실장	-10.941
▁빅토리아	-10.941
▁위스콘신	-10.941
▁유죄판결	-10.941
▁자르다리	-10.941
▁출구조사	-10.941
▁플루토늄	-10.941
▁확률	-10.941
박근혜	-10.941
찌	-10.941
텍	-10.941
▁국립공원	-10.941
▁뉴델리	-10.941
▁알바니아	-10.941
▁1987	-10.941
▁도요타	-10.941
▁대서양	-10.941
▁삭감	-10.941
▁취급	-10.9411
카를로스	-10.9411
▁델타	-10.9411
▁숨졌으며	-10.9413
▁남학생	-10.9413
▁중앙은행	-10.9414
▁강진이	-10.9416
▁부사장	-10.9418
▁증강	-10.942
됐는지	-10.9422
▁물고기	-10.9422
▁하원의장	-10.9423
▁압도적	-10.9425
▁왕세자비	-10.9426
▁교외	-10.9428
▁이내에	-10.9431
▁예배	-10.9434
▁공안	-10.9441
▁후송	-10.9445
▁아담	-10.9445
▁완성	-10.9447
▁양쪽	-10.9447
▁총통	-10.9449
▁업적	-10.945
▁di	-10.9457
▁포터	-10.946
▁복원	-10.9461
▁차질	-10.9472
▁남자아이	-10.9477
▁물체	-10.9482
has	-10.9508
▁상금	-10.9515
▁동료들	-10.9519
▁상당수	-10.9527
눈	-10.9528
올림픽	-10.9531
팔레스타인	-10.9531
▁동물들	-10.9535
UN	-10.954
▁관객	-10.9544
▁악화되	-10.9558
▁목격했다	-10.9561
ease	-10.9564
▁남아있다	-10.9564
열차	-10.9576
▁나타났	-10.9601
번호	-10.9611
▁체포되었다	-10.9614
빗	-10.9653
·	-10.9654
head	-10.9654
▁visit	-10.9654
▁나눴다	-10.9654
▁메드베데프	-10.9654
▁않았습니다	-10.9654
▁앞섰다	-10.9654
▁온실가스	-10.9654
▁잃어버	-10.9654
▁최루탄	-10.9654
▁하이브리드	-10.9654
믹	-10.9654
▁Roh	-10.9654
▁글로벌	-10.9654
▁국정원	-10.9654
▁이뤄질	-10.9654
MDC	-10.9654
▁오렌지	-10.9654
▁해수면	-10.9654
▁우간다	-10.9654
▁개체수	-10.9654
▁첩보	-10.9654
▁가난한	-10.9655
▁교착상태	-10.9655
▁에드워드	-10.9655
▁유명인사	-10.9655
▁염려	-10.9655
▁권총	-10.9655
됨에따라	-10.9655
▁워너	-10.9655
▁수색작업	-10.9656
▁재미있	-10.9656
▁아마존	-10.9656
▁금융위기	-10.9658
▁its	-10.9658
▁데리고	-10.9659
▁고조되	-10.9659
▁급습	-10.966
▁연구원은	-10.9662
▁갈등	-10.9663
▁줄이기	-10.9664
▁지역사회	-10.9665
▁호송	-10.9666
▁송금	-10.9666
▁갑작스	-10.9667
▁60%	-10.9668
▁금속	-10.9669
▁모욕	-10.967
▁추격	-10.9673
▁톰슨	-10.9675
▁둔화	-10.9675
▁밝혀내	-10.9676
▁실현	-10.9677
▁매매	-10.968
▁정밀	-10.9684
▁연출	-10.9684
▁증진	-10.9685
Pro	-10.9689
▁포스트	-10.9695
▁군사력	-10.9698
▁20%	-10.9709
▁부처	-10.9717
▁보증	-10.972
▁장려	-10.9721
▁해저	-10.9728
ty	-10.9729
2005.1	-10.9739
Com	-10.974
▁고안	-10.9741
▁참가자들	-10.9752
▁남부지역	-10.9778
▁응답	-10.9787
딸	-10.9788
▁위험성	-10.9806
▁판매량	-10.9814
유엔	-10.9817
▁열었다	-10.9832
▁종교적	-10.9837
▁남측	-10.9843
air	-10.9847
똑	-10.9903
샘	-10.9904
숭	-10.9904
▁IBM	-10.9904
▁국가비상사태	-10.9904
▁국제우주정거장	-10.9904
▁디스커버리	-10.9904
▁서브프라임	-10.9904
눌	-10.9904
▁바티칸	-10.9904
▁파파라치	-10.9904
FIFA	-10.9904
▁메릴랜드	-10.9904
▁무장괴한	-10.9904
▁미성년자	-10.9904
▁깨끗	-10.9904
▁재배치	-10.9904
▁윈도우	-10.9904
▁주유소	-10.9904
▁좌석	-10.9905
▁야생동물	-10.9905
▁자전거	-10.9905
▁치솟	-10.9905
▁똑같	-10.9905
▁바꿀	-10.9905
▁퇴진	-10.9905
▁데뷔	-10.9906
▁국민투표	-10.9907
▁긴밀	-10.9907
▁설계	-10.9907
▁행렬	-10.9907
▁켈리	-10.9907
time	-10.9907
▁Ex	-10.9909
▁인접	-10.991
▁동참	-10.9912
▁다룬	-10.9915
▁가택	-10.9917
▁유괴	-10.9921
▁단독	-10.9925
▁서식하	-10.9925
▁절약	-10.9926
성근	-10.9932
벨리	-10.9937
▁위생	-10.9938
▁연임	-10.9943
▁야구	-10.995
ER	-10.9961
▁상병	-10.9965
▁무슨	-10.9967
▁당국자들	-10.998
▁해적들	-10.9982
▁발생했	-10.9986
▁공무원	-10.9993
연승	-11.0017
▁pre	-11.004
▁출장	-11.0057
환경	-11.0072
있으며	-11.0087
▁얻었	-11.01
▁네바다	-11.0144
멈	-11.016
툼	-11.016
▁Minister	-11.016
▁믿는다	-11.016
▁아웅산수치	-11.016
▁인명피해	-11.016
▁자원봉사	-11.016
▁창기라이	-11.016
굿	-11.016
랫	-11.016
렁	-11.016
팜	-11.016
▁AIG	-11.016
▁버몬트	-11.016
▁선거관리위원회	-11.016
▁국세청	-11.016
▁최우선	-11.016
▁세속주의	-11.016
▁모니터	-11.0161
▁시티그룹	-11.0161
▁윈프리	-11.0161
▁적합한	-11.0161
▁아스날	-11.0161
▁언덕	-11.0161
▁국무총리	-11.0161
▁메이저	-11.0161
▁내무장관	-11.0161
바라데이	-11.0162
▁포셋	-11.0163
▁주차장	-11.0163
▁앨런	-11.0163
▁구조작업	-11.0163
▁던졌다	-11.0164
▁숙박	-11.0164
▁재활용	-11.0165
▁환율	-11.0165
▁개막식	-11.0166
▁돌아갈	-11.0167
▁산맥	-11.0167
▁돌아왔다	-11.0167
투데이	-11.0168
▁1986	-11.0168
▁교착	-11.017
▁의심되는	-11.0171
▁걸렸다	-11.0173
▁존스턴	-11.0174
▁역임	-11.0177
▁약혼	-11.0178
▁않습니다	-11.0178
▁투표율	-11.0178
▁창설	-11.0178
▁연말	-11.0181
▁시민권	-11.0184
▁못했지만	-11.0184
▁by	-11.0184
▁던진	-11.0186
▁심판	-11.0187
▁발령	-11.0189
▁발견되지	-11.0192
▁찾아내	-11.0193
▁여러번	-11.0198
▁모집	-11.0199
▁시골	-11.021
▁윌슨	-11.0211
▁사용자들	-11.0234
▁불가능하다	-11.024
▁파커	-11.0256
▁불과하다	-11.0263
사이트	-11.0281
▁관객들	-11.0289
휘	-11.0307
아프리카	-11.0319
말리키	-11.032
빅	-11.032
FBI	-11.032
잘	-11.0321
뉴욕	-11.0323
보고서	-11.0323
▁정상들	-11.0324
웨스트	-11.0327
시즌	-11.0327
전략	-11.033
ile	-11.0331
관광	-11.0342
DR	-11.0356
▁토대	-11.0366
▁진행중	-11.0385
Con	-11.0408
▁지원금	-11.0417
꼬	-11.0423
▁Seoul	-11.0424
▁맞았다	-11.0424
▁박격포	-11.0424
▁스타벅스	-11.0424
▁찾았다	-11.0424
▁켄터키	-11.0424
▁호나우두	-11.0424
▁후지모리	-11.0424
껏	-11.0424
둑	-11.0424
뻐	-11.0424
섞	-11.0424
캄	-11.0424
▁음주운전	-11.0424
▁토크쇼	-11.0424
▁개헌안	-11.0424
WTO	-11.0424
▁워렌	-11.0425
▁고유가	-11.0425
▁포획	-11.0425
▁터뜨	-11.0426
▁자동차업계	-11.0426
▁기획	-11.0427
▁가끔	-11.0427
▁가져올	-11.0428
▁안드레	-11.0428
▁설정	-11.0429
▁돌아올	-11.0429
▁군중들	-11.0431
▁자발적	-11.0432
▁연구결과	-11.0433
▁드레스	-11.0434
▁포경선	-11.0435
▁로켓포	-11.0435
▁카라치	-11.0438
까요	-11.0438
▁클라크	-11.044
▁연극	-11.0441
▁처형	-11.0441
놨다	-11.0441
▁참배	-11.0442
▁결합	-11.0442
▁치매	-11.0445
▁독감	-11.0447
▁마찰	-11.0448
▁매입	-11.045
▁던져	-11.0452
▁넣었다	-11.0453
En	-11.0454
▁피랍된	-11.0458
▁코너	-11.0464
▁밀러	-11.0466
▁전형적	-11.0481
▁유입	-11.0485
▁일시적	-11.0527
ney	-11.0533
tions	-11.0542
물리학	-11.0553
▁대변	-11.0561
그것은	-11.0598
착륙	-11.0599
3000	-11.0601
ick	-11.0686
냥	-11.0688
연방준비제도이사회	-11.0694
▁맨해튼	-11.0694
▁Bush	-11.0694
▁개발도상국	-11.0694
▁러닝메이트	-11.0694
▁애완동물	-11.0694
▁활성화	-11.0694
끔찍한	-11.0694
닭	-11.0694
쉐	-11.0694
킥	-11.0694
퓨	-11.0694
▁유람선	-11.0694
▁슈퍼볼	-11.0694
▁비공식	-11.0694
▁라호르	-11.0694
APEC	-11.0694
▁섹시	-11.0694
▁하버드	-11.0694
▁남아프리카공화국	-11.0694
▁라모스	-11.0694
▁기다려	-11.0694
▁알제리	-11.0695
▁넬슨	-11.0695
▁브레이크	-11.0696
▁미주리	-11.0697
▁침수	-11.0697
able	-11.0698
▁밝혀냈다	-11.0699
▁머레이	-11.0699
▁시민단체	-11.07
▁재정적	-11.07
▁통근	-11.07
▁미셸	-11.0701
▁생명체	-11.0705
▁외쳤다	-11.0709
▁먼지	-11.0709
▁승점	-11.0711
▁아빠	-11.0712
▁연령	-11.0718
▁대테러	-11.0718
▁진료	-11.0722
▁기념식	-11.0723
▁응원	-11.0723
▁클로	-11.0724
▁발매	-11.0725
▁불안정	-11.0726
▁만료	-11.0728
▁철수시키	-11.0737
▁영구	-11.0743
reat	-11.0755
▁있음	-11.0769
▁사라진	-11.0783
▁화제	-11.0806
▁탈레반측	-11.0844
잠	-11.0884
94	-11.0884
클린턴	-11.0885
▁지속되	-11.0899
륙	-11.0914
▁눈물	-11.0927
되도록	-11.0941
▁이민자들	-11.0942
겔	-11.0972
3,000	-11.0972
▁고등법원	-11.0972
▁느낀다	-11.0972
▁디트로이트	-11.0972
▁럼스펠드	-11.0972
▁억만장자	-11.0972
▁최고경영자	-11.0972
▁텔레비전	-11.0972
▁피츠버그	-11.0972
▁헬리콥터	-11.0972
닛	-11.0972
잎	-11.0972
헴	-11.0972
▁스탈린	-11.0972
▁브루니	-11.0972
▁근본주의	-11.0972
▁덴버	-11.0972
2007.09	-11.0972
▁미시건	-11.0972
▁코카인	-11.0972
▁딜러	-11.0972
▁티벳	-11.0972
▁낭비	-11.0972
▁돌아다니	-11.0972
▁친환경	-11.0974
▁텐트	-11.0974
▁다가오	-11.0975
▁왜곡	-11.0975
▁요르단강	-11.0975
▁장벽	-11.0976
▁동굴	-11.0976
▁이른다	-11.0977
▁대선주자	-11.0978
▁70%	-11.0979
▁구호품	-11.0982
▁복합	-11.0983
▁그곳에서	-11.0985
▁생겨	-11.0989
▁절감	-11.0991
▁소총	-11.0992
▁불황	-11.0992
▁치른	-11.0992
▁추천	-11.0997
▁위축	-11.0998
▁휴식	-11.1
▁기름	-11.1002
하였으며	-11.1016
ash	-11.1018
▁유명하다	-11.1043
▁시청자들	-11.1099
92	-11.1127
ame	-11.1164
보좌관	-11.1177
비행기	-11.1198
▁브랜	-11.1239
▁끝났다	-11.1257
▁모았다	-11.1257
▁버냉키	-11.1257
▁스튜디오	-11.1257
▁안토니오	-11.1257
前	-11.1257
뚜	-11.1257
펙	-11.1257
▁침묵	-11.1257
빵	-11.1257
▁느껴	-11.1257
▁부양책	-11.1257
▁브래드	-11.1257
▁규칙	-11.1257
▁take	-11.1257
▁반체제	-11.1257
▁예선전	-11.1257
▁바하마	-11.1258
▁유수프	-11.1258
▁태우고	-11.1258
▁국방위원장	-11.1258
▁스콧	-11.1259
▁놀랄	-11.126
▁휴스턴	-11.1261
▁집필	-11.1265
▁90%	-11.1265
봐야	-11.1267
평방	-11.1267
▁장거리	-11.1272
▁인정받	-11.1272
▁가혹	-11.1273
▁화석	-11.1276
▁네바다주	-11.1276
▁새겨	-11.128
▁보조금	-11.1283
▁남성들	-11.129
▁입었	-11.131
▁comm	-11.1374
▁공무원들	-11.1448
▁복장	-11.147
▁민간인들	-11.1471
또	-11.1482
▁이송됐다	-11.1491
▁자녀들	-11.1511
▁선원들	-11.1532
셋	-11.1549
▁난민들	-11.1549
뮤	-11.1551
▁애틀랜타	-11.1551
▁엔지니어	-11.1551
▁military	-11.1552
▁괜찮	-11.1552
▁끊임없	-11.1552
▁내셔널	-11.1552
▁뒷받침	-11.1552
▁마이스페이스	-11.1552
▁마케팅	-11.1552
▁에르도간	-11.1552
▁잡았다	-11.1552
▁풀려났다	-11.1552
뚱	-11.1552
맘	-11.1552
down	-11.1552
▁호날두	-11.1552
▁기준금리	-11.1552
▁브리트니	-11.1552
덩어리	-11.1552
▁무소속	-11.1552
▁1-0	-11.1552
▁코스피	-11.1552
▁퇴역	-11.1552
▁나눠	-11.1552
▁신용카드	-11.1552
▁좌파	-11.1553
▁바바라	-11.1553
AU	-11.1553
▁밝혔으나	-11.1553
▁요즘	-11.1554
9000	-11.1555
▁재활	-11.1556
▁나아가	-11.1557
▁화염	-11.1557
되었는데	-11.1557
▁배심원단	-11.1559
▁Day	-11.1559
▁미치지	-11.1559
▁소방대원	-11.156
▁영광	-11.1561
▁조짐	-11.1561
▁때문입니다	-11.1562
▁방문객들	-11.1563
▁월터	-11.1564
▁도핑	-11.1565
▁돌아온	-11.1565
▁레이저	-11.1565
▁경제학자들	-11.1565
▁대기업	-11.1572
▁로렌	-11.1581
ook	-11.1588
아웃	-11.1598
▁연방정부	-11.1604
▁좋아한다	-11.1638
▁주주들	-11.1657
▁스카이	-11.1662
▁은행들	-11.1671
▁제조업	-11.1675
▁파손됐다	-11.1751
타이거	-11.1756
마이어	-11.1768
▁조씨	-11.1793
몸	-11.1793
알카에다	-11.1794
스페인	-11.1795
탈리아	-11.1839
▁그곳에	-11.1845
끔	-11.185
옐	-11.1854
▁Show	-11.1855
▁가즈프롬	-11.1855
▁골든글로브	-11.1855
▁베탕쿠르	-11.1855
▁싶어한다	-11.1855
▁애니메이션	-11.1855
▁엘리베이터	-11.1855
▁원자바오	-11.1855
▁일으켜	-11.1855
▁캔자스	-11.1855
▁테러지원국	-11.1855
긋	-11.1855
륜	-11.1855
셈	-11.1855
셜	-11.1855
쩌	-11.1855
캘	-11.1855
톡	-11.1855
▁되돌아	-11.1855
▁득표	-11.1855
▁시애틀	-11.1855
풋	-11.1855
▁1988	-11.1855
▁미끄러	-11.1855
▁아칸소	-11.1855
▁얼룩	-11.1855
▁받아들였다	-11.1855
▁식민지	-11.1855
▁트로피	-11.1855
▁맥케인	-11.1855
▁고릴라	-11.1855
▁혈액	-11.1855
▁관점에서	-11.1855
▁양키스	-11.1855
▁크레이그	-11.1855
▁인도주의적	-11.1855
▁논문	-11.1855
▁멸종위기	-11.1855
▁북극곰	-11.1855
▁털어	-11.1856
▁차원에서	-11.1856
▁유적지	-11.1856
▁군사작전	-11.1859
▁몸값	-11.186
▁적응	-11.186
▁가죽	-11.186
▁운반	-11.1861
▁현지경찰	-11.1862
▁저택	-11.1863
▁패리스	-11.1865
▁숨겨	-11.1865
▁폭등	-11.1865
▁남녀	-11.1866
▁대략	-11.1866
▁개념	-11.1867
▁입었으며	-11.1869
▁출범	-11.1871
되었지만	-11.1873
▁당사자	-11.1878
있거나	-11.1897
▁보좌관들	-11.1906
▁항의하	-11.1914
▁기본적	-11.1916
▁권위	-11.1916
아이들	-11.1953
여금	-11.2006
▁벌어졌	-11.2104
쁜	-11.2161
2006.05	-11.2167
2007.08	-11.2167
▁troops	-11.2167
▁국회의사당	-11.2167
▁다운로드	-11.2167
▁맥도날드	-11.2167
▁머리카락	-11.2167
▁베어스턴스	-11.2167
▁슈퍼대의원	-11.2167
▁에스토니아	-11.2167
▁티셔츠	-11.2167
▁펭귄	-11.2167
▁평화협상	-11.2167
댐	-11.2167
썩	-11.2167
홉	-11.2167
2006.02	-11.2167
▁구호물품	-11.2167
▁덕분에	-11.2167
▁베이루트	-11.2167
▁비즈니스	-11.2167
▁니케이	-11.2167
NFL	-11.2167
▁have	-11.2167
▁그린피스	-11.2167
▁취득	-11.2167
▁추산했다	-11.2167
▁칭찬	-11.2167
▁상반기	-11.2167
WFP	-11.2167
▁2008.11	-11.2167
▁대한민국	-11.2167
▁실업수당	-11.2167
▁착취	-11.2167
▁원문기사	-11.2167
▁간호사	-11.2167
2007.07	-11.2167
▁소탕작전	-11.2168
▁바꿔	-11.2168
▁진흙	-11.2169
▁마사지	-11.217
▁묘지	-11.2171
▁오늘밤	-11.2171
▁동유럽	-11.2171
2006.10	-11.2172
▁같습니다	-11.2173
▁하얀	-11.2176
▁선고받	-11.2179
▁회부	-11.218
▁발효	-11.2181
▁명칭	-11.2183
▁모르겠다	-11.2208
ext	-11.2219
▁파손되	-11.2314
form	-11.2319
회사들	-11.234
론자들	-11.236
line	-11.2394
ami	-11.2394
FARC	-11.2449
폭탄테러	-11.245
검찰	-11.2454
▁김씨	-11.2454
붕	-11.2482
융	-11.2486
▁로스앤젤레스	-11.249
▁모가디슈	-11.249
▁Secretary	-11.249
▁상관없이	-11.249
▁오케스트라	-11.249
▁유니세프	-11.249
▁이르렀다	-11.249
▁천문학자들	-11.249
▁칸다하르	-11.249
▁크로아티아	-11.249
▁트라볼타	-11.249
돋	-11.249
쉴	-11.249
쯔	-11.249
핏	-11.249
▁AFP	-11.249
▁브리티시	-11.249
▁이르기까지	-11.249
▁황우석	-11.249
▁무너져	-11.249
▁항생제	-11.249
▁정해지지	-11.249
▁집무실	-11.249
▁가속화	-11.249
▁계열사	-11.249
▁매머드	-11.249
▁되풀이	-11.249
▁어두운	-11.249
마누엘	-11.249
▁1/4	-11.249
▁중산층	-11.249
▁크로커	-11.249
▁3-0	-11.249
▁다행히	-11.249
▁국가주석	-11.249
▁세비야	-11.249
▁대주교	-11.249
▁유조선	-11.249
▁흐름	-11.249
스트리트	-11.249
▁브루스	-11.249
▁공군기지	-11.249
▁침범	-11.249
(25)	-11.249
▁면접	-11.2491
사령부	-11.2491
▁히드로	-11.2491
▁프린스	-11.2492
▁잔혹	-11.2492
▁벌어들	-11.2492
▁효력	-11.2492
▁피닉스호	-11.2493
▁요새	-11.2496
▁comp	-11.2497
▁밤새	-11.2497
▁녹색	-11.2497
ncy	-11.2502
▁국회의원들	-11.2541
▁전설적	-11.2563
스러워	-11.2563
주민들	-11.262
=	-11.2693
▁회원들	-11.2757
넘	-11.2791
뼈	-11.2793
CIA	-11.2794
▁Foreign	-11.2823
▁attack	-11.2823
▁글래스고	-11.2823
▁상파울루	-11.2823
▁스튜어트	-11.2823
▁야스쿠니	-11.2823
▁우주정거장	-11.2823
▁인종차별	-11.2823
▁카자흐스탄	-11.2823
▁커뮤니티	-11.2823
▁광우병	-11.2823
▁수퍼대의원	-11.2823
▁양육권	-11.2823
▁왕복선	-11.2823
▁힌두교	-11.2823
윗	-11.2823
▁당나귀	-11.2823
▁몸무게	-11.2823
▁부작용	-11.2823
▁마라도나	-11.2823
▁무너진	-11.2823
▁kill	-11.2823
▁예언자	-11.2823
인디아나	-11.2823
ough	-11.2823
▁몬테	-11.2823
▁카지노	-11.2823
▁일축했다	-11.2823
▁닉슨	-11.2823
▁침투	-11.2823
count	-11.2824
▁물리치	-11.2824
▁모로코	-11.2824
▁교과서	-11.2824
▁동북아	-11.2824
▁쇼핑몰	-11.2824
▁도와주	-11.2825
▁수비수	-11.2825
▁State	-11.2825
▁회색	-11.2826
▁높아졌다	-11.2827
▁회피	-11.2828
▁쿠르드족	-11.2828
▁있었는지	-11.2828
▁연휴	-11.2829
▁농담	-11.283
▁필리스	-11.2831
▁활기	-11.2831
▁극단주의자들	-11.2845
▁동맹국들	-11.2847
▁do	-11.2865
▁이례적	-11.2867
▁일상적	-11.292
oint	-11.2944
▁효율적	-11.2952
▁여자아이	-11.2955
▁효율	-11.3036
▁개최되	-11.3102
dge	-11.3139
책임자	-11.3153
▁무장대원들	-11.3153
멍	-11.3164
팽	-11.3168
&#8226;	-11.3168
▁Party	-11.3168
▁election	-11.3168
▁leader	-11.3168
▁protest	-11.3168
▁뉴캐슬	-11.3168
▁동계올림픽	-11.3168
▁매코맥	-11.3168
▁맥코맥	-11.3168
▁미드필더	-11.3168
▁세계보건기구	-11.3168
▁악영향	-11.3168
▁암스트롱	-11.3168
▁포괄적	-11.3168
넥	-11.3168
돔	-11.3168
엽	-11.3168
옵	-11.3168
쿼	-11.3168
2006.06	-11.3168
▁도미니카	-11.3168
▁촛불	-11.3168
▁친선경기	-11.3168
▁종신형	-11.3168
▁도널드	-11.3168
▁여배우	-11.3168
▁총기난사	-11.3168
▁바쿠바	-11.3168
▁빠뜨	-11.3168
▁앵커	-11.3168
▁아스널	-11.3168
▁제니퍼	-11.3168
PML	-11.3168
▁린제이	-11.3168
▁안락사	-11.3168
▁흥행	-11.3168
▁틀림	-11.3168
▁속옷	-11.3168
▁여파로	-11.3169
▁맹세	-11.3169
▁크라우	-11.3169
▁퇴직	-11.3169
▁꼬리	-11.3169
▁기후변화	-11.3169
▁중서부	-11.3169
▁수하물	-11.3169
▁취약	-11.3169
▁둘째	-11.317
▁퇴장	-11.317
▁품질	-11.3171
2006.12	-11.3172
▁Kim	-11.3173
▁계곡	-11.3175
2008.06	-11.3176
Time	-11.3176
▁산악지역	-11.3207
▁부상자들	-11.3225
▁지연되	-11.34
▁청소년들	-11.34
사이드	-11.3427
▁일으켰	-11.3428
국민들	-11.3515
ormer	-11.3517
미얀마	-11.3522
흙	-11.3523
뻔	-11.3525
(32)	-11.3525
7,000	-11.3525
•	-11.3525
▁House	-11.3525
▁invest	-11.3525
▁같았다	-11.3525
▁갤런당	-11.3525
▁모하마드	-11.3525
▁무하메드	-11.3525
▁미네소타	-11.3525
▁사형집행	-11.3525
▁슈워제네거	-11.3525
▁오키나와	-11.3525
▁재정경제부	-11.3525
▁침팬지	-11.3525
▁터미널	-11.3525
▁퍼트레이어스	-11.3525
▁피추시킨	-11.3525
▶	-11.3525
꽤	-11.3525
팍	-11.3525
팟	-11.3525
mission	-11.3525
▁냄새	-11.3525
▁블로거	-11.3525
▁클루니	-11.3525
▁생중계	-11.3525
▁승용차	-11.3525
▁방사능	-11.3525
▁호르몬	-11.3525
back	-11.3525
▁유럽축구연맹	-11.3525
NEW	-11.3525
▁페이스북	-11.3525
▁북동쪽	-11.3525
▁뉴욕타임스	-11.3525
▁깃발	-11.3525
▁앗아	-11.3525
▁787	-11.3525
▁북서쪽	-11.3525
▁지중해	-11.3525
▁첨단	-11.3525
▁영부인	-11.3526
▁염두	-11.3526
▁냉전	-11.3526
▁미망인	-11.3526
▁노왁	-11.3526
2006.07	-11.3526
▁걸려있	-11.3527
▁면밀	-11.3527
▁타이완	-11.3528
▁흐르	-11.3528
2007.10	-11.3528
▁제트기	-11.3529
▁패널	-11.353
fire	-11.3532
브리지	-11.3539
▁적대적	-11.3553
▁밝혔었	-11.3636
▁장기적	-11.3777
▁생존자들	-11.3827
▁추정되	-11.3844
▁피닉스	-11.3891
꾸	-11.3893
2007.05	-11.3895
International	-11.3895
▁200806.0	-11.3895
▁work	-11.3895
▁그루지아	-11.3895
▁그루지야	-11.3895
▁놀랐다	-11.3895
▁뉴멕시코	-11.3895
▁담겨있다	-11.3895
▁만장일치	-11.3895
▁메사추세츠	-11.3895
▁블룸버그	-11.3895
▁빨간색	-11.3895
▁올랐으며	-11.3895
▁월드시리즈	-11.3895
▁이스탄불	-11.3895
▁케르비엘	-11.3895
▁클리블랜드	-11.3895
▁탈라바니	-11.3895
갓	-11.3895
띠	-11.3895
볍	-11.3895
삽	-11.3895
팰	-11.3895
▁마흐무드	-11.3895
▁박테리아	-11.3895
▁벨몬트	-11.3895
▁캥거루	-11.3895
▁프로듀서	-11.3895
둬	-11.3895
eneral	-11.3895
▁셰이크	-11.3895
▁스피처	-11.3895
▁오징어	-11.3895
▁전염병	-11.3895
▁구조조정	-11.3895
▁김계관	-11.3895
▁앙겔	-11.3895
▁겁니다	-11.3895
▁심사위원	-11.3895
▁피아노	-11.3895
▁비영리	-11.3896
▁닥터	-11.3896
▁자서전	-11.3896
▁year	-11.3896
▁셔츠	-11.3896
▁김선일	-11.3896
▁습관	-11.3897
▁흡수	-11.3897
▁하리리	-11.3898
▁과도한	-11.3898
▁후계자	-11.3901
헬	-11.3903
땅	-11.3904
캘리포니아	-11.3907
덮	-11.392
Inter	-11.3969
▁중단시키	-11.3975
▁파악하	-11.4181
▁du	-11.4223
▁치명적	-11.4229
▁착용하	-11.4257
(23)	-11.428
4,000	-11.428
▁first	-11.428
▁과테말라	-11.428
▁구스마오	-11.428
▁수하르토	-11.428
▁알렉산드	-11.428
▁애틀란타	-11.428
▁인플루엔자	-11.428
▁자메이카	-11.428
▁조선중앙통신	-11.428
겹	-11.428
놔	-11.428
퉁	-11.428
푼	-11.428
▁YORK	-11.428
▁댈러스	-11.428
▁에탄올	-11.428
무장혁명군	-11.428
▁Court	-11.428
▁나타낸	-11.428
▁세실리아	-11.428
▁여동생	-11.428
▁agree	-11.428
▁따돌리	-11.428
큰	-11.4307
콕	-11.4678
낫	-11.468
뇨	-11.468
멧	-11.468
벡	-11.468
탬	-11.468
듬	-11.468
딱	-11.468
룽	-11.468
멕	-11.468
찔	-11.468
획	-11.5083
뭉	-11.5097
콥	-11.5097
궐	-11.5097
뭇	-11.5097
솜	-11.5097
츨	-11.5097
캣	-11.5097
켐	-11.5097
쿤	-11.5097
퀘	-11.5097
펫	-11.5097
몇	-11.5155
앨	-11.5157
롯	-11.5525
늄	-11.5531
옌	-11.5531
짙	-11.5531
촨	-11.5531
튠	-11.5531
즐	-11.5607
넓	-11.5625
됨	-11.5984
벳	-11.5985
갱	-11.5986
뉘	-11.5986
앵	-11.5986
긍	-11.5986
츄	-11.5986
덱	-11.5986
둠	-11.5986
밭	-11.5986
쥬	-11.5986
쳇	-11.5986
훌	-11.5986
홈	-11.6084
톰	-11.6088
윌	-11.6096
므	-11.623
뷔	-11.6458
봇	-11.646
앗	-11.6462
툰	-11.6462
덟	-11.6462
볕	-11.6462
윙	-11.6462
봅	-11.6462
뒤	-11.6589
욱	-11.6953
깁	-11.6961
굽	-11.6962
낀	-11.6962
맙	-11.6962
샴	-11.6962
쩔	-11.6962
콴	-11.6962
앞	-11.7073
꿈	-11.7114
왜	-11.7114
끝	-11.7115
룡	-11.7484
늬	-11.7488
럿	-11.7488
륭	-11.7488
벵	-11.7488
빔	-11.7488
폼	-11.7488
뜯	-11.7488
떠	-11.7664
낙	-11.7666
즌	-11.8024
헝	-11.8044
캇	-11.8044
흠	-11.8044
잇	-11.8258
셸	-11.8617
反	-11.8632
英	-11.8632
뚝	-11.8632
띤	-11.8632
쉘	-11.8632
팻	-11.8632
퐁	-11.8632
샨	-11.8632
깅	-11.8632
깊	-11.8878
섯	-11.9249
콧	-11.9253
텀	-11.9257
市	-11.9257
늑	-11.9257
랏	-11.9257
룻	-11.9257
윅	-11.9257
팡	-11.9257
쑤	-11.9257
펑	-11.9257
솟	-11.9922
댈	-11.9924
뎌	-11.9924
엉	-11.9924
옴	-11.9924
쟈	-11.9924
줌	-11.9924
둡	-11.9924
녹	-12.0253
숨	-12.0263
첫	-12.0265
껴	-12.0638
뜰	-12.0638
샹	-12.0638
쿡	-12.0638
헥	-12.0638
눕	-12.0638
랴	-12.0638
뭘	-12.0638
샵	-12.0638
셍	-12.0638
듭	-12.1403
쏠	-12.1407
쪼	-12.1407
챈	-12.1407
性	-12.1407
故	-12.1407
륨	-12.1407
샷	-12.1407
싹	-12.1407
쥔	-12.1407
퍽	-12.1407
뎀	-12.1407
씬	-12.1407
벗	-12.1866
웹	-12.1867
즉	-12.1867
횡	-12.224
벙	-12.2241
엣	-12.2241
젼	-12.2241
쿵	-12.2241
新	-12.2241
넛	-12.2241
랠	-12.2241
삐	-12.2241
싯	-12.2241
엿	-12.2241
줍	-12.2241
칫	-12.2241
핼	-12.2241
옷	-12.2774
묻	-12.2776
q	-12.3146
궂	-12.315
녕	-12.315
렝	-12.315
벼	-12.4145
왁	-12.4146
훼	-12.415
펭	-12.415
깨	-12.4884
美	-12.4886
낮	-12.4887
곧	-12.4888
섹	-12.5224
냄	-12.5261
찮	-12.5261
묵	-12.6132
갖	-12.6133
샌	-12.6135
꼭	-12.6136
좀	-12.6137
놨	-12.6423
휠	-12.6511
뛰	-12.7564
쌀	-12.7564
맛	-12.7565
멀	-12.7565
탤	-12.7939
깜	-12.9606
촛	-12.9606
낄	-12.9606
귄	-12.9606
셴	-12.9606
쓴	-13.1232
밑	-13.1232
삶	-13.1233
꿀	-13.1598
맡	-13.3726
큼	-13.4087
꿔	-13.4098
눠	-13.41
숫	-13.4104
덧	-13.4106
뜻	-13.7068
룹	-13.7414
끗	-13.7439
걱	-13.7439
빚	-14.2067
밝	-14.2071
맺	-14.2072
힉	-14.2436
많	-15.1994
숀	-15.2092
봄	-15.2093
끓	-15.2224
갚	-15.2225
쾰	-15.2226
찼	-15.2227
찢	-15.2228
잰	-15.2229
웸	-15.223
샐	-15.2231
깥	-15.2232
겉	-15.2233
팸	-15.2234
몹	-15.2235
꼴	-15.2236
씌	-15.2237
맷	-15.2238
뀐	-15.2239
깎	-15.224
콸	-15.2241
쏴	-15.2242
썹	-15.2243
슭	-15.2244
킷	-15.2245
챌	-15.2246
얇	-15.2247
씀	-15.2248
뀔	-15.2249
꽉	-15.225
꽂	-15.2251
±	-15.2252
뭐	-15.2253
댕	-15.2254
꿨	-15.2255
꾀	-15.2256
깐	-15.2257
얹	-15.2258
쐈	-15.2259
뱃	-15.226
긱	-15.2261
씻	-15.2262
뻗	-15.2263
렷	-15.2264
낚	-15.2265
꼼	-15.2266
$	-15.2267
잦	-15.2268
엎	-15.2269
숍	-15.227
뭔	-15.2271
맑	-15.2272
핫	-15.2273
핍	-15.2274
몫	-15.2275
짖	-15.2276
샀	-15.2277
낡	-15.2278
곁	-15.2279
컸	-15.228
캡	-15.2281
쏜	-15.2282
젭	-15.2283
싣	-15.2284
맵	-15.2285
닮	-15.2286
젖	-15.2287
쁨	-15.2288
릅	-15.2289
궈	-15.229
탓	-15.2291
캥	-15.2292
웍	-15.2293
굶	-15.2294
뮬	-15.2295
릇	-15.2296
횟	-15.2297
췌	-15.2298
틈	-15.2299
댓	-15.23
붓	-15.2301
́	-15.2302
챙	-15.2303
앰	-15.2304
닿	-15.2305
펌	-15.2306
흩	-15.2307
뮌	-15.2308
뤼	-15.2309
뿔	-15.231
괜	-15.2311
뤘	-15.2312
튀	-15.2313
꼽	-15.2314
굳	-15.2315
굉	-15.2316
녔	-15.2317
랬	-15.2318
곱	-15.2319
픔	-15.232
밸	-15.2321
닙	-15.2322
낌	-15.2323
띄	-15.2324
넹	-15.2325
밟	-15.2326
눴	-15.2327
싫	-15.2328
윔	-15.2329
괄	-15.233
옛	-15.2331
탔	-15.2332
썼	-15.2333
핸	-15.2334
딪	-15.2335
잊	-15.2336
깝	-15.2337
멤	-15.2338
벅	-15.2339
흰	-15.234
갇	-15.2341
췄	-15.2342
묶	-15.2343
뱅	-15.2344
닫	-15.2345
왼	-15.2346
뀌	-15.2347
렴	-15.2348
읽	-15.2349
깔	-15.235
궤	-15.2351
탱	-15.2352
탠	-15.2353
쌓	-15.2354
쫓	-15.2355
짧	-15.2356
쏟	-15.2357
뭄	-15.2358
뒷	-15.2359
걷	-15.236
슴	-15.2361
훨	-15.2362
릎	-15.2363
뽑	-15.2364
뿌	-15.2365
붉	-15.2366
앓	-15.2367
얘	-15.2368
옆	-15.2369
멋	-15.237
꺾	-15.2371
낳	-15.2372
곽	-15.2373
휩	-15.2374
돕	-15.2375
녁	-15.2376
듣	-15.2377
춰	-15.2378
끊	-15.2379
됩	-15.238
젝	-15.2381
늦	-15.2382
앉	-15.2383
슷	-15.2384
렵	-15.2385
쿄	-15.2386
밴	-15.2387
옮	-15.2388
봤	-15.2389
젊	-15.239
챔	-15.2391
촬	-15.2392
빨	-15.2393
찍	-15.2394
떻	-15.2395
렀	-15.2396
웠	-15.2397
겪	-15.2398
믿	-15.2399
펼	-15.24
섰	-15.2401
먹	-15.2402
렇	-15.2403
̋	-15.2404
잃	-15.2405
캠	-15.2406
싶	-15.2407
랐	-15.2408
끌	-15.2409
갔	-15.241
켰	-15.2411
밖	-15.2412
얻	-15.2413
쇄	-15.2414
좋	-15.2415
찾	-15.2416
떨	-15.2417
높	-15.2418
맞	-15.2419
났	-15.242
혐	-15.2421
협	-15.2422
확	-15.2423
없	-15.2424
떤	-15.2425
았	-15.2425
